#version: 0.2
Ġ t
Ġ a
i n
e r
Ġt h
o n
r e
Ġ c
Ġth e
a t
Ġ o
Ġ s
e d
i t
e n
e s
o r
Ġ in
i s
n d
Ġ b
a l
Ġ w
Ġ f
i on
Ġ p
Ġ d
Ġt o
i c
e c
in g
r o
a r
i l
u s
Ġ m
Ġa nd
a n
Ġo f
en t
a c
e t
o m
a s
Ġ v
Ġ re
l o
l e
er s
Ġ h
Ġ T
t e
Ġ e
at ion
Ġ S
u l
Ġ C
Ġ n
â Ģ
l y
a m
2 0
u t
Ġb e
u n
h e
Ġ us
Ġ A
ac k
ec t
v e
u r
Ġ (
a b
r i
Ġ is
it y
c t
20 1
v er
Ġc on
Ġa t
Ġ I
i m
s t
i d
Ġc om
a d
i g
o w
Ġth at
o t
Ġ on
o d
i f
Ġa n
a in
o re
Ġ M
Ġ l
Ġe x
o l
Ġf or
Ġ 1
Ġw h
a g
it h
t er
Ġat t
Ġo r
a re
p t
c e
Ġ g
Ġp ro
Ġ P
Ġa s
es s
at e
V E
ĠT he
Ġw ith
Ġ W
s e
m ent
i a
Ġatt ack
Ġa l
Ġ D
c h
i r
t r
Ġb y
a y
p p
Ġw e
il e
Ġ R
ro m
Ġ F
ab il
w s
w are
n er
Ġs er
Ġ it
Ġcom p
i al
Ġ U
Ġ .
ar y
at ed
a nd
ul ner
C VE
Ġ âĢ
k e
es t
t h
s s
ulner abil
e l
u p
y s
s o
f ore
Ġ E
Ġv ia
0 0
Ġin f
or m
Ġm al
Ġbe fore
i es
Ġ O
Ġcon t
q u
is t
u re
p er
Ġth is
Ġa d
ag e
or t
Ġa re
âĢ Ļ
Ġs t
f t
Ġ H
a il
u g
Ġf rom
l l
te m
Ġc k
Ġo te
Ġo ws
od e
ĠI n
Ġn ot
Ġ B
er e
Ġ N
ic h
c c
Ġv ulnerabil
Ġd e
Ġ un
a ve
v ic
i ve
b er
lo w
Ġwh ich
Ġ 2
Ġck ers
Ġ G
or s
o c
Ġ lo
ar g
Ġ r
Ġ en
f f
i v
or k
h is
i re
am p
Ġ 201
am e
Ġus ed
s p
Ġs u
in d
Ġc o
Ġcom m
Ġmal ware
âĢ Ŀ
Ġh ave
Ġf ile
Ġ L
ow n
Ġw as
Ġa ct
al l
ys tem
ig n
o us
r a
ul d
Ġs p
i ed
T he
o st
u nd
ac t
ation s
Ġ 3
ar t
arg et
p lo
ion s
r ary
ĠâĢ ľ
at a
l ic
it e
u m
il l
Ġc ode
u d
an t
Ġvulnerabil ity
orm ation
c ri
vic e
Ġb it
Ġh as
ab le
Ġs e
i z
et w
Ġt arget
Ġwe b
if ied
i b
ec ur
en d
ecur ity
Ġbit rary
Ġinf ormation
th er
Ġ "
e w
e x
Ġa cc
ow s
Ġ im
r y
Ġs ystem
u te
Ġin c
Ġ 0
i ous
Ġc h
Ġd ata
Ġad d
e m
l i
Ġs h
Ġe m
or d
Ġa pp
ul t
Ġo b
Ġ J
h t
lo ad
i p
Ġc a
ect ion
u ct
ic al
Ġ le
p ort
f er
Ġp o
as s
Ġ 6
cri pt
e ar
id ent
a k
re ss
en ce
us t
Ġd is
Ġ V
in e
ic t
p h
plo it
Ġf il
etw ork
Ġs o
ind ows
ect ed
ter n
ac h
Ġ 4
or y
Ġus er
it ies
re at
ug h
Ġal so
Ġus ers
Ġo ther
ro up
Ġ 00
us e
Ġser vice
Ġ K
ec ute
Ġex ploit
k n
Ġd o
un t
an g
201 2
Ġ 5
Ġa b
Ġp re
c o
ĠW indows
c om
Ġ x
Ġcomm and
y ber
201 0
Ġin d
un ct
Ġc an
u b
Ġattack s
ire ct
as e
Ġd et
u e
ut h
Ġm od
ĠT his
Ġo per
p l
ĠC h
Ġbe en
Ġfil es
Ġw ere
Ġ 7
Ġ up
v ers
ec ified
Ġthe ir
m in
ry pt
t o
an s
Ġf unct
Ġcon f
o o
Ġ y
Ġs tr
im e
Ġthe se
en s
om e
Ġn etwork
ec h
j ect
u ment
h er
201 1
Ġser ver
ri g
Ġco uld
Ġo ver
ec ut
Ġg roup
ect ors
Ġs cript
e b
ar ch
v ed
Ġt r
as ed
Ġ 8
ar d
sp ecified
l ud
Ġx ecute
Ġin st
ĠT h
t ain
Ġf ol
c ess
Ġs ecurity
Ġre l
on g
Ġ 20
s er
Ġa r
ĠU n
kn own
ra ft
id e
Ġcont ain
ic ro
Ġattack er
u al
if ic
a v
Ġ ,
Ġv ectors
Ġus ing
Ġ1 0
Ġus e
o ut
Ġex ecut
Ġc raft
at es
ĠC VE
ro ugh
Ġit s
ion al
Ġd if
Ġcraft ed
Ġre g
i an
Ġinc lud
oc ument
a p
Ġem ail
as t
ict im
Ġd en
Ġp ri
d o
Ġca use
ĠH T
Ġw ill
Ġim p
o uld
k s
in t
s ite
Ġth rough
Ġp ar
om ain
Ġv ictim
is tr
Ġthe y
ro l
Ġon e
Ġc re
Ġ X
Ġden ial
qu est
l es
Ġ ke
Ġp art
Ġsp ec
ĠA P
n t
lo g
so ft
an y
' s
Ġp l
Ġc yber
ĠM icro
Ġadd ress
Ġdif fer
Ġ -
r as
Ġre port
o s
Ġd ocument
Ġb ack
a ign
amp aign
ech n
Ġd ec
ĠS er
ĠE x
Ġa g
Ġp er
Ġe v
Ġattack ers
ĠS t
o und
a ke
Ġan y
Ġf ir
Ġfol low
Ġdo es
o unt
Ġd irect
ic ious
ar i
Ġv ers
Ġs amp
Ġ20 0
Ġin v
o p
c al
Ġin ter
Ġal low
Ġ ident
us s
o te
Ġacc ess
Ġd omain
Ġal l
1 0
Ġen c
on e
Ġto ol
Ġd es
g r
Ġc ampaign
g an
Ġb ut
lic ation
Ġg o
Ġre m
Ġrel ated
es e
A T
Ġdiffer ent
Ġth reat
am et
i ke
ĠR e
ĠMicro soft
is e
y p
on ent
3 2
Ġpro v
Ġs ome
ss ib
Ġv al
ph p
Ġo ut
Ġ Ġ
Ġpar amet
Ġm ore
Ġn ew
Ġlo g
f orm
Ġth an
on d
. .
ig ht
Ġp ay
Ġt ime
o ur
Ġcomp onent
Ġp at
Ġpo ssib
Ġm ay
ac e
ĠS P
Ġan al
Ġmal icious
Ġcomp ut
Ġin to
Ġs c
w o
Ġh e
1 1
Ġwh o
Ġn um
in k
Ġ 9
e ver
Ġpro cess
Ġs ame
Ġcomp rom
Ġl ike
Ġh ost
Ġfunct ion
Ġcon n
) .
f ter
h ing
Ġwh en
tern et
ro ss
Ġre c
Ġd own
ĠC om
ex e
Ġfollow ing
Ġact iv
Ġm ess
Ġke y
u le
Ġt echn
Ġsu ch
r u
Ġinst all
at ing
c es
Ġr un
Ġthe m
Ġcont rol
S S
an ce
Ġun specified
Ġw ould
ĠI P
Ġvulnerabil ities
1 2
Ġin te
Ġc all
re e
ent ic
un ic
d uct
Ġs im
ĠCh in
Ġa ff
Ġp ub
Ġconf ig
ur re
uth entic
M L
se arch
Ġt wo
T P
Ġ '
Ġn ame
Ġre s
Ġor gan
d er
ent ial
Ġpro per
o k
Ġpri v
Ġfir st
Ġf ound
it es
Ġ1 1
on t
ĠA n
st r
Ġparamet er
n ing
vic es
Ġser vers
Ġthe n
ult ip
ulnerabil ity
p en
Ġl ist
ĠR uss
Ġ if
Ġs a
Ġacc ount
uct ure
Ġs et
Ġ k
Ġde f
ff ic
Ġp ass
e p
ĠAP T
pt ion
Ġb u
is ed
Ġtarget ed
d ate
ft ware
Ġn am
ĠW eb
w ord
ĠI t
Ġre quest
ultip le
ment s
t t
Ġre sp
ing s
Ġenc rypt
Ġre search
Ġv ari
Ġw ork
Ġc or
ical ly
Ġa v
ver n
n el
ĠIn ternet
Ġcommand s
ĠA pp
is h
c ed
Ġc er
T E
Ġmod ule
) ,
ĠâĢ ĵ
Ġorgan iz
ag es
201 3
Ġob tain
f ul
Ġcont ent
I n
Ġd el
ri b
Ġun known
re ad
Ġsystem s
en er
l a
Ġpre v
Ġs ign
ĠâĢ ĺ
Ġ ;
ys is
Ġsu b
Ġ ro
T his
Ġdown load
1 5
Ġ ent
L L
if y
Q L
Ġh ack
g er
Ġon ly
Ġag ain
ow ever
Ġ j
ĠW h
Ġcomm unic
rig ht
he ll
i x
ĠSer ver
p r
co ver
Ġnum ber
b e
Ġm an
n et
cc ess
ser ved
i ew
Ġab out
u x
urre nt
i qu
es p
ur ing
li er
ve lo
Ġh and
Ġb ot
Ġproper ly
Ġprov id
o ve
Ġdet ail
ï ¿
Ġt yp
Ġpay load
his hing
ï¿ ½
ĠO r
on s
Ġo ur
ear s
ĠP ro
r it
Ġpro t
Ġ /
it ional
Ġvers ion
it ion
Ġm ost
Ġs ec
ĠHT ML
Ġm et
ro j
at ure
ig h
6 4
ation al
Ġad min
ĠE n
lo c
vern ment
o x
Ġd ro
Ġso ftware
is s
Ġn e
ur ation
l ed
Ġp ers
Ġlo c
Ġof f
ust om
Ġh ad
Ġd ri
Ġtool s
Ġsamp les
Ġin ject
Ġre ad
1 8
1 3
o se
g le
ĠS QL
Ġind ic
Ġ uthentic
ang e
Ġcon s
ĠS ecurity
Ġde velo
Ġwe ll
do or
Ġ und
ff er
o u
Ġpass word
ul ar
Ġwith in
ay s
l d
oo gle
gr am
Ġ201 4
Ġtarget s
1 6
ial ly
Ġl ink
b ed
Ġcomprom ised
Ġagain st
in ce
o v
Ġse ver
Ġth ere
b ased
ĠU R
Ġ [
Ġn o
at er
Ġav ail
Ġactiv ity
e en
le ment
h od
Ġg ain
e f
ad er
Ġc urrent
Ġmess age
Ġ known
ras h
ĠK ore
u es
at ors
ï¿½ ï¿½
Ġcomput er
Ġpub lic
rib ut
im ate
tr ucture
Ġweb site
plo y
ile g
Ġ right
at ive
ĠHT TP
Ġb ec
il y
1 4
w w
Ġsu pp
ĠF or
roj an
Ġs end
ras tructure
ac le
1 7
ĠUn specified
ot her
Ġo cal
Ġus es
etw een
Ġanal ysis
Ġc ustom
ri es
Ġfor m
Ġob served
Ġpossib ly
ar k
amp le
av a
ĠOr acle
Ġm ain
ll ig
Ġsa id
ol l
Ġscript ing
li ent
d ll
2 8
Ġinclud ing
ic s
il ar
er y
t en
s ent
Ġ qu
tem pt
ex t
Ġdevelo p
x t
Ġcontain s
o g
Ġh igh
Ġmet hod
ĠO n
2 5
Ġsu ccess
Ġpriv ileg
ĠA d
Ġat tempt
iz e
X SS
Ġb etween
Ġg ener
ĠG oogle
Ġis s
Ġvictim s
al ly
E T
Ġp ack
ans om
Ġo pen
Ġa c
ĠW e
y m
od ed
Ġs te
S A
Ġsever al
Ġcre d
Ġm em
Ġp h
o b
llig ence
Ġm on
ur ce
Ġgo vernment
Ġbe ing
Ġinf ected
Ġin it
Ġinter est
Ġc rash
Ġex p
Ġs ent
ĠS o
Ġ :
b ers
Ġconfig uration
Ġover f
o log
0 7
ad e
iz ed
2 7
Ġpro gram
Ġst art
as h
ir d
k a
ig ure
o ugh
Ġp hishing
Ġm any
Ġde m
r ain
O S
it ive
Ġstr ing
Ġle g
2 4
Ġm e
pl or
Ġvari ant
ĠP l
el d
Ġadmin istr
c i
ic k
Ġinf rastructure
ĠUR L
Ġimp act
Ġch ec
Ġback door
Ġdro pp
Ġconn ect
Ġdirect ory
ĠJ ava
1 9
Ġlike ly
Ġright s
Ġr ansom
Ġprev ious
Ġact ors
ĠChin a
O R
Ġ' '
ĠD LL
v es
Ġb ro
et s
m s
Ġ z
p ut
plor er
Ġsim ilar
Ġa fter
Ġ ulnerability
l ish
Ġex t
Ġar lier
en c
et e
ĠM an
Ġspec ific
Ġrem ote
d ay
al s
m e
Ġ =
Ġcomp any
le ar
l ine
Ġreg istr
k y
Ġre t
ĠRuss ian
Ġin j
est ig
Ġsamp le
Ġsuccess ful
Ġl arg
Ġoper ations
Ġs ens
i e
it ed
Ġb ased
k ing
w n
T h
ir us
ĠCom m
Ġaff ect
Ġb in
ent ly
o int
Ġc l
ĠS h
Ġdetail s
Ġin s
Ġ201 3
ak es
0 3
ĠF ire
ru ption
Ġca p
Ġy ou
Ġpat h
I N
t he
0 9
at or
Ġaccount s
Ġt ra
k rain
are d
er nel
il d
Ġd uring
ore d
Ġp ort
i eld
Ġdis cover
2 3
at ch
ib le
Ġoverf low
Ġorganiz ations
Ġin t
il ity
r an
Ġa ka
m ail
e am
as es
Ġsec ond
A N
Ġab le
Ġ201 5
p ass
Ġc ase
ul l
/ /
ĠEx plorer
on se
Ġad v
Ġsens itive
ĠO S
do be
Ġ i
Ġdomain s
Ġf e
Ġweb s
ĠTh ese
te xt
Ġuthentic ated
as p
Ġex ample
rig in
Ġre ce
u ke
or th
ow er
Ġres ult
ĠC on
Ġwh ere
0 4
ĠC ross
iqu e
ĠL in
ol d
Ġencrypt ed
Ġ1 2
Ġbe h
Ġdis c
Ġas s
p s
qu ire
Ġimp lement
Ġc oll
Ġlo ad
ĠT rojan
Ġw ay
p lication
Ġan other
Ġident ified
Ġinv ol
Ġst ate
Ġwebs ites
a use
Ġvers ions
is ter
ay er
Ġval ue
ic e
Ġm ach
ĠI D
Ġl a
se l
Ġse e
ĠU krain
ist s
ĠIn te
ĠA dobe
ro und
Ġbu ffer
Ġs ite
Ġcred ential
Ġcer tain
Ġleg it
A R
Ġp plication
ĠM ultiple
e e
Ġor der
ual ly
Ġbot h
Ġpro duct
Ġ Y
Ġg et
so ci
Ġup date
il it
Ġpo int
Ġsupp ort
Ġl ong
. ]
Ġinv estig
Ġas soci
ĠĠ ĠĠ
id d
I S
0 5
Ġ |
Ġprivileg es
3 3
er r
m ed
Ġp ol
ĠC yber
0 6
ion age
[ .]
ĠO per
Ġaddress es
Ġper form
Ġe ff
Ġc lient
Ġo rigin
ign ed
Ġtr ans
Ġdec rypt
Ġund er
A P
s h
Ġlegit imate
: //
Ġ201 6
Ġk ernel
E R
Ġavail able
Ġv is
Ġfunct ional
Ġen g
tr y
Ġd ist
Ġnam es
Ġexecut ion
abil ity
lo ws
ĠI nd
Ġexecut able
end ed
Ġ Z
Ġadd itional
Ġrun ning
ur n
Ġinj ection
2 9
Ġtarget ing
Ġcampaign s
Ġre p
Ġh ard
Ġse en
ord ing
00 0
Ġexploit s
p y
Ġdocument s
ĠA l
t ing
Ġinit ial
ĠA r
o z
Ġre le
Ġby pass
ĠChin ese
loc k
oo k
Ġgroup s
, âĢĿ
Ġ %
Ġob ject
Ġs hell
Ġh ow
ĠA s
Ġcont in
ĠA nd
âĢ ľ
Ġcor ruption
ĠLin ux
ĠA ct
ug g
on str
Ġre d
ce pt
ĠR AT
ed ia
in es
Ġm ultiple
t ific
Ġe ar
Ġe ach
u ch
Ġf am
e op
Ġt ake
er o
Ġ $
Ġp age
Ġbe li
Ġanal y
A C
a ult
Ġ &
Ġpossib le
ĠM ac
Ġcredential s
Ġtra ffic
Ġre so
Ġcomm on
Ġf in
Ġp ost
ĠC ont
ĠI f
age ment
is k
p ro
Ġexploit ed
Ġassoci ated
0 8
or ld
Ġcont act
Ġbec ause
g y
Ġf ield
tern al
Ġdes cri
N S
Ġnam ed
Ġp ur
v ir
Ġapp ears
ver y
Ġcomput ers
Ġ quest
Ġfunctional ity
Ġbeli e
Ġpart ic
Ġm ight
ĠApp le
in ess
Ġdem onstr
Ġa m
Ġw ar
Ġs oc
ro ll
Ġre fer
it al
Ġcon duct
n am
Ġwh at
ĠU S
ĠKore a
Ġev en
ent s
ol ut
Ġt im
Ġact or
Ġreport ed
ilit ary
Ġch ar
a x
olog y
Ġen d
Ġact ion
W h
an ies
Ġinclud e
ĠN O
iv id
Ġh tt
Ġse arch
Ġ esp
Ġatt ach
Ġlarg e
ur ther
Ġemail s
Ġspec ially
it or
tr act
ĠS ystem
ag er
ĠIn f
vir on
4 5
S C
Ġlo ok
D uke
ĠRuss ia
Ġb re
2 6
Ġne ed
Ġ _
Ġor y
a pp
eop le
uth or
ve l
ĠV ulnerability
Ġp r
Ġsh ould
S t
p or
Ġp ot
Ġser vices
Ġth ird
O n
or g
Ġf ind
Ġpat ch
Ġbin ary
et her
Ġ u
Ġ201 2
b it
Ġcer tific
Ġcomp anies
g in
at form
ug in
Ġpers on
p e
an ced
t es
ect or
3 5
Ġe as
Ġde vices
Ġv iew
Ġre quire
r ame
t ed
ï ¬
Ġaff ected
Ġpre sent
l ash
ffic e
us iness
Ġ201 1
ul es
Ġpot ential
Ġv ery
id ence
C P
i er
Ġinte lligence
Ġregistr y
c ial
en g
Ġ1 7
Ġoper ation
ivid ual
Ġco unt
Ġso urce
i k
Ġth ose
ur ces
Ġident ify
f il
u c
Ġbro ws
ar ies
Ġsim p
L E
a j
c on
n ame
Ġpro b
Ġth ree
is co
Ġl ater
Ġle ast
Ġl ast
Ġinc ident
Ġup load
.. ..
Ġfe ature
ĠU p
Ġup d
el l
Ġsuccessful ly
Ġransom ware
ĠNO TE
Ġt rig
Ġs ection
Ġreg ister
ak ing
Ġrece iv
at her
Ġ200 8
o ol
Ġresp onse
Ġdiscover ed
ro id
ugg est
ent ion
v ing
Ġste al
ĠH owever
it s
ure d
oc us
Ġpartic ular
Ġdel i
C S
Ġle ver
Ġs uggest
ate ly
o y
at ab
Ġact ive
Ġind ividual
Ġval id
Ġre ve
Ġcre ated
sel f
0 2
I D
lo ud
Ġm ade
Ġs ince
f ile
Ġnetwork s
Ġo wn
Ġm ilitary
ers ky
ĠN orth
O N
asp ersky
y e
Ġcre ate
ist ic
o ot
lo b
ĠW in
Ġcommunic ation
Ġ err
Ġ1 9
Ġinte gr
Ġresearch ers
rom e
ect ive
ĠF igure
Ġext ens
M S
ĠN etwork
Ġcall ed
a f
oc ol
3 7
Ġt er
Ġm ake
Ġc ases
Â ł
re d
âĢĿ .
ra ph
x x
Ġh el
Ġlo cal
Ġre al
Ġy ears
tt ack
ĠO ffice
m iss
Ġa ut
en se
ident ial
3 4
I t
Ġw rit
ab led
Ġc reat
Ġmess ages
Ġiss ue
3 6
ĠTh reat
Ġf act
ure s
Ġc cess
Ġdri ver
Ġ kn
te ad
o f
us ion
Ġprevious ly
Ġan t
Ġapp ear
un ch
Ġst ill
Ġwh ile
Ġs ites
Ġv ar
Ġex ecute
Ġhtt p
ï¿½ï¿½ ï¿½ï¿½
Ġmem ory
Ġd id
ĠG roup
Ġf ew
Ġl ib
Ġ1 5
Ġy our
Ġb an
ĠC isco
ĠAnd roid
E S
w it
lo s
ĠW ord
Ġit self
viron ment
g e
i j
Ġem ploy
3 8
g ed
ak a
pr ise
Ġmach ine
w ork
Ġeng ine
Ġinc re
. âĢĿ
0 1
Ġcon c
ate g
ĠCh rome
lish ed
Ġdemonstr ated
Ġe l
Ġdes igned
ï¬ ģ
Ġs m
r ite
Ġh owever
ill a
Ġc ross
us p
p ar
er ing
Ġem bed
Ġde vice
Ġconn ection
Ġ1 4
Ġch ang
ĠUkrain e
2 2
Ġ Q
Ġchec k
Ġwith out
Ġdet ection
Ġm akes
ol en
Ġby tes
ĠAP I
Ġdropp er
t s
Ġexecut ed
Ġw orld
Ġf ull
Ġapp lication
at ic
ag ed
Ġcomprom ise
Ġhack ers
3 0
Ġc lear
ag ing
Ġpl ugin
Ġbre ach
Ġcontain ing
Ġsh ow
a z
x y
Ġm in
ent er
Ġ201 0
t y
ĠOper ation
4 4
Ġb lock
Ġf ocus
as k
Ġhas h
Ġim port
ĠD ec
ĠU s
ĠIn c
yp e
Ġrec ord
Ġobtain ed
aj or
Ġim age
Ġintegr ity
Ġdet ect
Ġtechn ical
ĠA ll
Ġinstall ed
ĠR es
Ġpri m
Ġprov ide
f us
Ġ Â
Ġc ri
f ox
Ġt eam
ĠO pen
Ġpers ist
P ro
at t
al ware
Ġvar ious
Ġs el
Ġsh ows
Ġro ut
d ed
ĠD irect
Ġof ten
ul y
Ġesp ionage
en ces
Ġbe low
ab ly
Ġinf ect
Ġsp ear
Ġc lic
ri e
ĠCom p
ĠL ab
Ġpl atform
ith er
Ġst olen
i o
ĠD NS
Ġle ad
4 8
ig ital
Ġerr or
ĠS p
Ġex ist
Ġst age
Ġr isk
ĠAct ive
Ġ est
Ġch ange
Ġcontain ed
Ġm edia
iqu es
Ġcomp l
O C
Ġ ut
I P
re en
ĠI ran
Ġtyp e
et y
la im
Ġdef ault
Ġencrypt ion
atab ase
Ġst ored
Ġorganiz ation
Ġoff ic
c ode
Ġproduct s
Ġanaly z
Ġb log
Ġg iv
ĠF lash
l ack
ack ing
Ġcount ries
Ġ #
W e
Ġresp ons
ĠT r
ant ec
Ġsh own
ym antec
iv ers
Ġatt ribut
Ġinf ection
Ġadd ition
ĠFire fox
ĠA ttack
Ġhand le
Ġkn ow
idd le
C om
ĠS e
ĠUp date
Ġmon th
ĠSo uth
, "
R E
Ġconf idential
w ard
ĠM arch
Ġcomponent s
Ġev idence
enc y
oz illa
B M
Ġon line
Ġde ploy
Ġprovid ed
Ġla unch
b y
Ġ +
le ase
Ġcor re
3 9
Ġm ajor
un e
ver t
Ġad vers
ĠWh ile
l ing
Ġ *
ĠP ower
fus c
Ġind ex
a i
re nd
Ġinterest ing
Ġle vel
Ġs usp
Ġun ique
Ġdet er
Ġy ear
Ġstr ucture
Ġwork ing
Ġf ix
Ġcon v
Ġsign ific
Ġj ust
4 7
str ict
N ET
Ġcomp il
Ġco un
Ġapp ro
Ġrem ain
m it
Ġf urther
ro w
ab les
Ġstr ings
Ġtechn iques
ĠA g
abil ities
H P
Ġo cc
Ġe very
Ġse em
le x
Ġvariant s
Ġcl ass
Ġpur p
Ġsoc ial
Ġf la
4 6
lic ations
in ed
id er
Ġcon text
n s
in ks
Ġpart y
ĠM S
Ġl ess
ĠJ uly
Ġval ues
Ġdescri bed
Ġint ended
m p
Ġp a
Ġdist ribut
ĠM ay
ir t
and s
Ġhel p
Ġc laim
Ġre v
Ġfunct ions
Ġlist ed
in f
Ġinclud ed
Ġbeh ind
Ġembed ded
rame work
Ġprot ocol
Ġt est
Ġc rit
Ġcap abilities
Ġpol it
u ro
Ġin tr
Ġex per
Ġret urn
ear ch
Ġs ur
Ġpo p
Ġoper ating
' t
ĠKore an
ĠS S
ĠMan ager
in ter
ĠB e
Ġrec ent
I T
Ġz ero
Ġsignific ant
Ġn on
Ġa round
ac ter
ĠM ozilla
Ġ1 6
ph istic
Ġmod ules
Ġab ove
ob ile
Ġt ext
Ġpack et
ĠI BM
Ġac ross
ĠCont rol
Ġbrows er
f ace
Ġattempt s
Ġaut om
read y
u ed
th ough
ang u
K it
ĠWh en
Ġimplement ation
Ġb usiness
an cial
Ġdeli ver
Ġhe ader
ĠH e
Ġn ow
R e
ĠF in
iz ation
Ġro ot
l er
4 9
Ġre strict
Ġbelie ve
ac y
âĢĿ ,
5 6
E ye
Ġregister ed
Ġtyp ically
n a
f or
Ġ <
re sent
Ġdirect ly
Ġcustom ers
Ġvis it
ĠF ile
A S
Ġ1 8
oc k
Ġorigin al
lob al
I R
t ings
Ġm uch
Ġ1 3
ĠPl ayer
ĠA fter
Ġl inks
ust ed
port s
Ġreceiv ed
m an
ĠX OR
Ġconfidential ity
ke y
tern ational
Ġreso urces
ĠD u
ĠU se
Ġsh are
d e
Ġe ither
Ġal ready
Ġinvestig ation
ĠM in
8 6
k it
âĢ Ķ
Ġal lows
Ġcertific ate
A D
Ġfir m
and om
2 1
4 1
er t
ĠAd d
p oint
at h
M P
ĠS ymantec
ĠP HP
ĠD ata
Ġprocess es
Ġform at
Ġcont roll
5 0
s et
os ed
ĠR SA
Ġme ans
Ġadministr ative
Ġconfig ured
Ġa uthor
pp lication
Ġthreat s
5 9
e y
E x
e k
Ġm ust
an ces
ĠD e
ĠJ an
Ġinclud es
Ġred irect
st ant
ĠEn ter
h ot
in c
Ġres ol
Ġmon itor
Ġd ate
o ber
Ġs ize
ep end
ĠOn e
ux net
ĠInf ormation
Ġbu ild
ĠF eb
Ġdet ected
ww w
Ġh ij
irt ual
Ġso phistic
l s
ĠSer vice
L P
a h
c oded
Ġen vironment
Ġactiv ities
l ight
Ġbe gin
ech an
Ġdel et
Ġprogram s
Ġf ail
l ess
m er
Ġpassword s
r on
ĠO ct
Ġ201 7
Ġavail ability
Ġob fusc
min al
Ġloc ated
F or
ĠD ef
eng th
Ġco py
Ġar ch
ĠUn ited
Ġest ab
Ġwrit ten
Ġreve al
Ġf ore
ĠD r
ĠWeb Kit
Ġmethod s
Ġeff ort
a ir
y nam
Ġconnect ions
Ġg u
Ġprovid es
Ġpublic ly
S cript
Ġf ake
ĠC SC
us try
Ġwh ether
Ġcommunic ations
M E
Ġen abled
olut ion
y bers
m d
is ing
em ber
c ont
Ġuthentic ation
n ess
ĠT echn
ĠTh ere
b ox
Ġl im
Ġloc ation
m l
ĠT CP
fil tr
h ip
Ġ Ð
Ġ ed
Ġde p
Ġsh ared
Ġchar acter
c l
v en
Ġdec oy
s ide
Ġp eople
Ġne ws
5 8
Ġm ode
Ġoper ators
Ġdisc los
Ġrep resent
u ary
Ġut il
w h
Ġ3 2
Ġpre s
Ġpriv ate
Ġim pl
S er
angu age
Ġn ext
ĠEnter prise
P S
i ent
Ġdis k
Ġ200 9
d d
Ġfol der
: \
pl ay
ĠS c
Ġex tract
og raph
ĠP D
Ġar g
Ġcrit ical
5 5
Ġcompl ete
i or
iv es
g or
Ġf re
Ġh is
Ġparamet ers
Ġsend ing
Ġfil en
Ġconf ir
ru ary
Ġapp lications
ĠDirect ory
ar ily
Ġm ark
Ġsp read
Ġlink ed
ect s
Ġenc oded
E C
I C
Ġpro xy
ac he
Ġtr ad
Ġsign ature
Ġin ternal
ec ure
Ġst and
Ġar t
Ġsm all
Ġc ar
ĠInte lligence
Ġfam ily
Ġindividual s
Ġs al
ific ation
ĠR em
ĠE S
il i
Ġv ulner
ĠA nt
Ġsh ort
Ġ200 3
Ġpub lished
cc ording
Ġ3 0
Ġdevelop ment
ing le
Ġlog in
Ġinvol ving
C h
ic y
ĠEn g
Ġt act
ĠAn al
Ġfin ancial
4 3
Ġt em
Ġex filtr
ĠX P
Ġconn ected
Ġinstall ation
is m
Ġadv anced
ĠS u
g o
ĠT eam
gor ith
ĠB ug
Ġvulner able
R O
ĠA pr
ĠSt uxnet
Ġdel ete
ĠCon f
Ġsimp le
Ġl at
A n
Ġs ess
Ġev ent
Ġp ast
ĠThe y
Ġdownload ed
ĠFeb ruary
6 0
8 8
Ġv er
ĠÂ ©
Ġb ug
Ġtrig ger
an k
ER T
Ġ ec
ide o
Ġth read
ĠJ une
Ġclic k
Ġd atabase
Ġl ine
Ġimport ant
Ġd ue
un ity
Ġent er
Ġprot ect
Ġo pp
Ġoffic ial
Ġm echan
Ġp lease
ĠB y
Ġen s
Ġreport s
Ġperson al
Ġf our
Ġd ay
Ġab ility
Ġper miss
ĠFire Eye
iv irus
fer ence
ĠA ug
qu ently
Ġret rie
Ġ200 7
Ġattach ment
S o
Ġmain tain
Ġind ustry
Ġrequest s
Ġbeh av
T C
ri ke
are nt
Ġmod ify
ĠĠĠĠ ĠĠĠĠ
Ġear lier
g ers
re s
Ġto p
Ġm ill
ri d
com m
5 7
o ard
ĠA S
min als
Ġpl ace
ĠMan agement
Ġw ww
Ġr ange
Ġdropp ed
Ġr andom
Ġ2 4
Ġextens ion
Ġs ingle
Ġb ase
ĠN et
Ġs om
uro pe
o S
ĠI s
end ix
Ġsc an
Ġadvers ary
b ack
od es
Ġwho se
Ġtechn ology
Ġdisc uss
Ġgiv en
um p
ĠM alware
ĠB lack
Ġtechn ique
Ġins ide
ĠApr il
ĠComm and
Ġa uthentic
Ġm atch
Ġser ies
Ġpotential ly
Ġal gorith
Ġacc ording
Ġlib rary
9 8
an nel
ĠT arget
R AT
t il
is on
od ing
Ġlog s
ĠN ove
Ġ6 4
Ġprev ent
ĠS y
ot h
Ġrespons ible
re ens
Ġcall s
ĠOct ober
r ic
Ġt able
id ed
Ġcons um
9 6
h ost
Ġw ide
ĠIn s
art ment
Ġn ote
Ġtr ack
Ġpri or
er b
Ġdif f
ĠOn ce
ĠA t
Ġcompil ed
Ġpolit ical
ĠJ o
Ġre as
am es
ĠRe al
Ġsign ed
Ġimpl ant
OS T
Ġchec ks
ĠJan uary
3 1
ing ly
Ġstr ateg
Ġshell code
lic t
ce l
Ġc ard
Ġex ists
Ġinter face
w ay
ĠE urope
ĠN e
Ġke ys
Ġrele ased
us ed
ĠRe g
Ġdevelop ed
to p
ap s
Ġsc en
ĠPro t
Ġcreat es
. "
Ġ ï¬ģ
Ġre f
al th
Ġp ower
ers t
ĠC enter
ak en
oo f
olut ions
n c
o le
Ġcoun try
9 9
is es
ĠSt ates
p ress
Ġv end
ro b
% \
i od
Ġanalyz ed
6 7
Ġt akes
S hell
Ġinvol ved
att ack
4 0
ĠAug ust
Ġst ore
Ġcons ist
Ġhigh ly
med i
al id
ivers ity
A s
Ġinst ance
g ing
Ġh ere
Ġse par
Ġear ly
v is
ac es
reens hot
Ġspec if
Ġhij ack
ĠI T
Ġwe ek
ĠH P
Ġstr ong
Ġindic ates
a fter
n ot
ac ed
o un
ĠT rend
C C
ĠS et
Ġby te
ĠG e
Ġadministr ators
H O
ĠâĢ Ķ
Ġnum bers
Ġins tead
Ġarg ument
b in
p ri
Ð ¾
Ġ )
und erb
ĠDec ember
Ġfla w
Ġin ternet
ĠM y
ĠB ack
Ġmod ified
Ġ id
it ut
th ers
underb ird
l ong
Ġm ove
Ġe le
ĠR ec
ĠL oc
end ing
Ġle ak
Ġpo inter
Ġhost ed
Ġcons ider
wit ter
Ġhack ing
Ġmem bers
I F
um e
Ġpo s
ĠK aspersky
Ġprob le
ĠSe a
f ree
lo se
Ġal ong
ĠTh underbird
Ġresp ond
Ġman agement
st all
Ġl anguage
ĠG o
Wh ile
op y
Ġhard coded
Ġscen ari
ĠC ar
Ġpro ject
Ġtim es
n ed
s ys
ĠC loud
ĠD ep
Ġsp oof
Ġind ust
Ġinte l
Ġupd ates
av ing
Ġper iod
Ġiss ues
R F
or ies
Ġf ar
Ġpurp ose
m ost
w e
Ġd igital
ra ud
Ġinst r
Ġam ount
Ġant i
Ġsophistic ated
m b
Ġreso urce
re ports
Ġm obile
im es
ĠD ark
Ġdri ve
er ous
Ġfor ce
Ġse qu
ĠUkrain ian
Ġconv ince
d ition
l ated
ic ult
Ġoper ate
Ġent ry
Ġprot ection
Ġeas ier
ĠRem ote
l et
Ġdis play
o id
Ġ low
Ġf ree
ĠS ome
ĠS ep
Ġsc am
erst and
d oc
e le
ĠA c
ĠP L
E N
ĠQ u
5 2
ĠM ess
ind ow
Ġspec ial
9 7
Ġa ware
Ġpop ular
Ġlat est
Ġdiff icult
D A
ec k
icro soft
istr y
Ġquest s
tem ber
rib ute
5 3
A L
ĠS af
Ġpro m
ĠP eople
s c
v iew
co in
Ġexploit ation
Ġd ays
ĠP E
Ġlever aging
Ġalgorith m
A l
Ġt ask
Ġg lobal
Ġcontin ue
P l
w all
Ġb as
al t
ĠC or
ĠIn ter
ru pt
Ġresult s
ĠPD F
ĠT o
ur s
ĠU ser
Ġca pt
Ġbot net
Ġchang es
l ist
Ġrun s
Ġtrig gers
f are
t le
Ġaccess ed
Ġqu ick
e es
k aspersky
Ġt ry
ug ht
7 7
Ġengine ering
Ġo thers
Ġs ays
Ġco p
Ġstand ard
Ġm ot
Ġre st
ĠF il
ner gy
F ile
Ġf ramework
Ġm ention
Ġm ac
ut ure
Ġ2 2
ĠActive X
Ġintel reports
R C
Ġpro file
f e
ir c
ĠR ed
ĠN ew
Ġsp ecified
ĠO ut
Ġadd ed
tr usted
ĠG old
ĠEx cel
Ġmach ines
idd en
ybers ecurity
il ies
pp er
Ġload ed
ï¿½ï¿½ï¿½ï¿½ ï¿½ï¿½ï¿½ï¿½
d u
Ġt aken
Ġth ough
ĠN T
ĠSer vices
Ġac cept
ĠRes earch
p re
unt ime
m y
ib et
Ġev ents
Ġb r
Ġhost ing
Ġph one
. ,
m ine
p hishing
Ð °
ĠP ol
ĠE l
Ġsimp ly
Ġw rite
Ġst at
Ġ2 5
Ġcurrent ly
1 00
Ġex pl
li ke
Ġpr act
ĠSS L
Ġsom et
e ared
Ġre pl
ĠT LP
ĠCVE s
Th ese
ĠSep tember
Ġo p
Ġm ov
Ġy et
Ġhe ad
Ġgener ated
Ġeff ective
Ġinstr uct
o ver
Ġch annel
Ġinter act
Ġhack er
8 9
c ent
n e
Ġ2 3
ib ility
Ġtyp es
epend ent
Ġm aking
201 5
8 0
P N
b a
âĢ ¬
Ġhost s
a pt
k es
l is
ĠP o
ub lic
: :
P oint
ir st
end s
5 1
I f
w ays
et ter
Ġrec ently
Ġsend s
Ġfam ilies
Ġa uth
ĠM c
ĠP OST
Ġr ather
Ġsub ject
H owever
S P
d b
p art
Ġh ist
ĠS te
Ġconf lict
Ġmonth s
Ġens ure
ĠSy ri
one y
itional ly
Ġfilen ame
C on
do ors
ĠInd ia
M D
N et
re am
Ġbe long
form ed
Ġindic ate
ĠS E
ĠP age
own load
Ġstart ed
Ġscenari o
Ġn orm
act ers
Ġident if
Ġcontent s
Ġget ting
as ter
ĠM D
Ġex port
ens ive
g et
Ġnot ed
Ġsuggest s
n ect
ĠT ibet
Ġst ud
Ġun til
Ġimp ro
Ġsc reenshot
Ġchar acters
ĠUs ers
Ġprim arily
8 7
Ġg ather
Ġbu il
cover ed
Ġindic ators
Ġz one
l u
ers on
s ystem
Ġ ue
Ġl ength
Ġst ack
Ġset tings
ĠApp endix
A ll
Ġf raud
ĠT witter
Ġe qu
Ġprob ably
Ġreveal ed
O M
m ber
Ġde b
Ġim medi
Ġund erstand
Ġu ffer
Ġpa per
Ġ ?
Ġs ector
Ġam ong
Ġfeature s
Ġpersist ence
or re
ĠS tr
6 5
U S
ig er
ch ange
ĠB it
Ġact ions
ĠDep artment
p age
Ġm iss
Ġv irtual
Ġpro f
ĠR C
Ġprim ary
ĠAnal ysis
Ġloc ations
ĠDu qu
A g
or se
ot al
a w
Ġdetail ed
Ġdecrypt ed
Ġ ]
Ġm ail
Ġlo ader
Ġresearch er
a ff
on es
ĠR esp
Ġcomp ress
ĠN ot
Ġact ually
Ġout put
Ġcyber cri
lo ok
ri al
ĠM iddle
Ġmill ion
um an
Ġav oid
Ġprivileg e
or age
Ġw ord
Ġapp eared
ap an
Ġallow ed
Ġsec ure
Ġf l
Ġv ideo
Th ere
Ġbin aries
i et
ec ess
Ġ2 1
ĠRe port
Ġtact ics
d f
Ġin put
ĠC opy
Ġl it
Ġmechan ism
Ġus ually
Ġsp y
H S
ist a
Ġad vert
ĠN ational
Ġadv ant
Ġel ect
Ġdeploy ed
Ġt rojan
at ically
Ġph ys
ĠNetwork s
Ġrecord s
Ġdeter mine
ĠIns tead
6 1
E X
s ing
Ġt urn
ĠC ode
Ġ2 9
ĠG ener
Ġdef ense
Ġlim ited
Ġex ternal
Ġover w
ynam ic
Ġsess ion
f act
Ġp ages
ic es
ĠSo ftware
ĠNove mber
Ġw ant
ic le
ar ing
sp ond
Ġpat tern
6 3
k top
r c
on ym
ch ed
em on
Ġback doors
Ġent ities
Wh en
ent r
Ġcoll ect
Ġcertific ates
Ġdelet ed
Ġbehav ior
, ,
D P
] .
Ð µ
Ġh our
Ġn ever
pp ed
ĠJ apan
Ġke ep
Ġspecif ically
ĠGe org
4 2
at s
us tr
Ġl ack
Ġimpact ed
r ay
t p
Ġen co
ĠJava Script
7 1
b ot
b oard
on om
ĠU TC
AP T
Ġin ternational
us er
ĠP ri
ĠV ista
Ġinst itut
Ġg reat
On e
Ġpermiss ions
A pp
re n
Ġb est
Ġre served
Ġn et
Ġn ational
ĠI m
ĠF rom
Ġvari ety
led ge
Ġmonitor ing
a emon
o ved
Ġv ol
ĠD D
per ation
Ġ2 8
Ġseem s
Ġc rypt
ĠT ur
od y
Ġmal formed
ud io
Ġmac ro
ar us
ĠA ss
Ġ3 3
ĠUn iversity
Ġal most
cript ion
row d
M icrosoft
Ġf uture
Ġapp arent
Ġcorre spond
B C
eb ook
olog ies
Ġconduct ed
Ġrequire d
for ce
7 8
v al
Ġsu m
Ġstrateg ic
en ger
Ġm s
Ġappro ach
Ġc lose
Ġw in
ĠD es
Ġemploy ees
ers ion
ĠT ool
Ġreve als
M on
est amp
ĠL e
ĠV is
Ġant ivirus
A f
L S
W indows
et r
Ġmention ed
Ġadvant age
H E
P U
Ġ \
Ġd ot
Ġbe gan
Ġsp ace
ĠAP P
d ot
it iz
Ġf r
Ġm oney
Ġpay ment
Ġrece ive
Ġdeliver ed
Ġauthentic ation
6 8
m ode
Ġo ption
ist ics
ĠG en
Ġoper ational
Ġrele ase
Ġsel f
I G
g u
n al
ac ebook
201 4
ag on
ĠK ey
com p
= "
i ec
n C
Ġd am
ĠX ML
Ġrem ov
Ġconsum ption
ĠResp onse
Af ee
Ġrel ations
Ġass ess
ĠInd ian
a it
Ġob ser
Ġexecut es
Ġrec on
ĠIran ian
re lated
ive ly
ĠV irus
Ġauth ors
Ġ {
Ġstart s
Ġdistribut ed
Ġproble m
U n
o ks
Ġ2 7
Ġco ur
Ġtr ick
Ġcoll ected
Ġobject s
ĠTechn ology
A E
ac on
Ġon ce
Ġen ough
Ġ0 1
Ġle ft
Ġrout ine
mit ted
5 4
t ime
ĠS hell
Ġn ature
Ġcomm unity
Ġban k
go ing
ce ed
se e
I E
ort un
Ġsc reen
Ġla w
Ġconc er
r am
Ġp iec
co unt
ĠApp lication
Ġmot iv
t a
Ġal ways
ĠB ut
Ġ4 5
Ġscript s
ĠSystem s
l and
Ġf ac
ĠG ET
amp les
Ġco ok
um er
w an
ĠRe ader
TE R
Ġreas on
Ag ent
( )
Ġs k
Ġs ay
ĠW ith
Ġapp s
OR D
wit ch
ĠSaf ari
b ound
Ġc are
Ġh app
ĠInte ger
A fter
P C
U p
Ġn ecess
ĠP al
Ġact ual
ĠLoc al
w ise
Ð ¸
Ġwe ap
vers e
Ġreg ime
7 0
A M
R at
Ġc irc
Ġo pt
Ġf ire
id es
Ġbec ome
ĠGo vernment
k ed
it ig
Ġb l
Ġre ach
ri ed
Ġpack ets
Ġtim estamp
Ġincident s
Ġimmedi ately
D ata
Ñ Ģ
Ġover l
os es
our nal
enc ies
Ġpersist ent
Ġsepar ate
d ata
Ġm ult
ĠS un
Ġcomp lex
ĠN AT
Ġexpl ain
m ar
us ter
ad ing
Ġout side
Ġcor por
put er
Ġwar fare
6 9
ec om
Ġof fer
om la
Ġgo vern
Ġent ire
Ġplugin s
C ry
F F
T R
en ced
ist an
On ce
Ġfocus ed
ĠR T
Ġup on
our ce
iss ance
Ġqu ery
T I
Ġn ation
ol ar
ĠPl ug
Ġco ver
Ġcreat ing
na issance
Ġlit tle
H T
o od
Ġcap ability
Ġi OS
oz y
Ġc loud
it ions
ĠC l
ĠA ccess
Ġ3 1
Ġste p
Ġdeter min
inf o
D E
ĠS ed
ĠP ort
Ġso urces
Ġfol lows
ĠComm unic
7 9
M B
ĠS cript
Ġun s
Ġch ain
ht ml
Ġfollow ed
ĠAd min
Ġclaim s
ĠF ree
Ġlog ged
Ġattribut ion
ĠBack door
Ð ½
Ġh ar
ĠSea Mon
ĠSeaMon key
Ġ es
Ġsp e
Ġdownload er
Ġintr usion
Ġfore ign
ĠJo omla
ĠC re
ĠD uring
ĠE st
Ġdes ign
ie ws
Ġtrans fer
9 0
Ġt ag
Ġd one
Ġh orse
ĠA ut
st s
ess ional
Ġoper ator
Ġallow ing
Ġdevelop ers
Ġattach ments
em ory
Ġdri vers
A ccording
Ġv ector
ĠâĢ «
ĠSt ack
Ġvari able
ĠURL s
con f
U R
l ib
l ink
r ant
Ġo ld
Ġf ive
ĠS im
ch ie
Ġlook ing
St rike
Ġcontroll er
W ORD
b u
Ġan n
up al
ĠO ver
Ġpatch ed
Ġquick ly
ĠMc Afee
T ype
ĠC lient
ĠB ase
Ġdri ves
Ġpres ence
Y S
ĠA p
Ġex am
Ġfor um
ĠF acebook
ĠUR I
ĠES R
rowd Strike
6 6
Ġa chie
ĠC ozy
ĠIn v
ĠG u
Ġreg ard
imate ly
Ġfew er
Ġconfir med
v ious
Ġ et
Ġm itig
ĠW ar
Ġtr ust
ger y
Ġeas ily
Ġmajor ity
ai wan
ĠAPP LE
ĠD is
unct ion
Ġcommunic ate
Ġpayload s
ĠT un
ĠT im
ĠUn it
Ġpol icy
Ġcri minal
k en
Ġ >
re t
is ion
ul ation
Ġcom e
Ġper cent
Ġupload ed
ĠDr upal
A B
S QL
m iddle
ĠS n
Ġfor gery
ra el
ĠV PN
Ġuser name
CS RF
Y P
Ġto ok
ĠM od
ĠP h
ĠG et
ĠL ib
ĠV M
sel ves
Ġocc urre
Ġtem por
ĠTibet an
Ġo il
Ġdem and
Ġfin al
Ġupd ated
g ether
v ent
Ġs n
so le
ip e
ĠAg ent
Ġd on
le an
Ġe lement
ĠO b
Ġimplement ed
Ġvalid ate
az arus
So ft
orre ct
X X
Ġc al
an c
ĠG reen
Ġreport ing
Ġme an
F igure
Ġw ater
tr uct
Ġst ates
ran ch
Ġclient s
Ġchang ed
i um
Ġw ild
Ġto ld
ec ially
Ġn ear
Ġ6 5
Ġinv alid
Ġqu ite
Ġbuil t
7 5
S O
Ġw indow
ĠC nC
ub le
Ġcommon ly
Ġdisclos ed
A dd
t d
Ġthe ft
Ġcom es
ig uration
ot us
Ġl ate
ĠR untime
ĠL azarus
ĠEx ecut
Ġcred it
Ġexp osed
E nergy
ad min
Ġiss ued
ĠSp ec
ĠAttack s
ĠMess enger
U LL
Ġh uman
Ġcan not
.. .
Ġcap able
A d
E n
T o
in ct
Ġf f
ro y
ĠT iger
Ġcom ment
and box
iz es
t mp
Ġ2 6
Ġ0 6
Ġinst ances
Ġt as
Ġs it
Ġm y
Ġre comm
ĠF orm
Ġgener al
AC K
ĠDef ense
Ġ? ?
) ;
L og
al f
he m
ĠP er
pp ing
ĠB E
Ġthem selves
str uct
Ġeffort s
l der
n ers
v ant
ĠR et
Ġprovid ing
Pl ayer
Ġ â
Ġexecut ing
Ġproper ty
Ġadministr ator
Ġautom atically
rob at
P ress
i ation
m ing
ĠM on
ĠV B
ative ly
Ġfl ag
7 6
i ence
Ġw r
ĠT aiwan
Ġreg ular
Ġk ind
Ġincre ase
ĠAnt i
ĠNAT O
v anced
Ġin qu
Ġp ut
ĠSu ite
7 2
ĠD igital
Ġgo ing
Ġgo od
Ġlaunch ed
Ġsur ve
Ġarch ive
ĠAc robat
Ġrecon naissance
on y
Ġh ide
Ġpl an
Ġrefer ence
Ġplatform s
Ġhour s
Ġ @
ed er
Ġb loc
Ġex act
Ġinfect ions
Ġec onom
d at
i per
ĠT able
se mb
Ġroot kit
entr al
Ġgovern ments
ĠAp ache
Ġal though
Ġexist ing
by te
8 4
9 5
or a
Ġwh y
se qu
Ġreg ion
ĠGener al
9 3
Ġpro p
Ġal le
Ġun a
F S
ĠS ecure
Ġ= =
ĠCopy right
9 1
g round
in ation
re me
ĠP ar
ĠP AN
ĠN HS
Ġnum erous
Ġstate ment
Ġincre as
ĠPower Shell
Ġoccurre d
I A
T r
V iew
t on
Ġh ome
ĠF ramework
Ġread ing
Ġdecrypt ion
Ġdist inct
8 3
un ter
ĠD ri
ĠL ist
ĠRe gin
Ġfirm ware
Ġto gether
ĠW ork
pp ort
Ġlo oks
18 3
Ġpurp oses
Ġestab lish
Ġmark et
Ġver ify
O W
Ġd est
Ġatt ribute
ĠD o
ĠL og
Ġ7 2
Ġstr ict
Ġdef end
Ġprovid er
Ġcustom er
Ġesp ecially
Ġrequire s
Ġparticular ly
ĠPAN DA
8 5
H A
Ġo lder
Ġp ict
ĠP art
âĢĻ ,
ire d
Ġ- -
Ġorgan is
Ġknow ledge
Com m
Ġbegin ning
Ñ Ĥ
ĠS m
ĠC rowdStrike
ĠP a
ĠP ack
Ġen er
pr int
Ġdistribut ion
Ġfire wall
in s
Ġto t
Ġh aving
ag ic
Ġatt ention
Ġlo op
Ġopen ing
Ġpoint s
Ġpr int
Ġfre quently
Ġrelations hip
Ġcour se
ĠPlug X
i ries
l ied
ĠE ast
âĢĻ .
Ġmod el
Ġener gy
N ame
Ġt it
us ing
iv ity
Ġinc orrect
ograph y
Ġtrad itional
ĠIs rael
ĠCar b
Ġprom pt
S h
en ing
Ġd w
00 00
Ġ8 0
Ġhigh light
Ġofficial s
Ġsequ ence
ĠOut look
onym ous
olar is
g n
an el
ĠH ack
Ġen able
Ġem er
Ġform er
Ġopen ed
AC E
Ġwrit ing
D B
Ġ ur
Ġc ore
Ġon going
ist ed
ĠIn ternational
Ġdocument ed
Ġfla ws
Ser ver
9 2
r ing
Ġt aking
Ġs ym
Ġh it
ce ption
ĠCom puter
Ġdownload s
Ġsit u
b s
Ġpack age
ĠWord Press
ward s
Ġexper ts
Ġinqu iries
B I
ĠM et
ĠD ro
ĠB ased
cal e
Ġcoll ection
Ġbelie ved
ĠC o
ous e
Ġme as
ĠCSC t
O T
o ice
Ġf all
ab or
ĠI CS
Ġwe ak
ĠO ur
Ġcre ation
os ition
esp ionage
Ġregistr ation
bit rary
B ut
us h
ĠA ccording
th ing
iv ed
ote l
Ġcontin ued
Ġlead ing
T otal
] ,
c f
c p
v y
ect ing
Ġag encies
air s
6 2
Ġm is
Ġbe acon
ĠP C
Ġrec ip
ĠHe ap
en ed
ĠP ub
th on
ĠAr ab
Ġsteal ing
g ress
ĠD el
ĠF TP
Ġinf o
Ġident ity
Ġent ity
Ġhand ling
ĠUS B
Ġresol ves
ĠTun es
ĠC T
ĠC MS
ĠD et
el ecom
ĠN ame
ser ver
ĠEurope an
c a
Ġv irus
ad d
Ġpro ced
ĠE d
Ġcomm er
ons ored
Ġcorre ct
Ġvend or
ĠSyri an
Ġinstitut ions
ĠEst on
" .
U M
d ef
Ġ5 6
Ġset ting
Ġman aged
Ġhand ler
Ġperform ed
ĠAs ia
Ġfix ed
ĠMin istry
Ð¾ Ð
y le
Ġd ynamic
ĠP res
Ġ7 4
roj ans
Ġestab lished
Ġindust rial
ĠCozy Duke
D K
L R
S ystem
Ġc ame
Ġd ig
Ġd ump
Ġh idden
ĠC ampaign
ĠI R
ĠD ocument
el ine
Ġdes truct
Ġprot ected
Ġhash es
ĠBlack Energy
Ġbas ic
- -
o on
s ecurity
Ñ ģ
er n
Ġth ink
at ter
ĠS am
im al
Ġsh ut
Ġsh aring
Ġdis s
Ġdoes n
ron ic
Ġobfusc ation
al se
ĠM al
ate gy
Ġal loc
Ġst aff
iz ing
Ġthrough out
ĠPro duct
Ġoff set
Ġlong er
ĠConf iguration
Ġpract ices
Ġdeb ug
Ġcorpor ate
7 4
I X
c ap
m od
ĠT ype
ĠS O
ul ly
ĠC rypt
st ations
Ġinj ected
Ġremain s
p ace
y thon
Ġp en
Ġm ass
Ġal ert
Ġst op
ip her
C L
T ime
W in
o sp
Ġa im
Ġth ous
re g
ĠC ri
Ġst orage
Ġen force
Ġhe ap
Ġdro p
pro v
ĠAdd itionally
Ġdiscuss ed
Ġdam age
Ġb en
Ġh old
ĠP re
Ġcomp ile
Ġback up
Ġdevelo per
ĠDD oS
Ġtempor ary
Ġtot al
ac ing
âĢ ĵ
201 8
Ġinc om
Ġsupport ed
Ġcontin ues
ĠPeople Soft
Ġ ill
ĠM edia
ĠIn stant
ĠG er
Ġmem ber
Ġobfusc ated
8 2
t xt
ind ex
und red
Ġ0 2
Ġsa ved
Ġprovid ers
ĠEn vironment
Ġsusp icious
m et
Ġb oot
ro ws
ly ing
ere ference
av es
ĠLab s
Ġb ody
an na
ul ate
ĠD ownload
ĠF urther
Ġser ious
Ġ5 0
Ġaccess ing
I M
I ON
p ublic
u a
v ation
Ġb ig
ĠS olaris
Ġcom b
Ġ5 5
rypt ed
Ġhe alth
Ġphys ical
s u
Ħ ¢
ĠA ff
id el
ĠF irst
Ġdec oded
Ser vice
ĠNe ws
v c
or n
un nel
ĠI N
Ġcontrol s
Ġdiscover y
ĠAl though
Ġcoun ter
Ġwide ly
a id
i ant
ar ks
il ed
ĠS C
Ġ1 00
Ġst atic
Ġlo t
ip l
ĠEx ploit
Ġvend ors
Ġadvert ise
7 3
Ġs ix
Ġw orm
Ġh op
Ġus age
ĠM ost
Ġl ure
Ġun c
act ion
Ġar bitrary
Ġfield s
.... ....
Ġhist ory
Ġprof essional
u fact
Ġh ook
ĠO ther
ĠL o
ud i
Ġste ps
Ġcri me
ĠReal Player
O P
w ave
es tern
ri ef
ĠB usiness
Ġdes cription
Ġquest ion
Ġincre ased
Ġvol ume
c at
Ġs olutions
it ial
ic on
ar s
ĠD omain
ĠH ere
ĠB log
Ġle ar
Ġrem ove
ĠSh ad
ĠAl to
Ġnorm al
Ġcompress ed
H e
in o
Ġd ereference
ĠF ore
Ġinit ially
Ġattribut ed
Ġretrie ve
Ġnecess ary
Ġtas ks
ĠC an
Ġinstall er
Ġman ip
Ġenter prise
s ec
Ġf ully
Ġcon struct
Ġl ed
Ġfor ward
ĠK ong
Ġexecut ables
Ġj ournal
Ġload ing
lis her
8 1
9 4
f s
g i
The y
ill ance
ak istan
Ġrem oved
Ġpost ed
Ġban ks
P E
m ap
y n
â Ħ¢
Ġto o
ĠA IR
ĠB oth
Ġen umer
Ġ3 5
ĠWh ite
ĠInc ident
D LL
w ide
ï »
Ġs ectors
Ġh undred
ĠS i
Ġg ive
ĠH ong
Ġun us
ht tp
Ġdis abled
Ġcl uster
S ome
S py
Ġs andbox
Ġ6 9
Ġkey log
Ġdro ps
Ġchec king
ĠInte l
Ġdescri b
Ġpresent ed
mer ic
ĠMy SQL
B e
S c
am er
ĠN ote
Ġdeli very
Ġlever aged
ĠEng lish
du ced
y c
Ġd i
Ġun trusted
Ġweb page
In f
cont roll
Ġart icle
Ġoverw rite
Ġet c
C ont
e ed
Ġto day
ĠB u
ĠG host
Ġident ical
Ġinterest s
Ġsimilar ities
ĠAdd ress
Ġele ments
Ġsomet hing
Ġes cal
b c
an e
ĠS ub
ul ated
Ġcon dition
ĠL ink
Ġ0 8
Ġconsist ent
ĠPo ison
ched ul
Ġoverl ap
prov ided
anna Cry
M C
O peration
W ith
b oot
h aps
Ġb etter
Ġd ang
ĠC PU
ĠA ES
Ġcom bin
ulnerabil ities
ight s
Ġhe av
Ġsa fe
ĠSh are
Ġshow ing
ĠDu kes
Ġhead ers
A G
F I
R un
i ents
m ore
le vel
ĠS ince
Ġ0 4
Ġfind ings
Ġter min
Ġrev iew
Ġc ateg
it ect
Ġre verse
Ġg ame
Ġpro x
sp ace
all eng
ĠV iew
Ġ/ /
ĠAdmin istr
R es
Ġre cover
se quently
and a
ĠE v
Ġpl ay
Ġlist s
Ġexp ected
Ġban king
B y
i Duke
n it
r un
Ġc ybersecurity
Ġf alse
ĠS olutions
ĠP akistan
Ġattack ed
Ġdirect ories
Ġhack ed
ah oo
Ġstat us
Ġstrict ions
Ġcommer cial
D AT
I TE
h n
p ack
Ġre co
ĠS ee
Ġare a
Ġbusiness es
Ġsignature s
Ġcop ied
Ġcirc um
in a
ĠS ec
ĠM ail
up er
ute x
Ġstr ategy
ĠTh at
Ġman ufact
Ġcar ry
Ġstore s
Ġenco unter
Ġsk ill
" ,
N C
d ependent
h an
j s
Ġw ays
Ġas p
Ġinf orm
Ġde al
Ġ4 2
Ġcall ing
Ġresult ing
d omain
Ġc r
Ġs ide
Ġre nd
un g
Ġcon stant
Ġbro ad
cl ass
Ġdisclos ure
Ġadvertise ments
r aries
ĠD atabase
Ġprocess ing
Ġcons ists
ik i
Ġresol ved
Ġleak ed
itiz en
) :
at ible
Ġf igure
ĠP oint
li ance
ass isted
ĠEx press
ĠSt ate
Ġpriv ately
Ġset s
Ġpass ed
Ġlarg er
Ġpatch es
Ġblock ed
Ġadvers aries
Ġgu est
Ġapparent ly
U ser
it ing
Ġp ress
pt h
Ġresp ective
ĠAd vanced
Ġrele vant
ĠCont ent
Ġactive ly
ĠSS H
Ġcapt ure
Ġcybercri minals
Ġalle ged
Ġc ol
ĠW annaCry
his h
Ġ4 0
Ġev ol
Ġoverf lows
Ġneed ed
Ġeas y
Ġappro pri
Ġcop ies
Ġthous ands
Ġc count
Ġc lean
Ġs ure
ĠS W
he me
ĠA V
ĠA meric
ĠP ost
sp ort
Ġso le
ĠEx change
Ġwork s
Ġtools et
Ġport s
Ġanaly sts
Ġwar ning
fil es
D e
if t
Ġst ream
Ġexploit ing
Ġtr ue
Ġro le
Ġinit i
Ġload s
ell ing
Ġcri minals
Ġfore ns
Ġsurve illance
* *
Ġb ill
ĠM emory
Ġl et
Ġl ab
so urce
Ġlog ging
Ġhost name
Ġconnect s
Ġter minal
Ġindust ries
ĠFil es
Ġidentif ier
Ġcook ie
ĠVM ware
Ġcal c
W eb
b or
in ite
Ġc ity
Ġin ser
ĠC lear
Ġlo ss
Ġr ules
Ġdis gu
Ġinte ger
ĠPro cess
Ġattempt ed
ĠAl so
Ġidentify ing
ĠBit coin
ĠRet rie
Ġill ustr
ipl om
d own
s w
ĠF ound
sp ionage
Ġ6 1
Ġdis rupt
Ġpart s
Ġph p
Ġred u
ĠInf rastructure
ortun ately
k et
Ġa ir
in stall
ĠC A
ĠC ore
Ġon to
Ġex amples
ĠP r
ĠH K
iv en
Ġcall back
Ġj ob
Ġstart ing
Ġremote ly
ĠVirus Total
ĠPub lisher
+ +
: "
L O
p atch
Ġg e
ĠW ire
tr ict
ĠV irtual
Ġpre p
Ġfir ms
ĠIP s
ĠEn c
ĠPl atform
Ġutil ized
Ġconfir m
ĠĠĠĠĠĠĠĠ ĠĠĠĠĠĠĠĠ
ne ws
ĠGeorg ia
n k
Ġp e
Ġcon tract
ĠM obile
Ġch alleng
Ġ6 6
urre nc
Ġint ro
ull et
Ġel se
Ġreturn ed
ĠEng ine
ĠTarget ed
B ox
N T
b log
s k
ĠT or
ate way
ch ool
ĠF eder
ĠN ov
Ġtr usted
Ġenc oding
Ġsupport s
Ġneed s
ĠTim er
Ġorganis ations
Ġ ide
st age
ĠM ore
Ġcomp et
oc r
Ġrel atively
Ġgo al
Ġend point
ĠUs ing
A t
at ory
it ute
il ities
est ingly
ĠE spionage
Ġother wise
Ġleg al
Ġconnect ing
nam es
Ġdisplay ed
ĠPal o
Ġreco gn
f low
m a
Ġn ode
Ġsp am
pl ete
Ġsub s
Ġpath s
Ġadv is
Ġter ms
Ġshare s
U T
t ers
al e
an et
if act
iv il
Ġpa id
ĠQu ick
v irus
er c
le g
ĠS MB
ĠG h
Ġbit coin
ord in
Ġman ually
Ġdid n
p a
ag ent
ĠP ython
ĠE as
um b
ĠUn trusted
Ġtyp ical
Ġrepresent s
Ġexfiltr ation
Ġopp osition
Ġann oun
ĠCri me
I I
v est
~ ~
Ġd ed
20 2
ĠF l
up date
Ġr ang
Ġtr ain
ful ly
Ġman age
Ġcontin u
ĠProt ection
Ġmove ment
Ġconsider ed
Ġtry ing
Ġwr ites
D D
S T
t ies
Ġt ele
Ġth us
Ġf ont
ĠC ybersecurity
im um
ch es
Ġtr acking
Ġnew ly
Ġint ent
ĠY ou
Ġperform s
Ġref l
Ġweap on
Ġs witch
it ty
it ness
ic ed
ĠI E
ĠSt art
ĠRe v
Ġbec om
Ġconc l
ĠSet tings
Ġbloc ks
idel is
A ME
D ri
ĠT ele
st ate
ĠH el
Ġun able
Ġag ency
Ġgener ate
Ġgener ally
Ġinvol ve
Ġhtt ps
Ġextract ed
Ġcar ried
Ġop ens
part y
Ġachie ve
ĠExecut ion
c rash
Ġc odes
en u
Ġf und
ĠS T
ĠS V
ĠL td
ra w
Ġ0 3
Ġfil ter
ĠAn other
Ġk it
Ġlarg est
Ġemploy ed
attack s
ĠPol icy
Ġinstruct ions
Ġcorrespond ing
ĠScript ing
Comm and
f ly
in y
Ġs co
ĠA ir
âĢĿ )
ph ere
Ġpl ain
Ġsc heme
Ġthere fore
ms g
Pro cess
Ġbegin s
Ġmatch es
Ġï¬ģ le
ĠVis ual
c md
Ġ ulnerabilities
om p
ur ora
ĠI S
ĠP ass
Ġen viron
Ġ4 4
Ġ200 6
Ġsome one
M I
l ation
o pt
r v
Ġm id
un k
ĠE ach
Ġdownload ing
Ġne g
Ġindic ating
Ġfail ure
cl us
ï¿½ï¿½ï¿½ï¿½ï¿½ï¿½ï¿½ï¿½ ï¿½ï¿½ï¿½ï¿½ï¿½ï¿½ï¿½ï¿½
ĠShare Point
h anced
ĠT ime
Ġg raph
Ġco st
ever al
Ġtra vers
Ġrefer ences
Ġreturn s
a u
Ġ er
le ep
he l
Ġg row
ĠE X
ĠL ong
Ġso on
Ġpart ies
ffic ient
Ġph ot
Ġupd ating
ĠTr ans
ĠMS IE
ĠSpec ial
D ocument
I V
a a
d ec
o ught
v ch
Ġ ult
re w
Ġh alf
201 6
ĠR E
ĠR un
ĠL otus
ĠOper ations
Ġautom atic
ar ter
20 09
ad ata
ĠF idelis
ĠN o
Ġout l
Ġattach ed
atab ases
Ġextens ive
Ġclear ly
Ġshow ed
ĠCor por
Ġdetermin ed
ĠCre ate
D uring
j unction
Ġc md
Ġd om
ĠI OC
Ġfor ces
ĠIn stall
ĠV ersion
ĠCh eck
Ġinstall s
Ġart ifact
Ġmotiv ated
ad a
ĠF r
ĠIn st
Ġ201 8
Ġim ages
Ġ0 7
Ġtr an
ific ations
Ġany one
AT H
Ġi P
Ġextens ions
ĠProt ocol
Ġargument s
Ġpiec e
B T
C T
\ \
l ass
r d
y d
ĠC S
ĠI OS
Ġun like
Ġob vious
ĠSt age
Ġadministr ation
ĠAr my
Ġdescri be
Ġstud y
ĠPres ident
S et
U G
al y
Ġd r
ing er
us ions
Ġe ver
ĠS a
ul as
ĠI vy
Ġl ay
Ġpro ceed
ch ang
ĠH ost
Ġrel ies
Ġdes ktop
Ġconfig ur
Ġsa w
uc lear
Ġlib raries
Ġsess ions
ĠCommunic ations
Ġregard ing
Ġprop ag
ĠFore ign
Ġappropri ate
Ġenviron ments
5 09
C U
G O
J RE
S p
W ork
Ġb rief
ĠM ar
ĠE nd
iss ion
Ġsomet imes
lis hing
S ky
Ġd ates
Ġd atabases
ĠF BI
Ġr ate
ant s
Ġ7 0
Ġpar ser
Ġattempt ing
Ġrefer red
Ġbre ak
Ġarch itect
controll ed
b d
c gi
f l
i ï¬ģ
p c
ĠM any
ĠU K
ail s
os en
Ġinter cept
Ġext reme
ock wave
cont rol
ĠAnt ivirus
Ġimpro per
Ġwater ing
Ġeconom ic
Ġhundred s
y ond
Ð º
an ak
Ġcon junction
Ġpre d
Ġag ent
ĠSt orm
Ġinv est
Ġsel ected
Ġtest ing
Ġdep ending
ĠSc an
Ġbelong ing
urrenc y
" ;
us es
Ġh xx
ĠD WORD
th is
ĠB l
Ġr a
und le
act ive
os m
ĠRAT s
Ġlever age
Ġtrad em
ĠSed nit
Ġunc lear
Ġsole ly
N ULL
U s
c pp
d ent
Ġin sp
Ġm utex
Ġar ray
Ġorigin ally
Ġupload ing
Ġrestrict ions
ĠDr agon
ograph ic
Ġpermiss ion
Ġspy ware
bound s
Ġenforce ment
Ġcombin ation
D R
R uss
p ath
am ing
st er
st ro
Ġ3 6
Ġtechn ologies
Ġass ist
Ġbrows ing
Ġmean ing
ĠAff airs
ullet in
C urrent
F ire
O b
i om
o ff
Ġt ax
20 0
ĠA x
Ġex cept
ol low
ĠF ri
Ġst ated
Ġ3 8
Ġdis able
Ġind ependent
Ġuse ful
ĠHTTP S
Ġexp ress
AD A
Ġfilen ames
Ġelect ronic
Ġmeas ures
ĠProduct s
i ety
Ġt elecom
or por
al ent
Ġm agic
ĠE mail
etwork s
ĠK e
ĠPro ject
ĠEl ect
Ġuna uthor
ĠDri ver
M T
e ks
ic ated
ĠA m
ad es
ĠF ake
Ġbec ame
Ġinterest ed
Ġemploy ee
Ġattribut es
Ġocc ur
ĠFin ally
Ġcontroll ed
vis ory
Ġdestruct ive
vch ost
m ary
o ss
Ġd aemon
Ġwh ite
tr a
ĠE m
Ġgo es
Ġlog ic
15 8
Ġent ries
ĠOr gan
Ġfail ed
comp atible
ĠForm at
L ab
a o
Ġs old
Ġw orth
ĠC R
ĠC ob
if f
ĠO ce
Ġ6 0
ser vice
pe g
Ġexper t
Ġsequ ences
ĠInv estig
ĠSn ake
Ġunus ual
A nd
b i
d aemon
i ber
w eb
ĠC y
ĠC LR
ut es
ĠM ond
Ġkey stro
Ġass igned
Ġrep e
Ġreceiv es
Ġsophistic ation
Ġremov able
Up date
Ġopt ions
ĠEston ia
rows er
Ġp ush
Ġto ken
ĠA urora
Ġex clus
ĠD E
ĠR ace
Ġun covered
Ġover all
Ġnew er
Ġcompil ation
ĠAg ency
Ġredirect ed
Ġlim it
Ġscan ning
Ġunderstand ing
Ġclose ly
Ġmult i
Ġpen etr
i ers
u able
ĉ ĉ
Ġw id
Ġd er
Ġm ed
Ġre ly
Ġre boot
Ġh ole
ĠS ample
ĠC ERT
Ġl if
Ġg r
Ġ3 4
Ġch osen
ub bed
Ġdec ided
AT ION
Ġman ner
Ġsuggest ing
Ġsusp ect
wh ere
ĠPL C
ranch ulas
ĠRetrie ved
Ġtravers al
B E
F X
Ġb lack
ĠP atch
ĠF al
Ġst ages
ous ly
um ber
ap id
Ġhand led
Ġreported ly
Ġsusp ected
Ġstrong ly
Ġscreenshot s
ĠTool s
, âĢĻ
b b
c yber
i ef
p df
et ing
ĠT rojans
ĠW orld
ĠD B
Ġwe eks
up load
ĠWeb S
Ġstart up
Ġrefer enced
Ġperson nel
ĠComp iled
ĠJapan ese
D I
V ersion
h ib
an ks
nt i
Ġdiffer ence
Ġdec ode
Ġhand les
ĠSo f
Ġu int
Ġintr anet
Ġcharacter istics
Ġeffective ly
Ġgather ing
ren ch
Ġben ef
) )
U I
h ole
in ing
is her
al k
Ġnot ice
ĠG mail
oo se
Ġper haps
Ġ200 4
Ġoff ice
Ġsecond ary
oot h
Ġbreach es
ĠAg ain
Ġbug s
ĠPri v
Ġpict ure
P L
r or
Ġ ~
Ġc ent
Ġre li
ĠS ign
Ġon es
Ġan onymous
ĠP ay
ĠR el
ĠG lobal
Ġca used
ap ter
ĠIt s
Ġgener ic
Ġmon it
Ġown ers
Ġmin utes
de vice
ĠIm age
Ġnear ly
Ġextreme ly
Ġb lob
Ġm app
ect ions
ĠW ed
ĠF F
Ġser ve
ĠH acking
Ġmost ly
Ġdecrypt s
Ġhist or
Ad min
ĠSof acy
B ased
f ortunately
Í ¾
in et
is ms
Ġd iplom
Ġh oo
âĢ ĺ
if ies
Ġit em
Ġconf idence
Ġpart ners
esp ite
wh ich
ili ar
Ġpos ition
Con nect
Ġdescrib es
A ttack
B S
D r
n o
al ysis
ĠT V
Ġn uclear
ĠH igh
li est
Ġactiv ists
Ġgain ed
ĠMin iDuke
Ġreas ons
Ġword s
osp ital
ĠEas tern
I m
h a
l ance
Ġv iews
ĠS oc
ĠA v
ĠP ers
ĠF usion
Ġ4 3
ĠSt rike
Ġinstall ing
TE D
TE M
Ġcommunic ates
ĠOper a
Ġclaim ed
Ġcomplete ly
G et
d ers
m on
o or
er ed
re st
am oon
Ġis n
ĠP itty
ĠU N
and ing
ĠTh en
Ġag o
Ġpossib ility
ĠComm on
ĠID s
F C
c all
p le
Ġt rend
er ies
Ġen ables
Ġmod ern
Ġ7 5
Ġprov en
11 1
TP s
Ġsub mitted
Ġsupp ly
Ġexp os
Ġpoint ed
Ġed uc
R ec
Ġs light
Ġre load
te e
im ic
ĠW estern
ĠF P
Ġinf lu
Ġnot able
ra q
ĠK n
ater ial
Ġfe ed
Ġvis ibility
Com p
ĠPower Point
Ġvisit ors
Ġhij acking
ybers pace
Ġbehav i
Document s
A r
D S
F O
U N
f c
m ark
p g
u k
Ġ q
Ġt unnel
al er
et ary
ĠH at
ĠH ang
Ġ4 6
Ġpub lication
Ġsa f
ĠWh at
Ġoff ers
Ġsecond s
Ġeff ect
ĠDef ence
Ġhar vest
ĠFound ation
C yber
H ITE
M an
a ver
n g
n ew
Ø §
ind er
Ġpriv acy
ĠSh ockwave
xx xx
Ġhel ps
Ġut ility
Ġfre qu
Ġexfiltr ate
ĠAt l
ĠPL A
ĠRT F
Ġheav ily
Ġsco pe
F rom
S e
S y
S tr
m unic
Ġp ipe
Ġd ial
ur age
Ġl ight
ol i
ĠN a
Ġr is
ĠL ast
Ġsp ok
Ġ0 9
16 8
ov iet
ues day
err or
Ġquest ions
Ġtest ed
Ġimplant s
iet nam
yc le
4 15
S ecurity
c ut
d es
m ers
n y
p ost
Ġs chedul
Ġin g
al le
ion ed
ro te
Ġh im
Ġad apt
ĠV PS
ĠSer vers
Ġmet adata
Ġreceiv ing
Ġsteal th
Re ad
Ġmechan isms
Ġded icated
Ġartifact s
ï º
Ġa ud
Ġc c
at ur
Ġw ip
ec ause
ĠC ustom
ab ling
Ġser ved
ist ent
Ġadd ing
Ġem b
ord er
Ġ5 3
Ġ8 9
Ġimp erson
Ġval uable
Ġread s
Ġinvestig ations
sh ake
ool s
ats App
Ġredu ce
E Y
Ġc ivil
ĠT ranchulas
ag ram
ĠF A
00 2
11 5
ĠEn hanced
Ġgener ation
Ġins ight
Ġtim eline
ynam ics
ank ba
ĠCor ruption
SP ACE
ACK SPACE
sequ ent
h ai
l it
Ġm aterial
ĠC oun
Ġbe yond
ect ual
ct l
Ġcomp ar
ĠO f
ave l
Ġacc ur
ĠV ietnam
Ġ4 7
Ġdo uble
ĠCh r
Ġ7 3
ĠRe public
Ġman ager
Ġgener ates
af e
miss ion
Ġworld wide
Ġteam s
Ġgiv es
Ġsignificant ly
Ġretrie ved
Ġaware ness
Ġequ ip
ĠMond ay
" "
F isher
L M
v ar
Ġc los
ĠT imes
ĠS HA
ĠC N
ll ectual
Ġnot hing
end er
li p
ph one
Ġ4 8
pl ate
lud e
Ġaccess ible
ĠRe quest
Ġwork stations
ero space
Ġbelie ves
Ġexfiltr ated
vis ion
ĠLib rary
Ġtit le
ĠAx iom
B u
m any
Ġs cale
or ing
Ġw iper
ar m
il tr
ĠT wo
ĠT uesday
ĠS DK
âĢ ¦
ol id
Ġal er
Ġdo ing
Ġcomprom ises
Ġaff ili
Ġlist ing
Ġk ill
ĠAd visory
ĠSh amoon
IN G
Ġfam iliar
ĠFin Spy
Ġmacro s
ĠPort al
YS TEM
ches tr
Ġunauthor ized
L ist
O ur
in i
en ame
Ġb atch
Ġf air
om press
ĠS k
ĠC E
ĠC entral
ig her
Ġg as
Ġapp ly
ĠUn ified
Ġ200 5
Ġproper ties
Ġperform ing
sh ark
Ġrepl aced
Ġinteract ion
Ġgreat er
Ġpiec es
Ġincreas ingly
ĠSm art
Ġsitu ation
Ġdig it
ĠCob alt
Ġsaf ety
. )
x C
z ip
Ġ ï¿½
Ġf inger
ĠM os
Ġg ets
ĠD ynamics
Ġinf iltr
Ġag ree
Ġcor rupt
Ġjournal ists
Ġdang erous
Ġforens ic
O D
c d
o ke
Ġ ess
Ġt ries
Ġin quire
ĠT iv
Ġ3 7
Ġpre c
op s
Ġthem e
ĠIP v
Ġexp ect
Ġass um
ĠRes trict
Ġinfect ing
ĠBe low
ĠAut o
B R
V irus
b ase
b our
Ġb ad
as c
ĠA N
ĠE ven
ph os
ĠAn y
ĠAr bor
K ey
N K
c are
Ġc ipher
Ġd ubbed
ĠA T
ĠF IN
ĠB el
Ġsh ot
In ter
velo p
Ġac quire
Ġph ase
Ġlarge ly
Ġclear text
ĠSyri a
Ġmass ive
Ġadvis ory
ĠIS IS
C H
D ec
Ġ }
re search
Ġs l
Ġs ys
Ġw ait
Ġw rote
Ġn odes
Ġ( âĢľ
Ġcom ing
Ġare as
Ġse g
Ġwho le
Ġinte llectual
uc k
Ġsm art
Ġrout er
Ġ* *
ĠFin Fisher
RO J
Ġrecip ient
ĠWire shark
ĠSa udi
ĠWebS phere
ĠTiv oli
5 07
A K
z z
Ġs he
Ġm ist
ĠA b
Ġ( .
Ġcon sole
ol s
Ġnot ification
Ġr are
em ocr
Ġ5 7
Ġdec l
Ġsoc ket
Ġter m
xx x
Ġanalyz e
Ġfail s
Ġtimestamp s
Ġdefend ers
/ .
D N
s a
Ġt we
Ġv ary
am ent
ĠA uthor
od er
ate ll
Ġr ule
Ġco ordin
ional ly
Ġpl aced
ĠPro f
Ġoff ensive
Ġsever e
pro t
Ġcontact ed
Ġpur ch
ik it
miss ary
An other
ĠNove ll
ĠGeorg ian
ĠCorpor ation
Ġtradem arks
ollow ing
' re
B er
re et
Ġm ap
ĠS MS
ĠS oviet
ĠA tt
ĠI dent
ĠE nergy
Ġst ay
ĠSt ore
Ġdef ined
ribut ion
Ġpartic ip
ES HE
ĠReg istr
Ġexplain ed
ood le
Ġconfigur ations
ĠEnd point
Ġequip ment
3 32
a e
Ġth ought
Ġf low
Ġre covered
Ġex it
Ġcomp ared
ĠN ext
ĠG ateway
Ġ4 1
Ġtool kit
Ġdef ence
Ġhand shake
Ġsec ret
Ġpol ice
Pro gram
Ġautom ated
ĠTur la
ĠPa wn
Ġkeylog ger
Ġescal ation
Ġult imately
< /
A A
B B
F in
S M
c ow
n es
ĠC er
ĠC ent
Ġan sw
ol it
ess ion
ĠD oc
and iant
Ġdiffer ences
TE MP
Ġsub sequent
ify ing
Ġindic ator
Ġregistr ant
ĠAs ian
Ġconduct ing
Ġclic ks
Ġchannel s
ĠMiddle ware
Ġspe ak
ĠMod ule
ĠCarb anak
G ET
x imately
en ior
Ġh igher
Ġn ations
ĠU AE
Th at
Ġsearch es
Ġlater al
Ġbuild ing
Ġrepl ace
ĠLo ad
Ġunlike ly
D C
Ġa udio
Ġth ings
is c
Ġm icro
et er
ĠC al
ĠC ons
ĠC oll
ĠC osm
am a
ĠM e
pt y
ĠW i
and ard
ĠE missary
oc x
ex p
ĠV ictim
Ġlocal ly
ĠAPI s
Al though
ĠSim ilar
cap e
F i
L C
S ecure
f ix
h otel
i ans
Ġ icon
ĠS il
Ġcon d
Ġcon vers
Ġex change
Ġst ri
Ġlo st
und ll
act ions
Ġdo z
ang hai
Ġ8 8
Ġpar s
ĠZ ero
Ġed it
ĠRec ord
Ġtrain ing
3 64
O ver
P ass
ro p
Ġm atter
Ġn or
ĠM o
Ġst ory
ĠL D
ĠL ike
ip s
Ġ4 43
Ġev ade
Ġindic ated
Ġme ant
Ġlever ages
ij ing
Ġlead s
uro s
Ġimpro ve
ĠMon itor
Ġproced ures
. âĢĻ
O L
g ency
w ith
Ġv i
Ġre ally
ĠT R
ĠC itizen
ut in
ĠE dition
ug e
tem p
Ġnot iced
ĠB ACKSPACE
ĠL ux
Ġsp ot
ud e
port ed
Ġdec ompress
12 7
ĠWh atsApp
Ġqu eries
Ġerr ors
pri etary
Ġarchitect ure
5 00
I L
N E
d c
n ection
Ġt ro
er us
Ġs ave
Ġb ar
Ġp ip
om an
ab ar
201 7
Ġal tern
Ġapp lied
kn ow
10 2
Ġout age
ĠPl ay
Ġhard ware
Ġlead ers
HO IS
Ġforum s
1 000
T L
h one
Ġth ing
am s
ur on
Ġex ception
Ġor chestr
ĠP anel
lic k
rypt ion
Ġover view
ĠUn ic
ĠSt udio
Ġwork ed
AR T
Ġown ed
Ġstructure s
Ġfix es
Ġauthor ities
Ġtact ic
Ġrandom ly
Ġproject s
ĠDark hotel
Ġscam s
DAT A
' '
I nd
N ot
s l
Ġt ied
re c
re h
Ġh ex
ĠC all
id ing
ad em
ĠP ublic
ĠR AR
ĠF rench
ure au
ĠB as
Ġlog on
con om
ĠWin nti
Ġpolit ically
Ġdelet es
ĠAnal y
Ġcybercri me
conf ig
Ġrecomm end
ĠLux em
d a
f r
p os
Ġc yberspace
Ġs uper
as ploit
ĠT YP
ĠS ource
Ġis ol
ĠU P
ĠO P
Ġ6 8
Ġfol ders
Ġcommunic ating
pro cess
Ġexist ence
Re g
Ġspread s
O ther
b ug
Ġa way
in ary
Ġs ort
Ġw indows
ĠS earch
ĠC C
ir ing
ĠE conom
Ġ6 3
Ġind epend
Ġpar sing
Ġinter pre
Ġdropp ers
mail s
ĠAr t
ik on
Ġdeploy ment
ĠES ET
Ġrest art
Ġhop e
Ġinvolve ment
Ġtran sport
ĠAgain st
Ġris ks
Ġfinger print
erus bi
R T
Ġb ound
Ġd ll
ĠT ask
Ġl ines
lic it
ant ed
end ar
Ġdec oding
Ġset up
ĠWh o
Ġmain ly
25 6
ĠY ahoo
Ġinvestig ating
Ġrespons es
Ġexper ience
Ġtrack ed
Ġfraud ul
ĠDes ktop
ĠCarb on
ĠGer many
ĠLink ed
FI LE
Ġdial og
E B
O ON
Ġt w
Ġc enter
Ġc amer
al so
ar a
ĠM oodle
ĠW HOIS
Ġser ves
ĠB ear
plo ys
ĠK ill
ub e
Ġup gr
Ġ20 00
ĠUn ion
ap i
Ġrem ed
Ġindic ation
Ġform s
enc rypted
ĠSh im
ĠSh anghai
IN D
Ġspear phishing
ĠTechn ologies
ĠInter estingly
Ġpattern s
Ġexact ly
ĠGhost Net
Ġder ived
bour g
ĠLuxem bourg
M ain
S ec
b us
Ġm ount
le ments
ut s
Ġg ot
ail y
plo ad
ens ion
tract ing
de pth
Ġamount s
Ġkeystro kes
ĠRestrict ed
B ack
m es
Ġp tr
Ġ( )
Ġcon ver
Ġl ayer
Ġnot es
Ġ0 5
Ġdo or
Ġ200 2
AT E
11 4
Ġbu y
Ġrep os
Ġinitial ization
Ġrestrict ed
IR T
Ġmill ions
ĠNet W
Ġproble ms
Ġphys ically
Ġweap ons
Ġencounter ed
Ġdom est
ĠMos cow
N ote
O r
S im
it el
Ġw are
ic les
Ġm ax
Ġh er
ĠT er
ĠS ony
Ġg rant
Ġsp onsored
Ġse ven
ĠJ un
Ġpl aces
Ġ- >
Ġ9 0
Ġ9 9
Wh at
Ġpresent s
Ġmin or
Ġrout ers
Ġcompl et
Ġocc urs
Ġintr usions
cont ent
ĠOb ject
ĠAdministr ation
Ġlab el
ĠTYP O
B oth
F il
M ail
R em
c ore
f a
f rom
Ġs olution
il ing
ent ed
ĠT LS
he ap
st ation
Ġas king
ĠR DP
Ġr ad
sp onsored
Ġ6 7
Ġcyber espionage
Ġback ground
Ġdes p
Ġcomprom ising
pr ising
ĠOn line
Ġcoll ects
Ġcoll abor
ĠY ork
Ġbrows ers
Ġanalyz ing
Ġtrigger ed
rob uros
Ġincreas ing
C ERT
L e
Ġc ache
Ġs an
et a
ĠT el
Ġl ive
ol der
Ġit er
ĠE ye
Ġr apid
Ġco inc
Ġmod ular
Ġev olution
Ġpay ing
12 3
Ġdevelop ing
olog ical
asp x
Ġvis ible
.... ...
stant ial
Ġspoof ed
Ġtrust s
anc y
pa per
Ġfair ly
D F
M alware
N G
S ince
U P
g ov
w in
Ð »
Ġt ail
Ġo w
Ġin n
Ġb ox
ul a
ĠU DP
ĠH ikit
ĠN GO
Ġinc l
ĠJ S
pl ays
Ġ8 3
Ġclass ified
Ġopp ortun
Ġmaintain s
IF T
Ġbr ute
Ġfr ont
Ġcomb ined
Ġdesp ite
L ast
T ools
o per
o ssib
Ġt ies
al ity
Ġto wards
ĠS IS
Ġal ter
ĠE MC
ĠH ave
Ġ3 9
Ġem pty
ph a
ĠK ernel
Ġtr aces
Ġaccess es
ansom ware
Ġfind ing
Ġprotocol s
ĠBe ijing
itiz ens
Dri ve
orpor ated
Ġrepe ated
A V
c k
l ate
o ul
re ate
he ad
ĠD ist
Ġco up
Ġdis co
Ġres et
Ġsupp osed
Ġel ection
Ġchang ing
Ġsel ect
Ġvisit ing
Ġele vation
ĠIsrael i
Ġsym link
ĠCrime a
ĠHang over
munic ations
S ee
c s
f d
h and
m ain
Ġt cp
Ġs ink
am b
ĠA uthentic
Ġas ked
ĠTh rough
Ġanal ys
Ġkey board
Ġnam ing
Ġrequest ed
ĠFor ce
Ġaffect s
Ġdist ribute
Ġsoc iety
ĠPD B
Ġmodify ing
ĠSte p
Ġtag s
pport ed
ĠCan ada
ĠBu ild
ĠNa ikon
M y
W S
d uc
s en
Ġt ion
Ġw ent
ĠT C
ĠT om
ĠT roy
he ast
ur l
ow ers
ail able
ĠB ud
um ably
em ens
Ġca using
ust ers
str ing
ĠSo phos
Ġcertain ly
Ġinvestig ated
Ġclic king
Ġbas is
EX E
Ġobser ve
Ġincom ing
ĠInst itute
Ġslight ly
Ġschedul ed
reh ensive
P RO
g roup
x ml
Ġm ind
ĠS he
ut il
ĠM ark
Ġser ial
Ġr untime
ident s
ĠCh ar
Ġnetwork ing
ĠRe ad
13 98
IN FO
Ġinitial ize
SC II
ĠUp on
Ġdetect ions
Ġlevel s
Ġcrypt oc
ĠGu ard
Ġdest ination
Ġrespective ly
ĠCE O
A SA
B ot
D O
I s
W HITE
c lient
r b
is ions
ĠC O
Ġal ign
pp et
Ġad s
cc ount
ĠL ook
ĠK it
ote ls
10 7
Ġprot est
ĠFire wall
ĠCon sole
ĠDirect or
ĠComp rom
Ġappro ximately
ock et
ĠDe ploy
Add itionally
Ġasp ects
Ġrend ering
Ġhxx p
ĠShim Rat
C ore
F irst
L F
Ġ ï
Ġ il
en k
as ing
ri x
ĠU roburos
ĠB ureau
Ġadd s
Ġapp l
Ġ4 9
ens es
Ġar med
Ġdirect ed
Ġdirect or
Ġthem es
pr ises
Ġpack ages
ĠDLL s
Ġport ion
ĠCon nect
Ġwar rant
Ġ19 2
ĠComp any
Ġevery thing
ĠTarget s
ĠAss oc
Ġregular ly
ĠSam s
Ġmanufact ur
Ġannoun ced
ĠFri day
ĠAtl ant
Ġess ential
C E
L ib
c enter
e v
h at
j ax
q l
Ĥ ¬
Ī Ĵ
Ġt ell
Ġs ell
Ġw ave
as on
as hing
Ġh ang
ĠS everal
ĠM ach
Ġl etter
ĠP anda
ĠR PC
ĠU SA
ĠE C
Ġun w
tern ally
Ġmod ifications
log in
Ġpl ug
Ġoff line
Ġthread s
Ġproced ure
Ġhealth care
Us ers
ĠNetW itness
A ct
B AN
B UG
M ore
g if
z e
Ġc itizens
Ġf lo
Ġf ri
Ġf rame
Ġm oved
ac cess
lo ss
Ġh eld
ĠS ame
am ily
ĠI RC
st ances
Ġcom ments
ot ing
ĠD uke
sp ec
ĠK ing
OC K
Ġremain ing
Ġconsist ently
Ġcook ies
HT TP
PE G
ĠSi emens
IV Y
ĠSoc ial
Ġdomest ic
2 17
I d
l im
Ġa erospace
Ġc at
Ġs ections
Ġs enior
ĠA f
ĠP S
ĠR ights
ĠB abar
Ġde g
ass y
Ġdis ables
Ġdis plays
Ġab use
ide os
10 1
Th read
Ġresult ed
Ġear liest
Ġcontroll ers
Ġcard s
ĠCloud Duke
Ġalleged ly
Ġrang es
ĠFake M
Lab s
Ġinflu ence
V M
c an
c ast
s y
Ġs atell
al o
ĠT ue
he et
Ġcon sequ
Ġex erc
Ġpro files
ĠP e
Ġst o
Ġde v
Ġsu ffer
Ġpo ss
Ġpre fer
ub y
Ġmod ification
Ġar ri
Ġloc ate
ick et
Ġexport ed
Cont rol
Ġdisgu ised
Russ ian
Ġfraudul ent
F orm
N orth
P R
P ath
c b
Ġm aster
od ec
Ġpro of
ĠE ar
Ġcont ribut
ĠN ET
Ġun re
Ġun it
Ġch oice
ĠK im
Ġ5 2
Ġ5 00
oo p
Ġgo als
ish ed
Ġac qu
Ġproduct ion
ĠY et
ĠCyber attack
Ġtrans actions
Ġpost s
St art
Ġremain ed
inc lud
ĠReg istry
urs day
Ġmiss ion
Ġbill ion
ĠiP hone
Sy S
ĠFA Q
A F
D isk
Q U
f b
h ave
Ġc ur
Ġf lex
Ġm as
et ta
ĠP CC
ĠD est
Ġcomm it
li ances
Ġapp ended
Ġ7 9
25 5
Ġass ume
Ġunder ground
ĠInd ust
pro file
gy pt
roll er
Ġlook up
Ġgiv ing
inc ip
du ce
Ġpract ice
Ġmiss ing
Ġcollect ing
Ġentire ly
bu ild
Ġrecip ients
ĠSec ond
Ġcond itions
C loud
S B
d r
m alware
Ñ ĥ
Ġ !
Ġ ri
Ġt en
Ġc entral
Ġp anel
et ected
Ġh y
Ġcon cept
st an
ĠW ater
Ġal one
Ġmal vert
ĠH idden
ra pper
Ġse ed
Ġch arg
ĠJ ust
Ġ5 1
Ġfiles ystem
Ġinst ant
out heast
ĠX t
Ġinstall ations
Ġcustom ized
Ġpol ic
ĠSu pp
Ġoffer ed
Ġincom plete
Ġprox ies
ĠAmeric an
Ġgrow ing
Ġexclus ively
Ġreli able
nes day
ĠCent re
0 158
M e
M ost
a us
c r
t l
Ġt ain
Ġs leep
ĠT TPs
ĠS ize
ĠC OM
od ay
ĠM ain
ĠM andiant
Ġare n
Ġnot ified
ĠN ULL
lic ate
Ġpo or
ak ed
ĠTh ursday
Ġimp lements
Ġpl ans
Ġaddress ed
Ġper p
64 8
Ġsend er
Ġexp and
Ġass ets
AR BAN
Ġsupport ing
nam ed
Ġrequire ments
Ġexper i
ĠSc ar
Ġmov ie
Ġ> >
ĠBl ue
ARBAN AK
4 00
C N
L otus
M od
o peration
Ġs chool
as ion
ĠT op
ĠS IP
ĠA SCII
st at
Ġatt r
ĠP IVY
Ġcomp rehensive
ĠE qu
ĠE gypt
ĠB an
Ġdec ision
rit ical
Ġqu e
ĠComm it
ĠComm ission
Ġfin ally
Ġcheck ed
Ġevent ually
Ġbotnet s
ĠAut om
Ġcomment ed
ĠCrypt ography
ĠQuick Time
Ġlif e
Ġincl usion
ĠSams ung
F ig
H ere
M M
T em
t arget
Ã ©
Ġt ried
Ġc e
Ġw ire
ve iling
Ġcon tr
ot es
ol es
VE R
ment ioned
ĠG MT
Ġch ild
Ġch ief
Ġca ut
Ġoper ates
ĠCh ain
av ig
Ġany thing
Ġsign ing
Ġsub domain
Ġprogram ming
enc oded
Ġcl usters
Ġeng aged
Ġcontact s
Ġvalid ation
Ġfact ors
Ġbreach ed
So ftware
Ġstrateg ies
Ġbuil der
Ġcompress ion
Rat ankba
ĠBE AR
ĠView er
Ġvi ol
= =
U krain
m aster
r ar
ĠS outheast
Ġn c
am ed
ver age
st art
Ġas k
ĠB ah
Ġ6 1398
ĠV er
ĠV ideo
Ġab s
Ġreg ional
Ġorganiz ed
Ġhigh est
ID E
Ġrecord ed
ĠSp ace
IT TER
ĠDe vice
Ġsom ew
Ġref ers
Ġcapt ured
Ġturn ed
Ġcare fully
Ġprofessional s
ĠWed nesday
Ġdiplom atic
Ġproven ance
Ġindepend ently
sen al
2 18
C O
S E
T O
d irect
j pg
k ut
Ġ ip
Ġs w
al ing
Ġm om
ac ot
Ġv ideos
Ġh p
ĠW indow
ĠD on
ĠG iven
Ġca uses
com e
ens ions
ĠTh us
ĠUn veiling
ap est
Ġimp ress
Ġev al
ĠSt orage
Ġsim pl
Ġencrypt s
Ġcons ult
ĠAd apt
err acot
sh op
CP U
ĠTr ue
Ġmark ed
Ġtem plate
US ER
Inf o
Res earch
ĠClear Sky
Ġbecom es
yd raq
ĠCosm ic
erracot ta
F urther
i y
s m
s cript
Ġd b
an Lotus
âĢ «
Ġcon ference
id ering
ĠR o
ra z
ok ed
Ġaffect ing
Ġinvol ves
Ġinvestig ate
Ġobject ives
Ġtim ing
Ġpatch ing
Ġrout ines
ĠFil ter
ĠSC ADA
Ġlear n
Ġintro duced
ĠFal con
Man ager
F R
Q u
b r
v ention
ä ¸
Ġs vchost
it le
Ġb ook
Ġp an
Ġp se
Ġd iv
ĠS M
ĠM ax
ĠD AT
ĠD ynamic
ĠB ank
ĠG rid
ach ed
Ġag gress
Ġac know
Ġest im
Ġsmall er
ili pp
Ġinstruct ion
ĠCommunic ation
ĠPa per
Ġrelationship s
Ġcircum stances
ĠFeder ation
ĠRegistr ant
ĠBas ic
ossib le
ĠBud apest
loss om
C M
L o
b l
b ook
g ener
j sp
l ers
in itial
re m
Ġre semb
ĠS AP
âĢ ¢
ur p
Ġcon sequently
Ġg ang
ĠW est
ĠO rigin
ĠL ive
plo re
ud o
pl ace
Ġident ification
Ġres olution
Ġdef in
Ġdef ace
ĠFin ancial
AS E
Ġdep end
Ġenter prises
comm on
semb ly
Ġaim ed
ĠFurther more
ĠShad ows
ĠNov etta
Fire Eye
Ġcryptoc urrency
3 00
H K
a wn
j RAT
p ages
s te
s ub
Ġs low
it ory
Ġe ight
ĠC ARBANAK
ain ed
Ġex ports
ag n
Ġsu c
all ery
Ġdis ruption
Ġdec e
Ġpay ments
Ġk its
Ġmethod ology
Ġtrans mitted
Ġdetect s
ĠPower Ratankba
Ġclass es
Ġdest roy
Ġskill s
ooth old
Ġhoo ks
Ġow ner
D is
H ub
h ow
o pper
Ù Ħ
Ġo op
Ġw on
Ġv ast
Ġh ospital
ĠS um
ri v
ag os
ĠD emocr
ort unity
ĠG it
ĠJ B
Ġinter f
Ġvari ables
ĠPro v
ĠPro xy
Ġpers p
Ġpack ed
Ġobject ive
Ġdemonstr ates
ĠThere fore
Ġspread ing
Ġopp ortunity
ĠAS P
ĠAS ERT
Ġobser v
ĠMet asploit
Work s
Ġdeg ree
2 15
C A
G E
L oc
b ol
f ield
w orth
z er
Ġs ense
Ġm ent
om b
ĠS ci
ab ot
ĠD C
Ġr undll
Ġact s
Ġdo ub
Ġ5 4
Ġsub system
Ġext ort
Ġext ended
Ġimplement ations
Ġwar ned
Ġclaim ing
Ġrev ious
Ġshort cut
Ġfac ilit
Ġhar m
Ġexpos ure
Ġfrequ ency
G oogle
N etworks
d ig
r ror
t iv
w ar
Ġt end
Ġa verage
Ġf ace
Ġd up
ar r
ĠC ol
ĠC red
st itut
ĠM ong
ĠM ilitary
ĠP ATH
plo s
Ġdis put
vers ion
Ġrel ay
Ġar rest
Ġar senal
Ġout bound
ick ed
of ang
ĠOpen SS
ĠTr acking
Com et
An alysis
ĠTarget ing
ĠReal Networks
val ue
Ġconcer ns
ĠLocal Service
Ġexam ined
ĠPh ilipp
ĠGer man
ĠFr ance
ĠEconom ics
ĠTC IRT
1 20
5 06
h ack
u an
at z
en e
Ġf ill
ion Duke
ing u
om et
as cript
ĠM O
Ġg aming
Ġattack ing
ĠD eb
ĠF ort
ĠIn tr
ĠN umber
act ed
Ġpre t
12 8
tt p
Ġsub sequently
ĠPro gram
Ġpoint ing
Ġvis ited
ĠAct ivity
ĠInc orporated
Ġestab lishing
Ġpres umably
Ġstat istics
Ġgather ed
ĠCT U
ĠHel p
ĠAuthentic ation
H el
s hell
s uch
Ġa p
Ġa pt
Ġb ranch
Ġw or
Ġp arent
lo be
ĠT erracotta
ad dition
ĠM P
ĠM ofang
Ġex hib
ĠâĢ Ŀ
Ġr ates
Ġen abling
Ġbit s
Ġacc om
Ġch at
Ġle aving
ak h
Ġpre par
ĠZ IP
lex ity
ĠSu pport
Ġlow er
ĠMess age
Ġtransfer red
Ġhighlight ed
Ġweak ness
Sp ec
Ġcompar ison
olit ical
Ġpip es
Ġmom ent
G I
W IND
l ands
l ength
Ġs il
ro ad
ĠC IR
id ance
Ġwh itel
Ġpro duced
ĠThe ir
ĠR uby
ĠB ot
ĠB rowser
li ament
Ġsh if
ak er
Ġuser names
Ġind eed
oo king
Ġtr ade
av ascript
Ġmess aging
Ġdem ands
Ġz ones
Ġext ent
Ġdetect ing
ĠLab or
ĠHe alth
Ġtop ics
ĠDark Comet
Ġbr ing
ĠTur key
Cry SyS
Ġide a
Ġmonit ored
507 27
Fin ally
Ġperp etr
ITTER BUG
Ġsuc ceed
ĠCIR CL
D ll
N OC
d el
l ines
n ected
Ġt ab
in te
Ġf oothold
ic ators
Ġh uge
ĠT otal
ĠT iny
ĠC ount
if fer
Ġl ures
ĠP ID
ay load
Ġad opt
ak s
Ġoper ated
16 3
Ġfe el
AP P
ĠAct ion
Ġmin imum
Ġrespons ibility
Ġlaunch ing
Ġresol ve
Ġextract s
Ġbelong s
ĠStr uts
-- --
ĠMal icious
ĠSW IFT
ĠEX E
ĠDeploy ment
Ġunw anted
ĠBah rain
. [
C s
C MS
D es
F T
m al
u int
x ls
or ter
Ġf av
Ġf lash
ar b
ĠS uch
Ġ( $
ĠM ir
ĠM AC
Ġfor ced
ce ll
ĠU pload
qu er
Ġ2 56
ĠL a
iz ations
ĠCh ange
Ġsc r
12 6
Ġph ones
pass word
Ġsusp ic
ĠBe fore
Ġarch ives
Ġutil ize
IC K
Ġlat ter
Ġhapp ened
Ġrecomm ends
ĠVB Script
Sc an
Ġcateg ory
patch ed
Ġproceed s
Ob ject
Ġtelecom munications
ĠSk ype
Ġpolic ies
1 10
B L
I O
P ort
T LP
f rame
m i
m m
r st
Ġ Ã
re ts
Ġc oded
al ue
Ġd ual
Ġd raw
ro ot
et ch
Ġh otel
ur ning
im ik
ter m
ĠU nd
Ġst yle
ĠH ow
ĠH IG
ech o
lud ed
Ġdocument ation
form at
esp read
loc ation
enc ing
Ġeng age
rid ge
Ġrespond ed
Ġexpl an
Ġnorm ally
Ġsn iff
Ġphot os
ĠIOC s
Ġitem s
Str ing
Ġorchestr ator
ĠCommit tee
ĠAdapt ive
A pplication
B usiness
B oy
D T
D ef
D IS
T able
a uth
b re
i ate
l am
l ayer
s cale
t om
re ed
Ġc ycle
at ives
Ġw atch
an uary
ĠC urrent
Ġn ative
im age
if ically
ĠH ash
ave ler
Ġ" "
Ġspec ify
ĠEx t
wo od
Ġ9 5
tt y
Ġret ail
AR E
Ġsearch ing
Ġupload s
ĠJo hn
ĠSte alth
Ġidentif ies
ĠPer form
ĠDo uble
ĠSO AP
Ġenumer ate
Ġplain text
iï¬ģ c
ĠSil ver
initial ized
abot age
imik atz
I OC
f ire
i able
n b
r t
r um
x Shell
re a
Ġd at
Ġm ix
as te
ĠA ccount
ĠD ino
ch eck
Ġr aw
âĢĿ ;
ph as
ĠSt ud
AT IN
Ġcommunic ated
Ġloc ked
Ġinject s
Ġconnect ivity
AR A
Ġsuggest ed
ĠWin CC
ĠAttack ers
Ch ina
Ġpower ful
Ġfr ag
Ġreach ed
ĠHack ers
Current Version
ĠOce anLotus
Ġbehavi our
ĠAT M
ĠCer tific
Ġï Ĥ
Ġposs ess
ĠCosmic Duke
Ġpersp ective
worth y
' ve
> <
D WORD
M A
p m
ĠS ys
ĠC H
20 08
ur ced
ĠM r
ĠM ode
Ġg lobe
ĠF ox
ist ries
ĠIn itial
ĠB undle
Ġde ep
ĠG az
Ġco vert
ĠL AN
li x
Ġsh a
Ġreg ions
os ystem
Ġsc hem
12 5
Ġac adem
ateg ic
ĠUs ed
ands cape
Ġrev ent
angu ages
Ġclick ed
IF F
sc r
ĠDro p
ĠShad ow
Ġexpert ise
ĠComprom ise
ashing ton
E ach
O ut
T arget
W P
l nk
p ad
z one
Ġb ind
Ġp iv
Ġd oll
Ġh ot
ĠS an
ĠI ss
st ar
ĠH ouse
Ġsp lit
Ġsh ift
Ġ5 9
Ġtr avel
os h
yp oth
Ġpat ients
Ġdef enses
Ġbeh alf
Ġconv inc
Ġseem ingly
inf ormation
Ġec osystem
Ġele v
Ġscam mers
Con f
pack et
Ġwid espread
Im age
Ġtail ored
M any
N ew
S ource
T S
a round
b at
c er
c ing
h am
h ere
k ov
p db
r ab
t est
u i
Ð ²
Ġc ell
Ġin ternally
is is
Ġw a
Ġd word
ĠT rid
ag h
ĠD ate
00 1
ist ers
Ġun iversity
ĠK az
Ġcontain er
Ġsc ans
Ġj ava
Ġgain ing
ĠCon ver
Ġpr incip
con nect
ĠWar fare
Ġbecom ing
Ġlay out
Ġtwe et
Ġsto pped
B A
C ode
T ube
o lexity
s cal
Ġc lo
Ġs aves
ul ations
ot ao
Ġpro min
ess age
ĠD en
Ġcomp r
ĠB ecause
ĠN on
Ġr an
pl ates
Ġimp ossible
Ġj ump
llig ent
ĠOn ionDuke
Ġport al
IS IS
Ġinitial ized
Ġu pported
Ġsur prising
Ġenter ed
Ġrest ore
Ġdemand ed
Log ix
Ġur l
Ġcateg ories
ĠElect ric
lip board
Ġdisco urage
ĠIndust rial
1 32
D et
N AME
O f
T echn
T rojan
d is
d ownload
e h
g oogle
h ood
l ab
m its
w orm
w orld
y nc
Ġ ign
ic ks
ar ian
om el
ĠT ls
ĠS H
ĠC old
Ġex plorer
Ġg ames
ĠD espite
ĠF L
ĠX en
ĠEx ample
ĠSt andard
Ġdes cript
Ġbut ton
11 7
Ġhand lers
ĠMan so
the less
ĠAr ch
ugg ing
Pro c
Ġintr ud
wh ile
Ġconsum ers
Ġhere in
ĠAss et
Ġsum mary
Ġpict ures
Ġdiss ector
Ġinser t
Ġprep ared
Ġcontract ors
Ġhistor ical
ĠVPS NOC
ĠAuthor ity
Tem p
C Y
a ut
Ġt reat
ed it
lo t
le aver
ĠS TR
ĠC OR
Ġn one
ĠI SP
ter fly
ĠP utin
ĠB rit
ĠB lock
ĠB ITTERBUG
Ġem phas
Ġle ader
Ġrel ied
Ġpar se
ĠX SS
Ġsc ore
Ġwork er
Ġj o
ĠZ xShell
ES T
Ġfocus es
Ġspecif ies
ustr al
Ġsay ing
Ġnecess arily
ĠOver flow
Ġexam ine
Ġachie ved
Ġmitig ate
Ġbloc king
Ġfirewall s
ĠAmeric a
Ġeduc ation
prot ected
ĠLinked In
Ġconvinc ing
4 14
H N
g th
s v
w C
Ð ´
Ġ ir
Ġt rojans
Ġo vers
Ġs abotage
im ize
st ers
Ġ1 28
Ġpro l
ĠP RC
Ġad vice
ĠN ode
Ġsu fficient
lic ated
ult ane
Ġthan ks
In ternet
Ġro bot
Ġj oint
Ġread y
Ġass ign
ï¬ Ģ
ĠÂ »
Ġ* )
Ġpres ident
Ġdiscuss ion
orre nt
ren gth
Ġsum mar
HT ML
ĠArab ia
Ġlear ned
ĠYou Tube
ĠSV G
Ġassist ance
Ġclos ed
ĠArt icle
omel and
C rypt
C MD
U ID
a ro
i as
t ype
Ġb oard
Ġp hish
Ġto uch
Ġh int
ĠT ra
Ġbe g
Ġl anguages
Ġg eop
ĠP lease
ĠW rite
ĠW ashington
ĠD i
Ġnot ing
Ġr at
Ġr ise
Ġch unk
Ġ5 8
Ġbot s
Ġloc k
Ġund ers
ater al
Ġbro ader
St ate
Ġlater ally
Ġimport ance
Ġsur round
Ġretrie ves
Ġspoof ing
Ġfac ilities
Ġhapp en
Ġsitu ations
Ġevol ved
Ġpe er
ĠOrgan ization
Ber kut
Ġansw er
includ ing
ĠJB oss
ĠLabor atory
ĠTrid ent
D NS
G u
S ize
W iki
f lix
s n
u er
w p
w rite
Ġ rough
or un
Ġh unt
ul ating
ĠC ase
ĠI X
ĠI mp
ĠM imic
Ġex tra
ch ar
so ck
Ġst ub
ĠIn it
ĠN SA
Ġun less
Ġco operation
ĠL yn
Ġsub mit
esp erson
16 0
IN T
Ġsee king
py y
Ġpost ing
Ġpur ported
Ġpr ice
Ġfact or
IP S
Ġ* .
Ġpa ir
Ġdeliver ing
ĠDe ep
Ġdep art
Ġmatch ing
Ġtrack s
Ġleak s
Ġequ iv
Ġoverl aps
Ġcover ed
Ġmodel s
ĠDet ection
def ault
ĠCampaign s
ĠMal ays
Ġmanip ulate
Ġchalleng es
Ġmed ical
Ġdigit ally
exp ected
Ġdoz ens
ĠUnic ode
plos ive
ATIN UM
0 24
> .
E D
L I
P er
i ver
i ated
Ù Ĭ
Ġ ^
Ġt ech
Ġt error
at ibility
Ġw all
ĠT IN
ĠS py
ĠS FX
Ġn s
ct r
Ġl ic
ĠP erson
ĠF our
Ġst rength
Ġun lock
ĠG UI
ib ly
ĠJ PEG
ĠK y
Ġ7 7
Ġy ield
Ġcyber attacks
ĠSP E
11 3
Ġsim ultane
ĠApp liances
16 7
Ġorigin ating
AP I
ĠCont roller
Ġlook ed
app ed
uc ky
inf inite
ĠBe h
ĠDe velop
Ġdep artment
Ġutil izing
Ġart icles
ĠEng land
Ġver ification
DA V
Ġoverw rit
fact or
Ġconcer ning
Ġcomplex ity
Ð½ Ñ
Ġwr ong
ĠPart y
Ġrecover y
Ġspok esperson
Ġaffili ated
Ġrepos itory
ĠAtlant a
Ġsuffer ed
Ġmas quer
Ġsomew hat
Ġobserv ations
Ġaccom pl
ypoth es
( (
C SS
S ymantec
d ir
e a
u ing
Ð ¼
æ ľ
Ġc ru
Ġb ait
Ġd ating
Ġd ynam
ĠS ur
ĠC ritical
Ġn avig
ĠA ustral
Ġser ving
ĠE mb
ĠB r
Ġun related
ĠG R
Ġem ploys
ĠV alid
Ġcyber attack
Ġpass ive
Ġhack tiv
ix el
Ġpath name
On line
ĠControl s
Ġutil izes
Ġrespond ing
Ġsum mer
Add ress
ĠWork stations
met ry
Ġlet ters
Ġneg ot
Ġbenef it
Ġmapp ed
Ġprec ise
Ġeval u
ĠIX ESHE
B ase
H ack
H and
N ext
P G
P ATH
W AS
a el
c il
f ers
i ang
p o
t um
z h
re sh
Ġb att
Ġm ultip
Ġh av
ly mp
ĠA jax
ĠM at
ĠM IT
Ġg rid
ĠP hot
ĠP ART
ĠP NG
ĠR out
el low
ĠH and
Ġun expected
Ġsu ite
ĠL aw
em ail
Ġapp endix
ĠJ ournal
Ġca ught
ian ce
Ġprocess ed
In s
Ġro ll
Ġsec rets
Ġdropp ing
Ġoffic es
ĠAdd itional
Ġmaintain ing
ĠCar ac
Ġhapp ens
ĠPal est
Ġcover age
~~ ~~
Ġpred ict
Ġinsp ection
Ġcoup le
Ġil leg
ĠAssoc iation
akh stan
Ġwhitel ist
tum bot
2 10
C opy
L D
L ock
P M
S YSTEM
o T
o ft
Ġf ight
ĠC ond
ĠC IA
ĠC leaver
Ġpro prietary
ĠP hishing
ĠF ollowing
Ġun pack
Ġch oose
ak ers
ĠV ol
Ġso und
Ġind ict
log ger
Ġrec ru
Ġpub lish
Ġph ases
Ġsee k
Ġtrans lation
ON TI
Ġfocus ing
RE F
ĠIs lam
ĠTur k
Ġassess ment
ĠBut terfly
ĠVB S
Ġhighlight s
Ġinform ed
Ġillustr ates
ĠRE G
ĠScan Box
ĠKit ten
Ġexperi enced
Ġdynam ically
A ML
L nk
O SS
b ody
i h
j peg
r s
t ics
in v
in al
Ġc ult
Ġb id
an mar
ĠT elecom
ĠS ak
ĠC V
ĠC AB
Ġn ic
ur i
Ġcon ï¬ģ
ĠI M
im ent
st ream
Ġan om
ol ute
Ġg round
Ġpro duc
ĠP ress
Ġcomp are
est ed
ĠO pt
ĠH uman
ĠB ang
Ġun ivers
Ġun patched
ĠG OT
Ġsp ons
Ġacc omp
Ġch ance
ĠV ari
ĠK han
ĠCh opper
ĠUn like
Ġpat ient
Ġsupp lied
ĠCon nection
Ġred ict
Ġdemonstr ate
Ġter rit
Ġprior ity
Ġop in
Ġequ al
ĠNot es
ĠCl ass
UR L
met ric
Ġprox imate
Ġcr ack
Ġinser ted
Ġweapon ized
upload er
Ġacquire d
spec ific
ĠManso or
ONTI UM
D irect
O ffice
S D
Y ou
d om
f og
g a
u el
Ġa fore
er ver
Ġc le
ar an
le y
ĠS N
ĠS w
ut y
if er
ĠM echan
ĠD erusbi
ĠE T
ĠO ff
ĠIn ternal
iz on
Ġob sc
pl ug
Ġexecut ive
Ġper f
Ġactiv ated
Ġkey word
Ġund etected
other board
Ġaut o
Ġmaintain ed
Ġhijack ed
Al so
ĠOut side
Ġspy ing
Ġinstitut ion
ĠCre w
XX XX
Ġplan ning
Ġalloc ated
Ġconstruct ion
ĠPr int
Ġprep are
ĠFl ame
Ġoutl ined
BT Z
ades h
ĠKn ow
Ġwip ing
ĠDoc s
ĠHave x
Ġanalys ed
ĠPhilipp ines
Ġdoll ars
C rew
D ownload
F D
P ack
_ _
d et
d ri
g est
i os
l ad
m peg
â Ĥ¬
Ġ å
in ux
Ġm or
Ġm iddle
as us
ĠT G
ĠT oday
20 05
ct ions
ĠM ich
Ġl andscape
ĠD ell
ĠO lymp
ĠG O
ex tracting
Ġ7 6
ans alt
lud es
Ġrel ative
ĠUn re
ĠEx plosive
ĠSt yle
ĠSt reet
Ġrec urs
uthentic ated
Ġwork station
Ġobtain ing
Ġhand s
Ġne ither
ĠFor um
Ġexp ose
Ġanaly st
pro xy
Ġmin imal
Ġlaunch es
Ġconv ent
Ġobfusc ate
Ġgu ess
Ġutil ities
Ġprotect ing
Ġstud ents
Ġelect ric
Ġemer ged
Ġconcl usion
ï¿½ï¿½ï¿½ï¿½ï¿½ï¿½ï¿½ï¿½ï¿½ï¿½ï¿½ï¿½ï¿½ï¿½ï¿½ï¿½ ï¿½ï¿½ï¿½ï¿½ï¿½ï¿½ï¿½ï¿½ï¿½ï¿½ï¿½ï¿½ï¿½ï¿½ï¿½ï¿½
Ġinvest ment
Ġaler ts
ĠBel g
Ġseg ment
Ġcoordin ated
Ġmax imum
Ġsatell ite
Ġque ue
ĠDemocr atic
ĠKaz akhstan
Ġbeg un
D espite
F TP
M in
N etwork
S ign
T LS
d isk
y a
Ġc pyy
en ue
Ġm imic
ac c
Ġh otels
ĠC reat
ĠD ll
ĠD IS
ĠE mer
ĠN orm
Ġwas n
eb p
eb el
ond on
Ġpass es
Ġme et
Ġstate ments
Ġla pt
ĠThreat Connect
Ġcopy ing
PS T
Ġshort ened
ĠConf igure
Ġver ified
Ġalgorith ms
ĠArab ic
ĠEston ian
Ġevol ve
UT TER
ĠCy lance
ĠRel ated
Ġpurch ase
Ġcamer a
owers hell
Lib rary
Ġflex ible
Ġgeop olitical
( "
0 19
B IN
N o
S everal
b f
e ff
g han
k i
Ġd ir
Ġm enu
Ġe ax
ĠC are
ĠC asc
ĠA L
ĠI ce
Ġan onym
ĠM or
ĠM BR
Ġex chang
ĠH am
ĠH omeland
ĠIn t
ĠB ro
Ġun its
ĠG N
âĢĿ :
ĠL ength
art ers
ĠâĢľ %
Ġch apter
ĠK er
ĠK re
com ing
Ġx x
Ġke pt
Ġback end
op en
onent s
32 2
Ġinstall ers
Ġwork around
ĠInte lligent
St uxnet
aj ax
Pro t
ĠTr ust
de v
ĠOne Drive
Ġmark er
go vernment
ĠInter face
ĠStr ategic
Ġadvert ising
Ġkeep ing
ĠKey Boy
Ġremov ing
ĠDis c
ĠSi ebel
ĠOce ansalt
Ġinterf aces
" >
/ ,
D omain
E d
H C
L ink
L AN
O pen
P art
T F
h h
r andom
t w
t ech
w indows
Â ®
Â »
Ġs ust
ac ons
ĠT ext
ĠS end
ĠC at
ĠC ity
ĠA R
ur g
ur ance
ad ed
ĠR ich
ĠR SS
up d
ĠG IF
ors hip
iv ing
ass ies
pl ugin
Ġpl ayer
ĠCom f
ential s
Ġsign s
Ġtools ets
Ġqu arter
Th reat
Ġtrans l
Ġrep ly
Ġhard er
ĠRes ource
Ġtest s
Ġdelet ing
Ġdep ict
ĠStr ing
Ġconcer n
Ġexplain s
vious ly
ĠDro pped
Ġdestruct ion
ĠPass word
Ġoutl ets
Bu ffer
Inter estingly
Ġpars es
Rem ote
ĠSupp ly
ĠConver ter
Ġafore mentioned
A dobe
C OM
E F
G ener
I ME
O K
R ed
a q
l adesh
Ġa f
al one
Ġd ivers
Ġd aily
Ġre ser
Ġe b
ĠS qu
ĠS chool
ĠI O
ad o
if ier
Ġpro duce
ch ron
ir th
ĠR oot
ĠâĢ ¦
est ing
ĠO F
ĠO LE
ĠN av
ber g
ex us
ĠV ine
Ġso ught
Ġ8 1
gan ography
Ġman ual
ccess ful
Ġcl r
ĠCyber Berkut
Ġfact s
Ġoffic er
Ġgu aran
Ġprevent ing
EN T
ĠSun shop
ĠSim ple
Ġmitig ates
Ġasp ect
ĠSW F
ĠFeder al
Ġannoun ce
Ġrefl ect
Ġexpress ion
Ġpenetr ation
Ġtrend s
Ġprotest s
ĠScar let
Research ers
raz il
ĠGit Hub
Ġdoub t
Ġequiv alent
ĠTIN YP
C enter
E lement
G P
I SA
V C
c ons
f ound
g l
g ot
r ites
w rit
Ġa id
Ġre put
Ġe p
20 00
ĠI IS
ĠM ed
ĠD al
ĠD ig
ĠF amily
el ph
ĠE U
ĠH unt
Ġr ated
ĠL ondon
Ġsp awn
co ut
Ġover la
ĠUn fortunately
Ġdes ired
ever theless
Ġadmin ister
Ġindic ations
Ġexp licit
Ġbro ught
Ġz ip
Ġtrans mit
Ġtrans action
Ġdecrypt ing
ĠInd icators
Ġrele ases
ĠÂ «
Ġhelp ed
Ex ec
ĠConf lict
HO PST
ĠSaf e
Ġmiss ile
Ġcrypt o
Ġoffer ing
OW S
Ġmeas ure
Ġcorrect ly
He ader
Inf ormation
Ġmanufact uring
Ġcarry ing
Ġsubs ection
Ġswitch es
Ġimproper ly
ĠInvestig ations
ĠFF mpeg
call ed
Ġmist akes
Ġrapid ly
ĠSM TP
Ġwa its
ĠBang ladesh
HOPST ICK
A ccess
E E
S ub
T ext
d en
d ing
h ol
p ing
s ky
v m
Ġ ic
Ġthe ory
es ter
Ġm ag
ĠT E
ĠS ch
ĠS and
ot ed
ĠD H
ĠD av
ch ain
Ġ. .......
ĠE vent
Ġst ole
ĠN ow
ĠL ight
ĠL iber
Ġsp an
um es
iz er
Ġle ave
ĠV olexity
Ġpre tty
Ġx or
Ġpar alle
Ġpart ner
Ġdec re
Ġag ents
Ġlog ical
Ġrec ording
Ġcons idering
AR Y
Ġredirect ion
ĠPL ATINUM
Ġwant ed
PU TED
link ed
hem ical
Ġalloc ation
Run ning
Ġlay ers
ĠChr W
Ġassum ed
Ġspot ted
ĠWho is
Ġsurround ing
ĠLyn x
C lient
F usion
G roup
O ct
P res
R AN
T wo
a uss
i pped
v let
on ed
Ġc bc
Ġw ider
Ġf ault
ro uch
Ġm ere
ĠS ection
ĠS ym
ĠS YSTEM
ri p
ĠP ath
ĠR at
ĠF ull
ĠB BC
Ġde pth
Ġun install
ĠL at
ĠL ua
ph ones
Ġab used
Ġind irect
Ġstr a
Ġreg isters
10 3
ĠWeb DAV
ĠOn ly
Ġprivileg ed
Ġsimilar ly
ĠComm unity
AN CY
ĠCon tain
ĠY ARA
ĠInd ustry
Ġconc lude
ĠAll iance
Ġscan ned
Ġfraud sters
Ġmotiv ation
Ġuns igned
Ġspe ed
ĠSub ject
Ġtele metry
Ġfund s
Ġneg ative
hel p
Ġra ise
ĠCR M
Ġpush ed
Se oul
Ġisol ated
Ġspreads heet
Ġopportun istic
ĠYet i
ĠWater bug
Ġestim ated
Ġexplan ation
Ġsniff ing
Ġpromin ent
ĠSTR ONTIUM
Ġrough ly
rouch ing
E ven
U sing
c odec
g mail
h igh
p ng
t itle
Ñ ı
Ġt ables
or ial
Ġf oot
Ġd oc
Ġe e
ĠS ite
ĠS olution
ur y
ri an
ĠI C
Ġg ave
up s
ĠN ations
ĠN ether
ĠâĢľ .
ĠJ ul
ip h
Ġ7 8
Ġdirect ion
Ġident ities
11 6
duct ion
ĠAn onymous
ĠApp liance
In stall
Ġro und
Th en
ĠInte gr
Ġeng agement
Ġ& &
Ġreal ity
Ġconc entr
Ġdisclos ures
ERT OSS
ĠNet flix
ĠVis io
eder al
Ġpress ure
Ġdr agon
Read y
Ġaltern ative
Ġcomplet ed
Ġinn ov
ĠShe ets
Mod ule
Ġacknow led
ĠCasc ading
1 64
2 64
D L
G B
L NK
N e
O PS
P ar
S a
W ARE
c ase
i pping
j o
s on
Ġc ut
Ġc ash
at us
Ġb ulletin
us ers
Ġm ask
Ġre use
ĠC apt
ĠC GI
20 07
Ġus ual
Ġ( "
ĠM imikatz
Ġg iant
Ġpro gress
ĠP R
ĠD ue
ĠF ive
ĠE tumbot
ĠO ffic
ĠB razil
ĠN or
ĠG lass
ra p
Ġ8 7
ap ers
ĠEx ecute
ĠCom ment
Ġlist ening
ced ented
Ġprev ents
Ġread er
ileg e
Ġqu ality
Ġpack er
ob fusc
Ġme eting
ĠPl ugin
NS OON
Ġdeli ber
az on
Ġocc as
ĠAS E
ĠNe uron
vis or
Ġfac ing
Ġuna uthenticated
ĠDri ve
aid oor
Ġcr isis
Ġdisgu ise
ĠEnc ryption
sk ys
Ġwhite paper
ĠPriv ate
Ġmonit ors
ĠCoun cil
ĠProf essional
ĠChar acter
Ġappl ies
Ġconsequ ences
QU ATION
ĠEqu ation
ĠBan king
ĠMO NSOON
" )
# #
3 07
B lack
P P
S N
X Y
b le
c re
l t
s witch
w d
Â ©
re p
Ġc ro
Ġs olid
it ation
Ġw itness
il t
Ġm er
an ish
ĠT ROJ
ĠS pr
ĠS AN
ĠS IM
am ous
Ġbe acons
ĠR ational
ĠE QUATION
Ġinf inite
Ġad j
ĠH ome
ĠN SO
Ġcomm un
ht m
ĠK or
Ġtr ace
Ġ8 5
ĠTh read
Ġrel ating
Ġag e
ĠWeb site
Ġbro ken
Ġins ecure
Ġi ex
Ġload ers
Ġeff ects
Ġdist ingu
miss ions
Ġ18 5
Ġauthor ity
Ġpres idential
ĠReg ister
Ġcapt ures
irc raft
pre cedented
ĠLe g
IG N
AM M
ĠHack er
ĠDel ete
ĠIR S
Ñģ ÑĤ
Ġchalleng e
Ġrang ing
Ġcontinu ing
Ġconcl us
ster isk
Ġbehavi ors
Ġstealth y
ĠLD AP
ĠOP ER
Ġessential ly
Ġmalvert ising
Ġsubdomain s
Ġclo ser
Ġdepart ments
Ġanom al
ĠDIS PUTED
ĠEmer gency
skys ec
2 13
C lass
D AC
D OC
E nc
S u
d ated
d iss
j ection
t z
t ps
y ear
â ĪĴ
Ġ rol
Ġt al
Ġa a
Ġc lipboard
at en
is ition
Ġb irth
Ġf ast
Ġh ear
ĠS el
ĠC oo
âĢ ¯
ri f
ad ec
ĠM agic
Ġas ym
Ġ. ..
ious ly
Ġch art
Ġpre ced
ĠAn g
Ġj anuary
18 5
25 45
Ġgovernment al
Ġcap ital
Ġi o
ook ie
pro f
app ro
Ġview ed
Ġpresent ation
ective ly
ĠUs es
Ġsel ection
ograph ical
Ġtop ic
Ġnote worthy
Ġï¬ģ les
Ġimmedi ate
Ġtrojan ized
Ġbl ue
Ġspe aking
Ġeconom y
Ġforward ed
ĠFr ont
ĠKn own
Sim ilar
Ġmanufactur ers
ĠEmb assy
Ġconï¬ģ g
ĠDal ai
F P
S olution
U RF
b iz
j une
m en
p ic
v ia
in it
es ides
or ough
Ġb und
Ġw p
Ġw ipe
Ġd um
Ġd ark
ro ut
Ġm ouse
as ar
Ġh t
Ġcon ce
st one
ain t
ĠM SS
ag s
00 7
âĢĿ ).
Ġ3 00
li hood
ĠJ R
ĠK ar
ĠTh ree
Ġrel ation
ĠX agent
gr ade
ĠSP L
12 71
Ġconfig ure
Ġvari ations
ĠApp lications
28 9
Ġcl ues
ĠSh ort
ee k
Ġinvestig ators
ĠAl pha
Ġeas tern
fil ter
ĠComp il
strict ed
AS T
epend ing
ĠSc ot
ĠConf idential
Ġopp osed
Ġconsum er
96 3
Ġï¬ģ rst
ĠMy anmar
ĠRec e
alt on
Ġprof it
Ġconcer ned
Ġmotiv ations
Ġfac ility
Ġcorpor ations
ĠSed uploader
En g
osp it
Ġhold s
Ġbig gest
Ġ55 00
Ġdescrib ing
Ġskill ed
Ġloss es
Ġge ographic
Ø§ ÙĦ
ĠKill Disk
ĠMach ine
ĠDAT A
Ġarrest ed
Ġsuspic ion
ĠNether lands
ĠOPER ATION
0 64
2 24
A tt
I B
T ech
T rend
j ava
l anguage
m star
p ub
w as
w ell
x c
Ġt ree
in ch
re ll
ic o
Ġre qu
te l
ul ates
Ġn t
Ġn atur
ĠD om
ĠF ax
ĠE le
ĠB er
ĠB ulletin
Ġen em
sp an
ĠL ama
all in
Ġsp ring
Ġexploit able
av ailable
Ġpl aus
Ġinter v
Ġinter view
Ġ9 1
Ġdef e
ings layer
Ġprev ention
Ġla ws
Ġengine ered
Ġpop ulation
mer ce
ĠPol ice
Ġinteract ive
Ġcorrespond s
ĠDes cription
Ġreason able
Ġkind s
Ġtit led
Ġprompt ed
ĠEd ge
def ined
ĠDocument s
Ġben ign
Ġcomb at
De vice
ĠEngine ering
Ġpropag anda
Ġaccur acy
Ġagree ment
Ġwait ing
Ġremed iation
ĠNGO s
Ġbatt le
Ġhav en
ĠCarac al
ĠGOT ROJ
ĠMechan ics
Oct ober
Ġstra ight
URF ACE
; &
A X
I Z
L T
L OC
T im
b rid
c ache
m gr
n etwork
s ign
s ize
on line
re ach
Ġf it
Ġd ra
ar ious
Ġre lying
Ġh ypothes
ĠC ap
ut ers
ĠA sterisk
Ġor d
ir m
ĠO il
Ġnot ify
ĠB lossom
Ġun initialized
ĠG am
ĠL im
Ġim ag
Ġpo se
ict ion
Ġconf ident
ĠSt one
Ġ200 1
yp ically
Ġlike lihood
Ġdef ensive
Ġdel ay
Ġsever ity
Ġeng ines
con nected
ĠSp ear
ĠSp anish
Ġextract ing
pri v
ĠSea Duke
ĠDark Seoul
Ġenco ur
Ġremov al
Un fortunately
Ġcare ful
Ġcompet ition
Russ ia
Ġgr ab
cyber kov
ĠPers istent
Ġaccur ate
Ġinterpre t
Ġrad ar
Ġsink hole
Ġcaut ion
Ġpse udo
ĠIntr usion
nb sp
Ġacadem ic
Ġmor ning
ĠIce fog
Ġworkaround s
0 13
0 16
2 29
P OS
S m
S am
b el
c am
k ens
s igned
u ous
v bs
Ġa ircraft
re f
Ġc ul
Ġb od
ro pper
ĠT ro
un ak
im alware
id ers
ĠP UTTER
th at
ĠB AE
Ġun int
Ġr sa
Ġconf lic
tain ing
Ġar m
Ġdec odes
Ġ9 6
12 2
Ġaff airs
Ġpub lishing
Ġsub stantial
Ġro b
17 3
25 4
Ġsimilar ity
ĠCont act
Ġ_ _
Ġrequire ment
Ġblog s
HO ME
Ġrespond s
Ġperiod ically
Al loc
Ġimpro ved
Ðµ ÑĢ
ĠDis able
Ġflag s
Tr aveler
Ġboot kit
Ġheav y
ĠEv il
ĠPakistan i
ĠInvestig ation
Ġmapp ing
Ġemb assies
ĠChr ist
ĠCal if
Ġfri ends
ĠAf ghan
Ġcontr ast
APP DATA
Ġopin ion
ĠDH CP
adec imal
. -
E v
E vent
M IN
R AR
V is
W A
p alo
x FF
â Ķ
er a
Ġc oding
it ors
Ġw estern
Ġf ash
om en
ĠC HOPSTICK
ĠA D
ad uke
ĠM ot
ĠM em
ĠM otherboard
ĠD ow
ĠR ad
ĠF ANCY
and i
ĠE very
qu arters
Ġun f
ber os
ĠG round
ant ly
Ġch ose
to ols
Ġpl acing
Ġdec ade
ond er
ĠWeb Ready
Ġgener ating
Ġexp ects
24 9
ĠCon text
Ġorigin ated
Ġsteal er
Âł Ċ
ĠDec oy
Ġinfect s
Ġoffic ers
Ch eck
Ġnorm s
Ġlack s
Ġcrypt ographic
View er
mod ules
Ġmanip ulation
Ġrecogn ize
Ġspok es
research center
ĠTR ISIS
ĠForce point
ĠXt reme
Ukrain e
Ġaggress ive
Spec ial
Lock er
Pack et
ĠKer beros
ĠComf oo
AMM ERTOSS
âĢ¯ âĢ¯
alton etworks
ospit als
palo altonetworks
* .
> \
B l
B ecause
K e
P re
R ep
S R
e per
j ar
m and
m icrosoft
p i
p ol
t ask
z ero
on ly
Ġc am
Ġc urrency
it z
Ġp in
Ġto kens
Ġm en
an alysis
te aler
Ġn ine
Ġn ull
am per
ab y
ig r
ĠM a
Ġpro ve
ĠW all
ĠF LE
ĠU I
Ġst aging
ĠG auss
iz ard
ex ec
Ġapp lic
oo ks
Ġpart ial
Ġpart ially
Ġdec oder
ĠSer ies
10 4
10 12
12 1
cover y
Ġimpact s
Ġsee ing
Ġfunctional ities
ĠZ e
Ġperson as
Ġengine er
Ġconc luded
ĠOpen View
Ġdeploy ing
ĠBe acon
Ġbuild s
Ġweek end
ĠAc cept
ĠPol and
Ġidentif iers
Ġbehavior al
Ġexam ining
Ġsn i
Ġrecomm ended
ĠPer l
Ġsurve y
ĠPar liament
Ġsym bol
ĠCo at
Ġshut down
ĠSO URFACE
Ġcircum stantial
Ġconstant ly
ĠHK CU
ĠAir bus
Ġhxx ps
Ġhoo king
ĠKing dom
Techn ical
ĠMalays ia
Ġsimultane ously
ĠDav id
diss ectors
ĠFLE X
2 20
D el
E rror
N AL
S pace
U D
b is
d i
d n
h med
i pt
p n
r and
r ange
Ñ ĸ
Ġc ast
Ġs y
nd elph
Ġf a
Ġto ward
Ġm ir
ac ity
ĠT HE
ĠC a
im o
ĠP M
ĠP les
ĠW ild
ĠD ay
ĠF re
ĠF ind
qu otes
ĠB o
sp e
ĠâĢľ /
Ġpo ol
Ġdis app
ĠK ingslayer
eb ug
Ġexecut ives
log on
our ces
Ġhe art
In v
18 8
13 64
Ġindic ative
Ġpack aged
Ġadv ised
04 506
Ġdisc lose
ĠZ ox
ĠAr med
Ġshell s
ocus ed
Ġconc aten
Ġreveal ing
Ġrepresent ation
Ġshort ly
Ġpos ed
Ġalong side
Ġperiod s
eck o
pre ter
ĠEl ise
Ġdetermin ing
conf igure
Ġemer ging
ĠMet hod
cf g
** **
Ġendpoint s
ĠPass ive
Ġexclus ive
Attack ers
Ġupgr ade
Ġrepeated ly
ĠGuard ian
Loc al
Ġextort ion
ĠMong o
ĠOpenSS L
ĠPerform ance
Ġfrag ment
ĠCertific ate
ĠCold Fusion
HN OON
Ġnic kn
Ġparalle l
DAC TED
Ġio ctl
Ġbod ies
Ġfash ion
ĠPles k
8 00
C reate
V er
b ut
c ert
d y
d ns
g pc
l p
m n
p k
Ø ±
al d
Ġw ish
Ġf ear
Ġf ederal
il der
ĠS K
ĠS ession
st itute
if est
ĠM er
ĠM ult
ag any
ĠF ancy
ĠO PC
Ġst oring
ĠG ecko
cri minals
Ġinc ons
load ing
ĠK B
ĠTh ough
Ġwill ing
Ġper ce
ĠRe vision
ĠCom put
Ġtechn ically
TE AM
ĠWh ere
Ġdetail ing
Ġlink ing
ribut ed
ĠFor ces
ick ing
OR T
Ġ'' ,
Ġsee ks
urn s
000 1
ĠAr ray
Ġrele asing
Ġfind s
by tes
ath ers
ober t
Ġmatch ed
ĠProt ector
doc x
Ġenco urage
Ġ\ \
Log in
Ġâ Ķ
Ġorganis ation
Ġemer gency
reg ister
Ġtermin ate
DD oS
ĠPay load
Ġaud it
ĠVictim s
Fil es
enk o
Ġdece ption
WIND OWS
Ins tead
ĠASE AN
0 15
G R
G e
M c
d s
h ash
k r
k orm
w art
er ia
re l
Ġc ached
at o
at ar
Ġs yn
or p
Ġin box
Ġw aves
ic a
Ġh iding
ĠT IFF
ĠS und
ĠS OCK
ĠC mstar
ĠI V
Ġex plor
ĠP u
ĠP OS
ĠP hish
ir ates
th reat
ĠE ther
ĠL ine
um n
Ġacc ident
ht tps
Ġ6 2
Ġtr aced
Ġlog o
Ġhack s
AN E
idd ing
Ġunder lying
Ġvis ual
los ure
att ers
Re quest
Ġredirect s
Ġdep ends
ĠLoc ky
Ġscenari os
Ġfree ly
ĠPeople Tools
Ġbr and
Ġmov ing
Ġdeb ugging
EX EC
ĠPri me
Ġdemand ing
Tr ans
Ġestablish es
ĠDet ails
Ġthink ing
orn ia
Ġconstruct ed
Ġcol or
Ġiniti ate
Ġillustr ated
ĠWire less
ĠMore over
Ġhex adecimal
ĠTom cat
Ġimpress ion
Lo ad
Ġintrud ers
ĠTurk ish
ĠGN U
Sa uron
korm ka
2 14
A b
C V
C ri
F ollowing
H ttp
R OS
T ur
X T
c n
d ocument
d ays
s end
y ahoo
er preter
re sp
Ġs tem
is ers
Ġb omb
al og
Ġp ull
Ġv ital
ĠT ran
Ġn ove
un asar
ot b
Ġwh om
Ġg lob
Ġpro fil
ĠW P
ĠW ill
ĠF ont
ĠF uture
Ġcomp osed
ĠâĢ ¢
ĠâĢ ŀ
ĠE M
ist or
ĠH y
ĠH is
ĠN S
Ġhas n
load er
Ġfil ters
Ġpre fix
Ġup coming
ans ion
ens orship
ard s
av codec
ap e
10 5
Ġtime frame
11 9
Ġhost names
ffic i
Ġprev alent
27 7
27 10
ĠComm er
Ġwhere as
Ġorigin ate
app ing
Ġintegr ated
los ed
az ine
Ġconv en
MP A
ĠTechn ical
Ġrepresent ed
Ġtrigger ing
ĠĠĠĠĠĠĠĠ ĠĠ
Ġconsider able
US E
Up on
Ġreach ing
Ġmitig ation
ĠPar sing
Ġdiss idents
Ġjournal ist
Ġdi agram
Ġdeal ing
Ġbroad cast
Ġfigure s
Ġcalc ulated
Ġelse where
Ġrecogn ized
ĠST TEAM
Ġmed ium
Ġexerc ise
ĠAutom ation
ĠSci ence
Ġfacilit ate
omet imes
ĠSilver light
ĠOlymp ic
Ġdivers e
Ġrequ iring
ĠMongo DB
% .
3 04
K B
K aspersky
M al
N M
Y TE
b o
Ġt ack
Ġa part
Ġa head
er ate
Ġb ud
il es
Ġm arks
an while
as er
ĠT al
ĠS G
ĠS witch
ĠS uper
ur al
Ġg one
ĠP s
ĠD OC
Ġinf amous
ĠH R
ĠIn ject
Ġnot or
Ġso ft
to ol
ser ve
Ġimp lications
Ġev asion
ĠSt aff
ĠRe fer
Ġrec v
ĠAPT s
ĠPro of
Ġinject ing
Ġform ation
ĠPl us
Ġtrans fers
08 0
ĠNO T
Ġprob able
RE DACTED
Ġlaunch er
Ġevery one
AS H
man ager
ĠMin ister
ert ical
Ġrepresent ative
Ġchecks um
Ġsepar ated
Ġpos itive
Ġobser vation
ĠSpec ifically
ĠDro pper
ĠCrypt o
ĠExploit ation
Ġforward ing
ĠAdministr ator
Ġcol le
Ġiniti ated
ĠHK LM
ĠDragon fly
Ġrare ly
Ġsan ctions
DO OR
Further more
FT WARE
ĠSak ula
ĠMich ael
% )
* (
4 127
A uth
D o
H H
I CS
M ozilla
R ansomware
S ys
S TR
U B
W ise
b ing
c ir
d uke
g ence
h old
k its
m t
r al
w ater
x A
Ñ Į
Ġt anks
Ġt orrent
re so
re quest
Ġo dd
Ġs rc
is hing
al ed
Ġf etch
Ġd im
Ġm d
et ooth
ĠS L
ĠS atter
ĠC D
ĠA lex
ĠA BC
ĠM ex
ĠM aster
Ġl and
ag ger
Ġ. .
ke ys
ĠH ar
ĠH ur
ail ed
ĠB P
Ġde ad
ĠL Z
ĠL ock
ĠL anguage
ill ary
Ġapp let
ident ified
Ġtr icks
ĠTh ose
ĠUn known
Ġpl us
Ġpl ant
ĠEx per
Ġper man
10 6
Ġprocess or
der wood
Ġencrypt ing
Ġro om
ĠPro prietary
ĠJava FX
Ġadv ance
ĠY ara
Ġpoint ers
Ġtrans lated
Ġfin anc
ĠThreat s
work s
usp ecting
for ward
Ġgu idance
ME NT
55 2
Ġsal e
Ġfour th
comm and
Ġref und
Al t
ĠPol ish
ĠEl derwood
Ġmov es
ĠTaiwan ese
ĠLog in
Ġformer ly
Ġdiss ect
Be low
Ġfilter ing
BS D
Ber ry
Ġspeak ers
Ġreplace ment
Ġleaders hip
agn ost
ĠCred ential
inte lligence
ĠStud ies
Ġindict ment
ĠET SO
Ġmere ly
Ġcommun ities
ĠSPL IT
Ġplaus ible
ĠDow ndelph
mand y
4 19
F A
G en
L ength
M emory
P T
R PC
S HA
U E
X ML
b lock
g es
h ome
k b
p ayload
s d
s ecure
w id
z a
z illa
ï ¼
Ġ rig
Ġf ool
Ġre fus
Ġh ospitals
ĠS R
ĠC F
ĠC ong
ĠC RC
am ar
ri er
ĠM IC
ĠP et
ĠE ss
Ġad o
Ġst y
ĠH ard
ĠB S
ĠN one
ĠN DIS
arg e
Ġen h
ĠL eb
Ġse ason
ser t
Ġspec iï¬ģc
Ġfound er
read able
Ġthere by
17 6
ten ance
Ġins u
23 7
Ġass ault
ĠY es
Ġorigin s
Ġrep ro
uthor ization
St ack
Ġregister ing
Ġreal ized
Ġmin ing
ety a
59 7
ĠAnt hem
Ġauthentic ate
Ġturn s
ched ule
Ġbl ank
YS IS
ĠPh one
Ġtas king
ĠPar alle
ĠPack et
Ġprint ers
ĠEd itor
Ġenumer ation
Ġbitcoin s
Ġtele phone
omp lex
Ġpropag ation
ha ust
ĠUN IX
Ġharvest ing
Ġimperson ate
Ġaler ted
NE L
Ġwire less
Ġperpetr ators
ĠLa unch
ctr ine
Ġcru cial
ĠVari ant
Ġconvent ional
Ġoverla pping
Ġcro oks
Ġasym metric
ĠCalif ornia
MPA IGN
cir cl
2 16
3 13
5 14
A Y
C D
D erusbi
H ost
N ow
P DF
T YP
Z R
c odes
g reg
p ower
Ġt e
re co
Ġin her
Ġb eta
Ġp oll
ĠT aidoor
Ġe ye
un c
un ny
ĠA CL
ĠI oT
Ġex its
ol ve
Ġg athers
ĠW IN
ĠR obert
ĠO B
ist ence
ĠH ol
ĠH AMMERTOSS
ĠB oy
Ġun cover
ber p
Ġsp ies
Ġch un
Ġch oo
ord ination
Ġdis patch
min ate
Ġstr ain
Ġ8 2
Ġ10 24
Ġspec ulate
10 8
Ġenc ode
Ġwhen ever
ĠSo ft
ĠComm ands
Ġassoci ation
Ġvis its
Ġam b
Ġend ed
44 3
ĠRes er
Ġseem ed
Ġdelet ion
ĠSc reenshot
ĠES X
ĠAS LR
ĠDep uty
ĠQu arter
AL YSIS
Ġinstruct ed
PN G
Ġsubject Alt
TER NAL
Ġregard less
Ð¾Ð ²
Ġbackup s
ĠSec ret
ĠCA MPAIGN
Ġcontinu ously
ĠInstall er
Ġinfiltr ate
ĠAN ALYSIS
Ġdecl ined
ĠLoad Library
Ġpars ed
Pass word
Ġtw ice
Ġcamer as
Ġsupposed ly
hand ler
Ġpoor ly
urp ose
Ġadopt ed
ĠHIG HNOON
ĠGaz a
Ġnegot i
Ġobsc ure
Ġperf ect
ISA C
ĠDom ino
ĠSund ay
Ġnove l
ĠParalle ls
ĠsubjectAlt Name
3 15
6 09
C isco
E M
F L
G UI
R SA
S EC
U TC
g raph
k er
m x
t k
u ff
Ġth orough
Ġs sh
it rix
en or
is ation
Ġp as
ent ry
ĠS ing
ul ator
ĠC P
Ġn arr
20 4
ot ic
od o
ĠP wC
tr ans
ĠR oman
and id
ĠE nt
Ġnot ably
ĠB lu
ĠL ite
ĠL NK
own ed
act ics
Ġch rome
li ers
Ġdis p
Ġx t
to od
ĠUn ivers
Ġback ed
form er
Ġcomput ing
11 2
Ġrequest ing
Ġsub mission
Ġro t
18 1
18 2
28 7
Ġdem ocr
the med
Ġtrans ition
ON E
Ġkn ew
Ġappear ance
Ġengine ers
ĠComp ile
Ġcrit ic
ĠDr agos
ĠQu est
Ġopt ional
Ð½ Ð¸
AB LE
Ġplan ned
ĠSm all
ĠSSH DOOR
Ġconcl usions
ĠOrgan izations
Ġmist ake
Ġdoz en
ĠJS ON
ĠSophos Labs
Ġweakness es
ĠMir age
Target ed
ĠBrit ish
ï¬Ģ er
ĠBeh ind
ĠDevelop ment
Ġilleg al
Ġcle ver
Ġwitness ed
3 14
A m
D ue
G rab
S IG
S afe
Y N
\ "
b um
f x
g h
m emory
n P
n on
n jRAT
o ys
r ave
s rc
w ait
Ñ ĭ
Ġ Ĉ
Ġ ug
Ġ entic
Ġc od
it imate
is i
Ġb al
Ġd ent
Ġd ated
Ġd ivid
Ġm im
Ġm ilit
Ġm atters
om in
Ġv ertical
Ġre vers
ĠT AR
ĠS al
ad ow
ad itional
if e
ag ue
ĠP en
Ġas sembly
ĠD OM
ĠR AP
ĠR CS
ĠF at
Ġst ating
ĠH ell
ĠH MI
ĠB ook
ĠB ASE
Ġ201 9
Ġact ing
Ġweb mail
ex ploit
ph i
Ġuser mode
unt u
Ġ10 7
ĠSer ial
Ġident iï¬ģ
Ġactiv ist
Ġresp ect
Ġdel im
ĠEn umer
Ġqu ant
Ġdisc on
med ia
ĠInd ones
ĠZ h
ĠZ one
ĠAct iv
Ġaction able
ĠInf o
Ġappear ing
Ġest imate
ĠHe art
Ġformat s
Ġauthor ized
Ex ecute
88 8
EN IX
sc an
Ġop code
Ġstud ent
Ġwant s
ĠPri kormka
ĠIm port
Ġfr ames
ÑĢ Ð°
Ġuns u
ĠDel phi
ca ut
Ġtermin ates
Ġrend er
elling cat
Ġforens ics
iven ess
Ġge o
Ġgrow th
ĠKe ep
ĠAm ong
ĠSign ing
Ġexpos ing
ĠCustom ers
Ġconvers ations
Ġacqu isition
Ġhy per
Ġtain ted
target ed
FR AME
ĠCount y
bre ak
Ġdat as
ĠIslam ic
Ġtransl ates
Ġannounce ment
Ġnatur al
Ġdra wn
spe aking
ĠâĶ Ĥ
ĠLeb an
- >
5 17
C all
F E
F W
F l
G A
G L
H ow
S ite
Z Bot
b and
c ket
f acing
g ate
h ar
j ected
m ic
p hish
u id
it ude
ar row
ent y
ĠS atur
ĠA hmed
ĠI FRAME
Ġg ap
ĠD ust
ĠD HS
ĠF ield
ĠF unction
ĠE V
Ġinf os
ĠH ot
ĠH ospital
ĠN ight
Ġun encrypted
ff ers
ill ery
Ġdis trict
Ġdis information
ĠK u
Ġab and
Ġreg ain
Ġdec isions
ari o
ĠAn unak
Ġdef ines
Ġpass ing
Ġsub set
18 6
24 6
ĠPl an
OR E
Ġass et
Ġunder t
Ġconduct s
con cept
ID L
ĠPower ed
Ġcrit eria
Ġcontroll ing
An y
Ġec d
Ġens ures
Ġpos itions
ĠFil ename
Ġaccept s
Ġvol umes
Ġapproach es
bu ilt
ĠAnti Virus
ĠSecure Works
OW N
ĠSam ba
Ġalloc ate
mod ule
Ġaim s
ĠPre vention
ĠView ing
Ġcontract or
Ġcontinu ous
Dr ill
Ġcollabor ation
ĠDist ribution
Ġmanufactur er
Ġfri end
Qu ery
ĠMax imo
Ġdeface ments
stitut ion
Ġpret ending
Conf ig
ĠDen ial
ĠKy iv
ĠNorm an
Pres ence
Ġconï¬ģg uration
Ġdefe at
LOC AL
Ġconflic ts
Ġfinanc ially
' ,
3 05
C R
K n
L ike
P al
P ost
T iger
T TPs
d ump
d rop
f irst
i w
j p
k ill
s vchost
Ð ¿
Ġt elling
Ġc as
Ġs elling
en able
Ġb idding
ro wn
ac ific
Ġv irt
Ġv oice
ul k
ĠC ert
he ader
ri a
ĠI raq
id on
ain ts
ĠM ag
Ġl anding
Ġ1 27
Ġg oogle
ĠP otao
ĠP inch
ĠD V
Ġcomp licated
ĠE LF
ist ory
ĠB ar
ĠN um
Ġde eper
ĠG raph
oc ation
Ġr c
ĠL et
ĠV alue
Ġpre m
Ġpre caut
Ġinv oke
Ġinter medi
amet er
Ġsc ience
Ġif rame
In it
13 1
19 7
19 9
Th ose
Ġins ights
03 4
Ġsupport ers
pro c
ĠUS ENIX
Ġfeature d
ON G
inf ected
Ġprotect ions
ĠNet Traveler
Ġscan ner
ric ane
Ġspecial ized
ĠWith in
Ġdesign ated
UR R
Ġâ ĪĴ
ĠWork s
Ġtit les
Ġfall ing
ĠLo ading
Ġenumer ates
ĠEnc rypted
Ġchalleng ing
Ġsubs cri
ĠProject Sauron
ĠDE P
ĠAv ailable
EY E
Ġmaterial s
ĠSimilar ly
Ġconver ted
Ġalter ed
Ġdefin itive
Ġdisput ed
Ġdisput es
Ġhunt ing
Ġhacktiv ist
Hack ers
Ġaccomp any
ĠLiber ation
ĠSAN S
Ġrol es
rell a
Tim er
configure d
Ġinsu fficient
rave ling
' ll
B D
B AP
C AN
E xt
L inux
P o
S H
m or
t echn
u it
Ġt ens
Ġt amper
Ġa es
Ġc ited
Ġc atch
it aro
Ġw ra
Ġw rapper
us r
Ġm ar
ac count
Ġv ice
ĠT OR
ĠC rouching
id uke
ĠM R
Ġex c
ith ub
Ġg ate
Ġpro ved
ĠP y
ĠD id
ay out
ĠR OP
ĠE P
qu e
ft p
ĠB rief
ĠL ayer
ĠL ooking
ĠL ucky
art in
ĠJ P
ĠK omplex
ang er
Ġoper andi
Ġinv oked
Ġname ly
Ġro ute
Ġman aging
ĠOr mandy
18 4
Ġsens ors
IN E
23 5
23 6
ĠLin x
Ġtrans mission
Ġend s
St ream
pe er
35 2
Ġant imalware
ĠGroup Wise
par se
phistic ated
Re lease
Ex ample
ĠÐ ²
Ġfre ed
ĠEng agement
Ġtem p
Ġens uring
ĠCar berp
let on
Ġdetermin es
Add itional
ĠVB A
add ing
Ġcrime ware
chedul er
ĠTele Presence
Ġtran sp
ĠAm azon
xxxx xxxx
Ġwip ed
Back door
123 45
Ġsink hol
Ġappl ets
Ġflo od
Ġabs olute
ĠSum mary
del ete
Ġfav or
Ġdistingu ish
ĠSatur day
ĠPinch Duke
0 25
7 00
8 35
> &
D ark
M X
P e
T Y
T AR
T MP
b undle
c reate
e u
h o
i ability
l in
r ich
x S
x f
å ħ
in ian
en abled
Ġp ing
Ġd ram
ec raft
ĠT em
ĠS word
ĠS ector
ĠI ch
ĠI SC
st yle
id i
Ġ1 000
se ll
tr avel
ĠR us
ĠR ose
ĠR ocket
ĠB est
ĠB etween
ĠN E
Ġ3 60
Ġdo ctrine
unct ions
Ġmod ifies
ĠTh u
Ġ10 1
Ġden ied
int on
Ġpart ition
10 9
Ġtime ly
Ġhe ight
Ġtechn ological
12 9
ok es
15 2
ou ch
Ġ'' )
Ġcap acity
23 8
33 3
06 1
ĠInd ex
Ġbypass es
Ġsoc ially
Ġsearch ed
St age
On ly
Ġview ing
.... .
44 4
ĠComp atibility
Ġexist ed
IP T
Ġmonth ly
Ġresol ving
ĠÐ ¿
Ġtact ical
Ġsigned ness
oun g
ĠRec ording
erstand ing
Ġrepl acing
ĠRC E
ĠSed reco
Ġuns uspecting
Ġâ ĸ
ĠSecure list
ĠMet erpreter
Ġdi ï¬Ģer
Ġdang er
inite ly
Ġdisrupt ive
Ġjob s
Ġphot o
CU BE
ĠElect ronic
ĠEm irates
ĠPLC s
ĠSign ature
Ġfrequ ent
ĠVietnam ese
Ġsl ides
ESHE LL
Ġinn oc
ĠAf ric
ĠXt unnel
Ġexpand ed
Ġattr act
Ġnc ludes
ĠTrue Type
Hel p
IOC s
scal er
Ġlic ense
ĠAustral ia
Ġguaran tee
ĠStone Drill
Ġunint ended
Ġperce ived
ĠPu ppet
ĠQuarter master
ĠIch itaro
4 28
4 02
6 02
A SS
F ish
I mp
R et
T D
T CP
U til
W R
c loud
e qu
g ue
m ac
p at
r l
s ets
ä º
Ġ æ
in put
or ity
or ig
Ġb a
Ġw ake
Ġf aced
Ġp ure
Ġp df
Ġv s
ĠT ri
ĠC ON
Ġn jRAT
Ġg ateway
Ġpro c
Ġpro s
ĠW ik
Ġal ias
ĠD own
ch ological
ĠU AC
ĠO K
Ġun precedented
ĠL ater
ĠL ee
all a
Ġweb pages
Ġch ances
port ing
ph ony
Ġmod us
Ġconf usion
ĠX E
Ġinter val
ĠRe uters
11 8
ĠWeb Ex
Ġpers ons
13 6
Ġqu al
Ġste als
Ġexp ansion
AN G
Ġimplement ing
ĠAl tern
37 5
36 0
Ġhash ed
ĠDe v
EC T
IC ANE
Ġstand alone
ĠTeam Viewer
Ġdiff ers
ĠReg ard
ĠBack up
Ġpos es
Ġtask ed
Ġelect ions
Ġkeep s
Ġhapp ening
Ġtempor arily
Ġcal endar
Ġbeacon ing
AG E
Ġtermin ated
ĠClear sky
Ġconfirm ation
ĠFl amer
Ġdom in
Ġsold iers
Ġbenef its
Ġhistor ically
Ġfeed s
Ġharvest ed
Ġtransport ation
ĠTel net
Ġexerc ises
Ġprefer red
ĠEar liest
ĠJust ice
Ġhp My
ĠIss ues
Ġelev ated
Ġoverwrit ing
ĠKnow ledge
ĠDisc losure
Ġsust ained
Ġrob ust
ĠCong ress
former ly
URR ICANE
* )
B O
M R
M essage
P ower
P ool
P riv
S ample
b an
f al
m as
p an
r ont
w se
y ing
z ing
å ı
Ġt ri
Ġt ions
Ġt ensions
re source
Ġc b
Ġs izes
Ġb i
Ġb order
Ġf ell
ec ks
ar ation
Ġre nt
Ġre used
lo cal
ĠT av
Ġn ested
Ġ( (
st andard
ĠM ah
ĠM oose
Ġex haust
ol ic
Ġg enu
ĠP id
ĠW MI
tr ack
ĠR ather
ss l
ĠE th
Ġad apter
ort on
Ġ2 24
ĠG UID
Ġdis se
ach ing
Ġ4 00
Ġcould n
ĠX AML
Ġinter rupt
Ġrem ind
AT IC
ince a
17 9
Ġexp anding
Ġport ions
Ġadv oc
ĠLin ks
Ġpur su
Ġlocal e
Ġaut orun
Ġ15 0
Ġemploy ing
ĠQ Q
Ġmin istries
Pro xy
ĠTr ump
Ġconv ention
Ġsignific ance
Ġdistribut ing
Ex ploit
ĠÐ ¡
Ġrepresent ing
Ġimpl ied
ĠSy n
Ġconsist ing
Ġpos ing
ĠCor p
Ġmail s
Ġmail box
App endix
Ġms v
ĠCl uster
Ġvirus es
add r
add ress
map i
Ġescal ate
ĠStart up
ĠInst agram
fl are
Ġra ised
Ġpenetr ate
ĠPers ian
"" "
Ġlabel ed
Ġiter ation
Ġdepend ent
Ġshif ted
Ġpiv ot
Ġrobot s
Ġunders tood
Ġunivers ities
Direct ory
Ġreput ation
ĠRat ankba
ĠScot t
Bl ue
ĠZox PNG
Ġsty les
Ġnarr ative
ĠIndones ia
! âĢĿ
. \
3 45
A ss
E mail
M ap
M AC
P hishing
P OST
R as
S W
S uch
T eam
[ ]
h i
i ar
m end
q ah
r is
r ase
s ale
t able
y ang
| |
} .
Â Ń
Ã ¢
Ù ħ
Ġc andid
Ġs ecur
is er
Ġb c
Ġb ridge
Ġm igr
Ġh oles
Ġe fficient
ĠS en
ĠS pl
ĠS amples
ĠI l
ĠM artin
Ġex ceed
ol ved
ĠR ansomware
ĠU til
el ess
Ġst ands
ĠB ellingcat
ĠN ull
ĠG PS
Ġr ank
Ġco ordination
ud it
cri me
ord ed
uct ion
Ġpo ison
Ġdis as
Ġ8 4
ap ore
ĠHT ran
Ġany where
Ġinv ent
form s
Ġactiv ation
ĠRuss ians
ĠApp s
la w
Ġsign als
Ġj ud
24 3
ci i
ĠCon ference
ĠID S
ĠZ DI
ES V
Ġincre ment
Ġclear skysec
Ġmin imize
ĠTr ack
ĠSe aduke
Ġcorre lation
Ġclass ic
Ġsur face
ĠÐ ½
Ġimpl ies
Ġsal es
ĠRec on
ĠRec ent
ĠLoc ation
Ġdisplay ing
EN D
ĠMess aging
Ġmac OS
Ġbr ands
user name
ĠFree Type
bu ffer
SO FTWARE
Ġput ting
Ġalle g
Ġdw mapi
abor atory
Ġdig its
ĠSam Sam
Ġkeylog ging
Be fore
blog s
dec ode
ĠCorpor ate
Ġintercept ed
olid ay
Ġdecompress ed
Ġtro ops
Ġminor ity
util s
ĠLook out
---- ----
Ġschem es
ĠDrop box
ĠPalest inian
Ġcult ure
ĠUnre stricted
Ġacknowled ged
Ġht ml
Ġstraight forward
ĠGam ma
ĠFLEX CUBE
HH DL
ĠHur ricane
ĠMIC ROS
Ġdivid ed
ĠHell sing
Ġgenu ine
' .
5 27
C arb
E P
G lobal
G iven
M edia
O G
R oot
V alue
] :
] \
b urg
c y
f unction
g ent
h y
k ers
s ome
s lash
y an
Ġs id
Ġb o
Ġb us
Ġw er
Ġf if
Ġf ox
Ġp am
Ġv ig
Ġv aries
ĠT ech
ĠT actics
ĠC itrix
20 8
20 9
st anding
ĠM ove
ĠM ov
ĠM uch
Ġl ies
ag ues
Ġor g
Ġas ks
ate ver
ĠF act
Ġnot ifications
ĠB inary
ĠG E
ĠG ul
ĠL ic
Ġim m
ult s
ĠJ oint
ĠJ avascript
ress ion
ang o
ĠCh a
ument ation
ĠTh ird
Ġspec ifying
Ġper im
ĠRe f
Ġ9 8
Ġactiv ate
Ġres ides
Ġk b
Ġdef ine
Ġman ages
Ġcons ent
16 9
25 2
Ġbro wse
Ġext end
ie v
Th rough
03 86
Ġwebs hell
ĠY our
33 33
ĠCyber espionage
itor ies
ĠInf oS
ï¬ ĥ
It s
Ġsur v
for um
de velop
ron ics
ĠCSC ue
Ġfre sh
Ġcar ries
Ġretrie val
ĠIns ight
ba it
Ġsecure list
Ġexam ination
Ġpercent age
Ad vanced
En try
ĠPC s
Ġdump ed
Ġhold ing
Ġlear ning
Ġreview ing
Ġcalc ulate
sw f
ĠPr act
ĠHK EY
ĠĠĠĠĠĠĠĠĠĠĠĠĠĠĠĠ ĠĠ
ĠTrans fer
Ġult imate
ĠCreate Process
Ġobvious ly
Ġkeystro ke
ĠPriv ilege
Ġcent rif
Ġemb assy
BR ARY
research bundle
Ġaltern ate
enk ins
Act ive
ĠEgypt ian
ĠTiny ZBot
LI BRARY
Ġaccompl ish
ĠMIT M
Ġwhitelist ing
ĠSN MP
ĠRoot kit
ĠCapt ure
ĠEle vation
ĠAfghan istan
Mal icious
ĠMex ico
TYP E
Ġaccompany ing
( ),
0 14
2 28
6 67
B ear
C lear
F ake
F ree
H IP
J ust
S Z
S YS
U se
] )
d isc
f ocused
g en
n orm
s im
s ymantec
Ð ³
Ñ ĩ
â Ĩ
Ġt alk
it er
it tle
is cri
Ġb ulk
Ġd d
il st
Ġm at
as per
Ġre vel
ĠS EC
Ġn ight
ĠM ajor
Ġfor ged
Ġas cii
ĠW orm
ĠW OW
ĠW iki
ĠD P
ĠD NC
ĠF arm
Ġ. ........
ke leton
el le
Ġst ation
Ġst ock
ĠH URRICANE
ĠB R
ĠN C
Ġde ploys
Ġun used
ĠG ame
Ġtr ail
ĠX X
ĠX BAP
ĠAP SB
Ġall ies
Ġlist en
Ġdownload ers
ĠOr ca
Ġmet a
Ġqu iet
Ġexp ired
Ġret urning
ĠLin es
Ġpur s
bit map
Ġextens ively
Ġvar ied
Ġembed ding
Ġimport ed
Ġpolit ics
IT Y
ĠHe ad
Ġrestrict ing
Ġed itor
Ch es
RO M
not iced
du ces
ĠNT FS
Ġidentif iable
78 2
Ġms g
ĠTim eline
ĠSn ow
ĠPart ners
Cont ent
Ġreview ed
UT H
ĠCy b
ĠCoun try
ĠAuto F
Ġtwe ets
Ġconvers ation
ĠLike ly
Ġopportun ities
Ġabs ence
aste bin
Ġdescript ions
Ġprol ific
Copy right
Ġanonym ity
ester day
Ġbund led
Eng ine
aby tes
Ġsni ppet
ĠTran sport
ĠTal os
ĠProof point
Ġug zilla
Ġdiï¬Ģer ent
. ).
0 26
4 32
4 17
4 04
A O
A ut
A ff
C F
C ar
C ount
C ustom
F IN
H ydraq
K E
M r
M ay
N AT
O V
P r
P s
Q DN
S n
T alk
b es
b ar
e i
h d
k ernel
l en
p id
u lo
v s
v an
x ff
y y
Â ¸
Ġt ank
at ile
Ġs aving
Ġb og
al a
Ġp et
ic ip
Ġm ature
et c
Ġv eh
Ġh ence
Ġh tp
ĠT icket
ĠC ab
ĠA MD
ve y
st ore
Ġ1 23
ĠD oS
ĠD aily
ĠR ails
per ty
Ġst able
ft en
ĠG reat
Ġr am
Ġcomm ission
Ġmalware s
Ġ" -
ĠJ ACK
ip edia
ass ert
Ġdis abling
Ġab road
ĠCh ong
ĠTh om
Ġrel ate
ser vices
Ġ10 4
Ġpri me
Ġag greg
Ġthan k
Ġsc ient
ĠAn n
ĠAn imal
Ġav enue
Ġro gue
Ġent ers
loc ks
ose idon
17 61
Ġgener ator
Ġbro ke
IN K
Ġint ention
Ġvis itor
ĠCont in
Ġsoc k
Ġcount y
par ison
ĠMS N
Ġsur prise
ĠXOR ed
Ġformat ted
Ġed iting
Ġconfir ming
Ð¾ ÑĢ
Ġstandard s
Ġstat ically
100 7
Ġcybercri minal
onom y
Ġcrypt ography
ĠDes k
Ġfr ustr
Ġmitig ations
Ġâ Ĩ
ĠAff ected
Sc reen
Ġplay ed
Ġevol ving
:" |
LO AD
ĠHel lo
hel f
aly st
Ġpred omin
Ġmutex es
ĠCR LF
Ġblack list
ĠFal cons
Ġimperson ating
Ġcorrupt ed
Program Data
Reg ister
Ġrepos itories
Ġgrant ed
riv ial
iffer ent
ĠïĤ §
ĠValid ation
ĠCond ition
Ġlapt ops
Vis ual
Ġglob ally
Ġchun ks
ĠFat Duke
ĠJACK AL
4 45
A c
D igital
E SS
E very
H U
I ran
J S
M ac
P ayload
S L
S end
T ask
e vent
h ouse
k o
m essage
s id
s ql
Â ´
Ð ·
re y
ed i
Ġp ul
te en
ĠC IS
ĠI I
st ery
Ġex ec
Ġpro active
ĠD an
ĠD am
ĠF ran
Ġst amp
ĠN an
Ġde em
Ġun noticed
ĠG em
Ġr v
sp ot
Ġsu it
Ġco sts
ĠL i
end a
ex ecut
ex ample
ord ers
ĠJ ames
Ġar my
ĠEx p
ĠSt ar
Ġrem ember
ĠRe p
Ġ9 2
15 0
15 9
Ġj avascript
Ġread ers
ld rea
17 8
Ġmain tenance
og ue
Ġregistr ations
Ġcertain ty
sh ot
ugg ed
ĠGroup s
Com puter
Ġcorre late
Ġstructure d
Re port
Ex per
Ġredirect ing
ĠÐ º
Ser vices
IC E
Ġscan ners
Ġï¬ģ nd
Ġmembers hip
get ic
Ġamong st
Ġoverw rites
Ġdam ages
Ġcour t
Ġchain s
ĠURI s
Ġdistinct ive
Ġdump ing
ĠShad y
ĠNote pad
By tes
Ġcalc ulation
Ġair line
Ġcompet itors
Ġoccur ring
Ġcent ers
Dr agon
UN NEL
Ġtunnel ing
Ġaud ience
ĠAtt ach
ĠAnaly tics
fr ont
ĠEC AT
Control Set
Start up
dig it
Ġfill ed
Ġwor ry
Ġsil ently
Ġsucceed s
Ġprol ifer
ĠTra ffic
ĠPerson al
ĠVol ume
ĠTROJ AN
ĠSIM ATIC
UD IT
Ġcolle agues
Ġenh ance
ĠUnivers al
ĠQuest ions
2 32
2 27
4 08
5 08
F eb
I OS
J R
J uly
K DR
L Y
T ls
c lear
d em
d ong
g ame
g asus
l ig
m ad
p ter
r ical
r data
t im
v d
x B
Ġth wart
Ġs at
Ġb ol
Ġb read
Ġb undle
ec ycle
ro g
ĠT I
ĠC M
ĠC r
ĠC ivil
ĠC ookie
20 3
ĠA li
ĠA LP
ect rum
Ġcon str
ad vert
Ġex e
ol or
ag raph
ĠP K
ĠP ent
ess or
se ver
Ġcomp liance
ĠâĢ ĭ
00 8
ĠH er
ĠN it
ĠN evertheless
âĢĿ ),
Ġact ed
Ġsp ent
ĠJ enkins
Ġdis pos
Ġx ml
ĠCh ief
Ġ8 0386
tain ment
Ġspec ulation
Ġdec oys
Ġinv itation
ĠRe ference
Ġprov ince
12 4
ential ly
Ġdef ences
Ġdef ending
In itial
Ġsub net
Ġman ifest
Ġbot tom
Ġread ily
18 9
bed ded
Ġdevelop ments
Ġleg acy
Ġi Cloud
05 3
Ġtrans c
Ġcontact ing
Ġrefer ring
Ġpr ison
Ġu pper
ĠComp onent
ĠSp ain
ĠSe oul
Ġcompil er
Ġocc up
Re gin
Ġ< <
For ce
ĠDef ender
ml in
Ġart illery
Ġexfiltr ating
ĠConf ig
back stage
Ġauthentic ated
rob or
ĠCloud flare
Ġspecial ists
Pl ug
Ġaccept ed
Ġhead quarters
ĠPo inter
Ġbelong ed
ĠPri or
ĠAss ess
comp rom
Un it
ĠGu ang
ĠExecut able
ĠLog s
Ġmis le
Ñģ Ðº
Ġcateg or
Ġplay ers
Ġintent ions
ĠIOC TL
ĉĉ ĉĉ
Ġpurch ased
amb alla
PRO XY
Ġcommit ted
Ġdeface ment
Hel lo
ĠUnd er
ĠUnd erstanding
Def ault
Ġmasquer ading
ĠRout er
Ġunpack ed
Ġelectric ity
Ġanomal ous
Ġenem y
ĠGround bait
ĠEss entials
Ġaband oned
Ġâĸ ł
Ġperim eter
Aff ected
Ġhtp RAT
assert ion
/ [
2 19
6 00
; )
> </
B rowser
C l
C ON
D ay
G o
M arch
N A
P atch
S te
W I
W est
c ustom
f g
o pping
p w
r f
t v
u o
u ce
| ";
Ð ¹
Ù Ĩ
å ¤
Ġt ie
Ġs ight
Ġb lossom
Ġf ly
Ġp adding
as y
as ks
Ġre tain
le ft
ĠT ypically
ĠS uck
ĠC U
ĠC ould
ĠA C
ĠA SA
ab ric
im a
if ax
ĠM X
ce ler
ĠP SC
ĠP oseidon
ĠW iper
ch il
pp ers
ner getic
ĠE rror
ĠH ttp
Ġun p
Ġlo sing
The ir
Ġhas hing
Ġ" )
Ġ" .
Ġsh ip
ĠJ ob
ĠJ RE
fer ences
ĠV an
ĠV ector
ĠCh ang
ject s
ĠUn ix
Ġcre w
Ġag reed
Ġdes ire
Ġthreat ening
Ġout dated
our s
11 80
Ġ9 7
Ġsign al
Ġhand ful
Ġpublic ations
Ġsupp lying
Th ree
ĠZ w
ĠZ scaler
Ġfin ance
Ġrefer encing
Ġend ing
eng ine
Ġkn ows
ĠOpen Stack
hot mail
Ġcopy right
Ġlim its
Ġcharacter istic
Ġtem plates
host ing
Ġcapt uring
ĠEl ection
EX TERNAL
ĠIm pro
Ġobser ving
Ġtrick ed
verse as
Ġuns afe
ĠEst ab
Ġann ual
roy er
Ġmarket ing
0000 00
ĠDomain s
Ġge ographical
ĠTele gram
DR M
Ġowners hip
Ġparticip ating
ĠMonitor ing
Ġ! =
ĠTop sec
ĠFort une
Ġprepar ation
Ġsplit ting
ĠCOR ESHELL
Gu ard
Ġprecise ly
Ġfight ing
ĠCreat es
aq qah
Ġic ons
ĠTE MP
ĠSch ne
ĠIC MP
prof it
âĶ Ģ
ĠSOCK S
ĠEther net
Tur la
ZR Lnk
ĠSing apore
Ġunsu ccessful
Ġdisse min
Ġvig il
4 29
4 35
4 34
6 96
= <
= âĢĿ
C o
C rowdStrike
C itizen
D ate
D oc
D ES
J o
J une
M o
N umber
U K
b ine
c lick
e ye
f older
g ets
g lob
h as
l ive
l ast
r r
r ics
s um
v i
} \
Ġ uthorization
Ġt re
Ġa ax
en omen
Ġin bound
Ġb d
Ġp ython
Ġp sy
ar h
Ġre liance
ĠS ent
ĠS andbox
Ġn arrow
âĢ ĭ
ut iny
un es
Ġus iness
ĠA M
ĠA hn
Ġ( +
ĠM Z
ĠM u
ĠM is
ith uan
ĠP at
ĠP wn
ĠP IN
ĠP oS
ĠW HITE
tr ay
ĠR apid
ĠF ix
ĠU b
ĠU TF
ĠE A
ist ance
ĠIn str
ĠN FS
ĠN exus
Ġde ath
ĠG r
ĠG allery
iv i
Ġsu do
act ively
um ed
ill ion
Ġacc used
Ġch ip
Ġapp oint
ĠV al
tern als
pl ified
Ġdec imal
ĠEx ternal
ĠRe ports
ond uct
Ġnum er
Ġlist ings
Ġk a
ish an
Ġcer t
TE P
15 4
Ġent ering
Ġne igh
13 5
13 12
16 1
16 5
17 0
ms on
04 3
Ġperform ance
Ġbeli ef
Ġpur porting
roll ing
Ġ17 5
CS IDL
Ġreal m
Ġban ner
Ġincre ases
Ġcri pp
ĠOpen Type
ĠSe ven
Ġrev oked
ĠFin land
Ġrestrict ion
Ġgu ard
wh o
Ġmark ers
Ġtrad itionally
Ch annel
res ult
Ġprevent ed
ĠInter cept
Ġrest ored
Ġmiss ions
ĠRT B
Ġcover ing
HT IDE
Ġtransfer ring
ĠTun nel
ĠLib av
Ġdefend er
Ġstop s
DAT E
Ġguest s
LO G
Ġtele vision
Ġfund ing
Ġgraph ical
Ġexcept ions
Ġblack mail
ĠPriv acy
ĠAv ast
ĠAtl as
Ġassum ption
Ġstri king
Ġdecompress ion
fr m
Sec ond
ĠLook up
Ġresemb les
HK CU
ĠDeb ian
Ġshif ting
Des ktop
ĠHIG HTIDE
Ġcompr ised
Ġpurported ly
inv alid
Ġredict able
Ġreser ves
ĠEvil Grab
Ġapplic able
Ġnickn ame
ĠMult i
wid th
Ġinfos tealer
Ġsinkhol ed
ĠhpMy Admin
Ġalleg ations
' |
0 27
3 08
D u
I o
I LE
M Z
M IT
O wn
P age
S ection
S earch
V PN
d iv
d ates
d wards
f ory
f lash
g apped
i en
l ang
p ag
v ideo
y Sky
Ñ Ĩ
Ġ Ñģ
in ent
Ġth umb
Ġs us
it led
al ian
Ġp ir
Ġd orm
om s
Ġh its
Ġe f
ĠS is
ĠS ecur
ĠS ends
ĠC BC
20 7
ĠA BT
ab et
ab out
im in
ĠM H
ĠM M
Ġl p
Ġex ch
ĠW H
Ġal ph
ĠD iplom
ĠR ain
ial s
ĠE pic
Ġinf er
ĠO U
Ġst ale
ĠB BS
ĠN NM
Ġde leg
ĠL LC
ĠL ithuan
ry on
ĠJ DE
Ġ6 14
ĠK en
ĠCh Ches
ĠX LS
10 25
Ġnew est
Ġmalicious ly
Ġhe ur
SS L
Ġcall er
ĠWeb GL
Ġorganiz ational
In c
15 1
15 3
be it
Ġsec ured
Ġgain s
Ġform al
ĠOS X
Ġfe e
sh ort
Ġbypass ing
ĠAct ors
pro duct
Ġdemonstr ating
Ġpr inter
Ġpr ices
Ġperson ally
Ġview er
wit ched
ateg ory
Ġmin istry
ĠDec rypt
Ġrout ing
Ġsusp ended
Ġcontext ual
AS ERT
Ġgu ys
ĠTechn iques
ĠÐ ¾
ĠÐ Ł
Ġextract ion
EC OM
Ġtrad ecraft
Ġec x
ĠNe ut
Ġï¬ģ n
press ed
ĠQu ery
ĠNT LM
100 9
Ġsecure ly
rant all
Ġold est
ĠGu idance
ĠDis covery
ĠOb fusc
ĠList ing
Ġserious ly
Ġlot us
ĠExploit s
udi ences
Ġdisrupt ed
ĠMar c
ĠPay Pal
Ġeduc ational
Ġeffect iveness
Ġinfiltr ated
Ġvary ing
ĠAtt ribution
ĠIdent ifier
ĠCal endar
Ġconvers ion
ĠUP nP
Le aks
Ġcoup led
lim inary
ĠPe gasus
ĠDest over
Ġhy brid
Ġattr active
Ġconsult ing
urp osed
ĠFort inet
mal icious
agh y
Ġjo in
Ġwall et
210 22
ĠCV SS
Ġkeyword s
ĠKre bs
Ġexplicit ly
ĠGlass RAT
Ġiex plore
ĠAng el
ĠKar agany
ĠCompil ation
otb row
ffici ently
ï¼ Į
Ġwer en
ĠAutoF ocus
ĠNit ro
Ġtransc oding
chil us
ĠSchne ider
ĠABT A
ĠJDE dwards
4 09
5 37
= '
C al
L oop
O per
R o
R aw
S un
S ep
S top
U L
U X
W orm
W rite
W indow
Z J
Z HC
\ âĢĿ
d w
f amily
g p
g ment
k l
k in
l tr
n l
n ate
s es
s vc
w ere
Ġ ers
Ġa ug
Ġc hemical
Ġs ql
or izon
Ġin line
Ġb and
Ġf et
Ġf ine
ro s
Ġm and
Ġm aps
an ium
ĠT W
ĠT TP
ĠS ky
ĠS usp
ĠS mar
ĠC DT
ut ter
ĠI EC
ain ing
Ġl ets
Ġex plore
Ġwh atever
ĠP V
Ġwith d
se en
ĠD isk
ĠR otbrow
ĠF e
ĠF ast
ĠF QDN
ĠâĢ Ĳ
up y
ĠE PS
ĠO N
ĠO HHDL
Ġst ress
ĠH WP
ĠB L
ĠB and
ĠB alt
Ġun common
Ġun identified
Ġr ich
Ġr ating
sp y
Ġco vers
Ġco oper
cri bed
ry pter
Ġinc orpor
Ġapp lying
Ġapp liance
ĠJ D
ĠV P
Ġab uses
ĠUn raveling
ast ic
ĠX REF
Ġaddress ing
Ġdec omp
Ġk rb
Ġwork flow
Ġdel ivers
cover ing
Ġloc king
ĠSQL ite
ĠMan ul
me as
23 9
ĠAl gorith
ĠAnd ishan
AC ES
Ġwar ns
ĠUS ER
Ġeven ing
ĠFigure s
Ġcreat or
Ġconc urrent
Pro file
io ctl
Ġcorre l
Ġremain der
Ġtrad ing
Ġdiscuss ing
ĠBlack Berry
96 5
Ġconsist ed
Ġsepar ately
ĠGo vern
we i
ĠFil cout
Ġrepl ies
Ġauth ored
ĠSte ganography
Con nection
ĠReport ing
Ġgreat ly
Ġdam aging
Ġremov es
Un like
mar ks
ĠInv incea
Ġâ Ĥ¬
Ġdw Command
Ġworm s
ĠLo ader
ï» Ł
De v
Ġiniti ates
ĠĠĠĠĠĠĠĠĠĠĠĠĠĠĠĠ ĠĠĠĠĠĠĠĠĠĠ
ĠRev olution
aa S
Ġtradem ark
Ġexpress ed
inet ic
ĠBel arus
ĠIdent ity
ĠMark et
Ġcontribut ed
Ukrain ian
Ġdiv ision
gener ation
Ġdestroy ed
ham mad
obfusc ated
appro pri
Ġconce al
Ġspokes man
ĠFre quently
Mc Afee
Ġexplor ation
ĠCommer ce
Ġrefus ed
Ġado be
Ġentic e
ĠDust ySky
ĠLucky cat
ĠAfric a
NAT O
Ġbog us
UDIT UNNEL
fory ou
ĠSis tem
4 64
4 05
B oard
D oor
E A
E m
F LO
G S
I VE
I nt
S el
b ols
d x
d emocr
h c
j ing
n ote
o ices
p ay
s i
t c
w ill
w rapper
z x
Ð ±
Ù Ī
Ġt rivial
re port
Ġs ch
Ġs witched
it ch
it ives
Ġb ur
Ġf c
Ġp ick
Ġp orn
Ġp icked
Ġre new
Ġre named
lo om
ĠT TI
ĠS cheduler
ĠS keleton
ĠC SS
ĠC SO
ĠC DN
Ġbe ar
ĠA ust
201 00
ĠI re
im g
ol ving
Ġpro actively
ĠD amballa
ir med
Ġwe l
and ex
el s
ĠO T
Ġst ability
ĠH it
ĠH otels
ail and
tem plates
ĠB ur
ĠB oot
ĠB KDR
ĠâĢľ -
ĠV lad
ach es
Ġind iscri
pl atform
do g
ĠEx port
ĠEx amples
Ġvari ation
Ġwork ers
Ġcor robor
ĠApp lied
Ġsub stant
ĠPro ced
17 2
17 4
ĠAd v
Ġste ganography
Ġret al
23 4
AN D
Ġi T
Ġcoll isions
ĠID A
ĠY ear
Ġassoci ate
IS H
IS T
AP E
ĠAs ked
Ġcontin ually
Ġanaly tics
Ġbre aking
Ġperson a
.... ..
oot er
ĠQ atar
ĠÂ £
Pro v
48 71
ĠActive M
Ġdeploy ments
47 25
Ġhelp ful
Ġexper iment
Ġsur f
Ġautom ation
AD EYE
set tings
Ġmark ets
Ġdiscuss es
RAT s
Ġmove ments
Ġpopular ity
ĠRed October
Ġinteract ions
ĠStr ings
App Data
ĠDD NS
ĠCl r
Ġprop osed
ĠDo es
Ġthous and
With in
AG LE
Ġcircum vent
ĠEnc rypt
Ġintent ionally
Ġrefl ects
ĠCoun ter
Ġclos ing
Ġcipher text
Ġdecl aration
332 2
ĠCons ult
Ġrecommend ations
ĠThrough out
ĠBuild ing
Act ion
Ġarri ve
Ġacqu iring
ĠDon aghy
bl ank
Ġdefin ition
ĠMong ol
Dll bot
Ġemphas is
Ġhint s
Ġoverwrit ten
Ġproduc ing
ĠRich ard
Ġdeliber ately
Black Energy
Ġconclus ively
Ġhypothes is
ĠMem bers
Ge org
Ġbud get
Ġnegoti ations
ĠBlu etooth
Ġpros ecut
mend ation
ĠInfoS phere
ĠPent agon
ĠUb untu
ĠSmar ter
ACES HIP
0 32
0 29
A LL
C lick
F ind
H idden
H INE
I vy
O HO
P h
P otao
S V
S ight
U nd
V irtual
W EB
b oth
d l
f ind
f ish
i D
m icro
m ount
p ur
p res
t f
u zz
v r
v ari
w iki
Ø ¨
on et
Ġc odec
Ġs cal
en ues
Ġf uel
Ġp ng
Ġp ixel
ic ians
Ġm ut
an n
Ġv ent
Ġh ired
Ġh ouse
ĠT ide
ĠS ay
ĠA erospace
ĠA rea
ĠA UDITUNNEL
ri de
ri otic
ad y
ĠM el
Ġl ives
ol un
Ġg aps
Ġal ar
ĠD at
ir ation
ĠR ob
ĠR FC
ĠF E
est ab
th rough
ĠE D
qu ery
Ġst ations
Ġst ories
ĠH ung
ĠB al
ĠN ation
oc om
Ġlo se
sp eed
ĠL ittle
ill ing
ant i
iz en
Ġweb server
ex istent
Ġsh all
ĠJ ong
Ġ5 12
Ġ7 1
ans as
Ġy oung
Ġ8 6
ĠTh ailand
tain s
Ġ20 7
Ġar ms
ap shot
ĠEx tracting
Ġev ident
Ġvers us
Ġrem ark
ĠRe fl
Ġout come
TP RO
ok ing
Ġaccount ed
ĠIt alian
TE AGLE
Ġprev iews
Ġsub rout
Ġsub stitution
13 9
14 6
Ġsupp lement
25 0
Ġph enomen
Ġexp ensive
Ġleg is
ĠMan aged
ĠComm un
Ġins urance
ĠOper ating
ĠZ EN
cept ible
St ore
uc r
Ġprob ability
ool er
Ġintegr ation
af ee
Ġel imin
Ġmin ute
Ġ13 1
ĠDef ault
dd en
Ġver ifies
Ġaccording ly
ĠIns ecure
we ight
ĠPol it
Ġassess ments
ins ula
ĠEd uc
Ġalloc ates
su pport
Ġplay ing
Ġillustr ate
Ġcompet itive
ĠEas y
Ġfont s
Ġrefl ection
ĠiP od
Set tings
Ġbrief ly
ĠScan ner
Ġexpress ions
Ġwid th
PL A
Ġpartners hip
xC FD
ĠUnic om
Ġwarrant ies
Ġsatell ites
ĠSum mit
Ġdup licate
Ġbranch es
Ġprepar ing
ĠÃ ¢
ĠCurrent ly
lab el
Ġaccompl ished
Ġnavig ation
Ġterrit ory
Ġexchang es
Ġep is
ĠKor Dllbot
Ġinterv als
Ġdatas et
ĠLeban on
Ras Tls
Ġ......... .......
Ġpul led
ĠALP HA
Ġpsy chological
ĠTide Pool
) \
4 03
4 33
5 04
D ropper
E TPRO
F ortunately
F older
H APE
I dent
J DK
P alo
R SS
T el
U pload
e ign
e ax
f ont
g re
j ob
m o
n ic
n ov
n ey
p ipe
s un
s rv
s helf
t rend
y gh
Ġt ar
Ġt ight
Ġt icket
er ial
on a
Ġc ities
Ġc itizen
Ġo s
Ġs qu
Ġin ten
Ġin active
Ġb oo
Ġd c
Ġto wn
ic ular
us ic
et te
ĠT izen
te fact
ĠS in
ĠS ab
ĠS ave
ĠS RC
ĠS USE
ĠS ometimes
ul se
ĠC RE
Ġn ets
Ġus eless
ĠA IX
ĠA DD
ur se
ab a
ver eign
im ir
st ates
id s
ot o
ĠM ob
Ġl en
Ġex plo
Ġg h
Ġg reen
Ġg ram
Ġpro hib
ĠP ark
ĠW GET
ĠR isk
ĠF raud
Ġcomp aring
Ġcomp atible
ys bis
ĠE scal
ĠO p
ĠO WA
Ġst ick
ĠH ound
ĠH istor
ĠIn ception
ĠB T
ĠB inder
ĠN CP
Ġun available
ĠL an
ĠL os
all as
um in
Ġsh ipping
ear ly
Ġdis ks
Ġdis aster
ĠV ault
ĠV iper
ĠV LC
ub les
ĠCh annel
Ġy es
Ġar r
ast ers
Ġper taining
ĠSt olen
op e
cal c
10 84
Ġtime out
Ġcomput es
12 29
Ġdef initely
Ġbu ffers
la unch
15 6
esp ace
Ġadmin s
ĠEn fal
loc ated
17 1
Ġmain land
25 1
24 8
Ġinfrastructure s
19 0
19 2
ĠSh ow
Ġdiscover ing
23 0
Ġunder flow
sh ows
Ġwar n
ĠInf y
SC ADA
St ation
por ter
Ġ17 3
Ġhel per
Ġcreat ive
Ġ14 7
22 2
att ended
Ġrout es
Ġknow ing
ĠMS I
Ġrev olution
Ġpop up
Ġbr ings
âĢ¬ +
ĠPo ly
Ġsubject s
ĠBit ten
App le
BC O
Ġms i
Ġms vc
gu ard
Ġexplain ing
ĠPort ug
ĠFree BSD
Ð½ Ð¾
Ġspe ech
Ġann ex
Ġmy ster
Ġur ged
ĠCSCt q
Ġfall s
ĠDet ecting
ĠEd wards
ĠDownload er
ĠOther wise
Ġwarning s
umb rella
ĠHel ix
Ġfund ament
Ġphot ograph
aly ac
Ġconfigur able
ĠRel ations
ĠPitty Tiger
Comp any
ïº İ
Ġinfiltr ation
Ġprec ision
Ġseg ments
ĠProf icy
Ġansw ers
Ġbound aries
Ġcoinc ided
ĠCO DE
ĠAtlant ic
Me anwhile
direct ory
Ġacknow ledge
rem ote
ste aling
ĠProv ides
Ġment ions
Ġwor st
Ġexhib ited
Ġscr utiny
Ġign ore
Ġovers ight
Ġunders core
IPS HAPE
Hand ler
ĠBelg ium
Ġlapt op
Ġinnov ative
Ġoccas ionally
ĠCa uc
mn i
ĠRefer er
SIG HT
ĠÐ½ Ð°
ĠRecon naissance
develop ed
667 4725
ĠDam age
ĠTI BCO
ĠPSC AN
glob als
FLO OD
& """
6 26
B ulletin
D ir
D OM
E l
F rame
H is
K y
L a
M ess
O ME
V ictim
W atch
] [
c ially
d ro
f ormation
u h
y ou
¹ ´
Ð Ĳ
Ñ ħ
Ñ İ
Ġ ç
it ization
Ġin gress
al ence
ion is
Ġp lo
Ġp owers
Ġp owershell
Ġd f
ic i
ro vers
ar let
et h
et ime
Ġe aves
ĠS top
20 03
20 48
ut ral
he ets
ur t
ur is
Ġcon stitut
ĠI G
st ack
ad u
ĠM ur
ĠM ultip
ĠM IME
Ġl iving
Ġex tr
Ġex cell
Ġfor got
ĠD epending
ĠD agger
pp s
so phisticated
ĠE FF
ĠO Auth
ist ing
Ġst rike
ĠH ydraq
ug es
ĠB en
ĠN t
Ġlo ose
ĠL ync
Ġsp aces
Ġsp ectrum
ĠâĢľ @
Ġ" %
Ġsh op
Ġapp end
ĠV FS
ĠV NC
ĠK HO
ĠK ansas
Ġab using
Ġpre ference
ĠCh en
Ġy esterday
Ġstr uct
Ġstr ange
Ġover t
Ġtr uly
tain ed
Ġar tefact
Ġ10 3
Ġden iability
Ġpar am
Ġpar liament
ĠX S
Ġpart ly
ĠSt atus
amet ers
ĠRe lease
Ġtime zone
ĠSP ACESHIP
Ġwould n
ĠIP S
Ġres ume
Ġk inetic
ĠWh y
velo per
18 7
16 11
Ġprogram mers
19 8
Ġins ider
AN T
Ġ12 1
Ġinvestig ative
ĠCyber attacks
sh are
Ġrep urposed
000 2
ĠAct or
con text
Ġmin im
ĠComp onents
ĠSe pt
Ġ< =
man n
ĠÐ ´
Ġnews paper
wh ite
Ġarg ued
ĠRem ov
ili ence
Ġsepar at
HO LE
Ġleak age
Ġmot ive
Ġstud ied
87 4
Ġadvert isers
Ġelect rical
Ġ29 4871
ĠDD OS
Ġ28 289
Ġcorrespond ence
Ġtrick ing
TI V
ĠGu est
anc ing
ĠCSCt i
ĠDel ta
met hod
ua wei
AG ENT
ĠPoint ed
Ġcallback s
sk i
Dri vers
leep ing
Ġdr ag
Ġarchitect ures
ĠEm ploy
Ġfeed back
Ġcivil ian
ĠAuto It
Ġmicro phone
Ġconver ter
Fil ter
group s
Ġalign s
ĠConnect ions
Ġwarrant y
access ible
Ġcharg e
Ġcharg es
ĠCommission er
ĠTrue Crypt
ä¸ Ń
Lo ader
ĠCol or
Proc Address
zh ou
Ġrecru it
Ġterrit orial
Ġrecurs ive
eff ective
ĠKre mlin
ĠCat alyst
ĠNav y
ĠNav al
Ġspan ning
Ġadj ust
ĠRece ive
sign ing
Ġinterpret ation
Ġsymbol ic
ĠPassive Total
ĠComput ers
ĠReser ved
ONG ATE
ĠRatankba POS
Ġsecur ing
Ġfif th
Ġsat is
Ġdorm ant
ĠBL ACK
ĠiT unes
Ġinten se
ĠKHO BE
0 28
3 09
4 27
5 05
7 1271
? âĢĿ
B ay
C y
J P
N evertheless
P tr
R HE
W are
W ord
a uthor
b ull
c ard
c urrent
e g
m c
m aking
n m
o aler
p as
p apers
v o
v iews
Ø ¹
å ®
Ġ umbrella
Ġc ensorship
Ġo verseas
Ġs up
ed a
it arian
en ess
Ġin advert
Ġb avcodec
Ġf light
Ġf aster
ion e
Ġp apers
ro t
ar n
us ec
Ġm ob
Ġm akers
Ġre inf
Ġh om
ĠT H
te k
Ġe ase
ĠS ET
ĠS ets
ĠS TEP
ĠC og
ĠC PR
ĠA re
ur id
Ġ( âĢĺ
Ġcon st
im p
st on
ĠP astebin
Ġas sert
ĠW ell
ch a
tr ue
ĠF C
ĠF u
ĠF ILE
est ine
ĠE mp
âĢĻ )
ĠB anks
ĠB reach
ĠN X
ĠN ile
ĠN iger
Ġde als
Ġun protected
ĠG FI
oc on
ĠL T
lic ates
Ġse ized
Ġinc on
ĠJ iang
ip bot
Ġfil ed
Ġso vereign
Ġ4 333
ĠK h
ser ial
ĠUn covering
ĠX i
Ġback slash
ĠSt ream
Ġ9 3
SS D
Ġres idents
ĠIt aly
Ġsub mar
Ġread able
Ġpublic ized
Ġiss uing
19 5
Ġport able
Ġrece ipt
old en
Ġcoll ective
Ġlegit im
Ġdecrypt or
sh ip
ĠInd eed
Ġpost ure
45 500
app lication
ï¬ Ĥ
Ġcount s
Ġupd ater
Ġant icip
Ġel abor
Ġcri mes
ĠOpen S
ĠTr icon
ns ic
Ġ18 0
AD MIN
ĠSc reen
Ġconfir ms
Ġcar rier
Ġsal t
Ġdiscuss ions
Ġstrateg ically
Ġmot ives
FF FF
Ġes cape
ĠOver all
Ġmitig ating
ĠMod el
ĠRet urns
Ġput s
Ġemer ge
ĠCSCt z
ĠDownload s
Ġunus ually
js on
ĠProcess or
Ġbreak ers
Ġcent re
Attack s
ĠPers istence
Ġaffili ates
ĠCosm u
Ġmount ed
Or gan
ĠTel enor
ĠDist ributed
PRO FILE
Ġtell s
ĠPS EXEC
Ġseed ing
Ġcaut ious
ĠVer izon
Ġsimpl er
ĠOpenSS H
WIND IR
fire eye
ĠATM s
Ġign ored
sv r
ĠAustral ian
resh old
ĠPalest ine
ĠSw ed
acc ur
ĠCare to
government al
ĠSand worm
Ġdeliber ate
Ġconclus ive
ĠCoo peration
allin n
Ġencour aged
Sm art
Ġcul pr
ĠRad io
ĠPs Exec
ĠHR MS
Ġidentiï¬ģ ed
Kn own
Ġprecaut ion
Ġdram atically
ĠNE TEAGLE
Ġslides how
ĠPid gin
Ġ224 45500
ĠSpl unk
ĠUtil ities
Ġsus ceptible
ĠBand ook
ĠAlgorith m
olun ski
Ġphenomen on
ĠZEN works
ĠMob ility
Ġ4333 113
! !
$ \
( ).
4 26
: %
A nt
A MS
C ache
G C
G U
G W
G h
L ooking
L aboratory
M aster
N I
O A
P ub
P HP
V A
W all
d ict
g tk
i est
m em
m ade
m ax
p jpeg
s ession
t wo
x XX
x bitmap
Ġt urning
Ġa e
re es
re le
re ference
Ġc f
Ġc able
at ers
Ġs ides
or gan
or ient
Ġb or
Ġb orders
Ġd il
Ġd uration
Ġd ns
ic ate
ar in
Ġre name
Ġre action
Ġh ydraq
ĠT est
ĠT arh
ul g
ĠC our
20 5
20 6
ĠA uth
ĠA LL
ĠI ron
st rike
ot a
Ġg if
ĠP RO
ĠW E
se x
ia o
Ġal arm
Ġwe alth
ĠR U
ĠR aw
ĠF an
ĠF le
ĠF ysbis
Ġser vlet
ĠE nergetic
Ġcont rovers
Ġst uff
ĠG n
Ġen hanced
Ġen rich
ĠL ow
ill er
ud oor
cri mes
ip v
Ġuser land
Ġab ilities
Ġpre liminary
ĠCh ecks
Ġconf ront
ser v
Ġden y
Ġev ading
Ġmay be
Ġ9 4
Ġ9 002
ĠCom odo
ĠWeb Access
TE N
Ġsub tract
Ġent itled
pr ised
iss ecting
Ġne utral
ob ject
Ġprogram med
19 6
Ġcl ar
ĠSh aring
Ġport als
Ġcoll ateral
ĠZ HC
onstr uct
Ġred und
Ġbelie ving
ĠUS D
LE CT
Ġvalid ated
ĠOpen JDK
46 56
ĠMin istries
md ivi
ĠRem ove
Ġlogin s
Ġretrie ving
ĠCommand Header
Ġid s
ĠRec ently
ĠPo ssib
Ġdeb ate
Ġassess ed
Ġassess es
ĠShell code
ram b
Ġbl end
ĠCl inton
UR K
ĠGet ProcAddress
ĠForm s
ĠForm ats
Comm on
Ġincorrect ly
Ġsym bols
ĠDel et
ĠIN D
Ġmanip ulated
ĠBu ilder
Ġcombin ations
ĠEv idence
Ġconstant s
Ġstream s
Ġredu ced
agent o
Dri ver
Ġlimit ations
Ġagree ments
Ġdecl ared
Ġparticip ants
ĠRecord ed
Ġmeant ime
Ġfingerprint s
Ġupgr aded
ĠTer min
Ġconsequ ence
Ġarri ved
Ġcharg ed
Ġtain ting
ĠEqu ifax
VER S
CO DE
script s
ste p
ĠDeb ug
Ġprincip al
Ġprincip les
ĠBrit ain
Ġsummar izes
Ġstrength en
ĠSPE AR
ĠDll Main
Ġspawn s
Ġdecre ase
ĠContain s
Ġfoot print
ĠSpr ing
Ġdum ps
ĠTro chilus
Rep orter
ASH FLOOD
Am ong
Ġgate ways
IPT IDE
Ġinvent ory
ĠNC SC
Â¸ .
Ġdeem ed
sever ity
ĠAssess ing
ĠInstr umentation
Du qu
ĠBBS RAT
loom berg
ĠVlad imir
estab lished
ygh ur
ĠCauc asus
ĠTricon ex
2 26
4 114
: âĢĿ
A x
A IN
B N
B etween
C at
C art
C ons
D Net
D epending
G RO
H ash
J et
L et
P I
P O
P etya
R S
R ef
T OP
U A
U C
U TE
X OR
b all
c oll
d it
d av
d ebug
e ing
l inks
n umber
v ol
Ã «
Ø ª
Ġt el
Ġa udiences
in ese
in iDuke
er tain
Ġc d
Ġc amp
Ġs chedule
it ize
Ġin accur
is ible
al ers
Ġw orse
ic ates
us hing
as alt
Ġre act
Ġh ref
ĠT reat
ĠS ong
ĠS een
ĠS YN
ĠC MD
Ġn u
ut ical
ut down
ĠA G
ĠA z
ĠA part
ĠA MT
ad s
Ġan im
ĠM id
ĠM ad
ĠM enu
ol a
ol f
ag le
ag ers
pt ions
Ġg oo
Ġg ift
Ġpro ï¬ģ
ĠP owershell
ĠP acific
ĠW M
ĠW ool
ĠW icked
ĠW onder
Ġal beit
ay a
ĠR ight
ĠF ols
ĠF ROM
ĠU l
ĠâĢ Ļ
ss h
ys ical
ĠE s
00 3
00 9
Ġst orm
ĠH D
ĠB leeping
Ġun attended
ĠG al
Ġr ul
Ġen com
Ġen for
ĠL E
ite m
ex plorer
Ġsystem atically
Ġapp e
Ġapp ends
ĠJ AR
ht a
Ġle aves
Ġdis tract
Ġdis par
ict ures
ĠK IT
unt ers
Ġmod es
Ġover look
Ġ10 2
ĠHT RAN
Ġdec ide
ĠRe porter
Ġlog istics
ace utical
11 32
SS H
unic ation
Ġav iation
Ġobtain s
ux ili
18 60
ileg ed
Ġsupp liers
Ġexp oses
Ġprogram m
OR M
ets k
ms i
ie ves
Ġassoci ates
06 0
sh own
Ġanaly t
SC R
Ġ19 99
34 7
ES ET
par am
Ġrecord ings
ivers ary
Ġ* (
Ġunique ly
47 2
ĠAg ile
cont act
Ġed x
Ġed itions
Ġcharacter ized
cl usion
Ġele ven
fe ature
Ð° ÑĤ
cent ric
Con text
Ġlit er
EX T
onom ous
ĠDes ign
gu est
Ġroutine ly
ÑĢ Ð¾Ð
ĠCozy duke
ĠOb ama
ĠPer haps
Ġverify ing
ĠPre vious
Ġsandbox es
Be at
Ġcol umn
ĠPost gre
De ath
Ġbill ions
ST AR
ĠRE AD
Ġpropag ate
Current ControlSet
ĠSoc iety
Ar t
Ar ray
Ġhim self
arm aceutical
Ġbound s
Ġbuy ers
ĠTer minal
Ġrad io
Ġcoinc idence
Ġil licit
Ġcur ious
stat us
Ġpan ic
Ġpse ud
Ġresemb le
Ġmix ed
ĠFox it
Ġschem a
Ġbind ing
Ġelev ate
Det ails
ĠISP s
Ġterror ist
Ġcompare s
Ġinterv iews
ĠLim ited
Ġincons ist
Ġsyn chron
ĠHy per
ĠABC D
Ġperman ent
agnost ics
Ġte ach
Ġdemocr acy
Ġmilit aries
mor ph
Carb anak
Ġpredomin antly
WI per
ĠAhn Lab
Ġalph abet
Ġ614 86
ocom plete
Ky WIper
Ġsatis f
orient ed
Ġdil ig
ĠFols om
uxili ary
ĠPostgre SQL
3 03
5 02
9 12
B ook
C md
D M
D oS
D ebug
H G
K g
K EY
N ight
O O
P ol
S ek
Z Z
] {
b ear
b eta
c he
d ropper
f ol
g ear
g lot
i op
i very
k t
l ets
r uss
r undll
s ave
t ec
u ation
w atch
w oman
Ã ¿
Å ĵ
å Ĳ
å Ľ
Ġ ugin
Ġ æľ
in ational
on ing
re fer
re sts
Ġc lock
Ġs lash
Ġin ner
Ġin ability
Ġb s
Ġp y
Ġp ec
Ġd a
ec e
Ġm icrosoft
ac om
Ġh ides
ĠT s
ĠT alk
ĠT allinn
ĠS l
ĠS ites
ĠC ause
Ġn exus
ly morph
un ning
ĠI MP
st ance
id ew
ad or
ad vanced
ore an
ĠM ik
Ġex cel
ĠP O
ĠP an
ĠW atch
ĠW AR
Ġal bum
pp y
ĠR A
ĠR ock
th ere
ĠE N
ĠO cc
ĠO mni
Ġad ware
ĠH AN
ĠH uawei
ĠIn side
Ġun n
Ġun named
Ġ2 47
Ġcomm od
ĠL aser
act iv
um ing
Ġweb cam
ex i
Ġsh ed
ĠJ DK
port ion
ĠV OHO
Ġ4 04
pl an
to ken
Ġ8 00
ĠUn covered
Ġemail ed
do s
os ing
ĠEx am
Ġhost age
Ġmess enger
In tel
Ġprev alence
ons ible
Ġprot ects
Ġoff sets
13 0
ribut es
ĠWe ek
19 4
enc rypt
Th ough
Ġlegitimate ly
ER E
ER S
Ġreso urced
Ġu pt
Ġ17 6
ik es
uc he
ĠThreat post
Ġsm ile
ĠQ ual
ĠUs age
Ġoffic ially
Ġdistribut ors
Ġrev iews
Ġrev enue
ĠCSC tr
Ġshort ening
Ġver b
arent ly
Ġpower ed
Ġconsider ation
Ġinstr ument
doc s
AL ERT
Ġprom oting
Ġbas ically
urs or
Ġmention ing
ĠRed irect
ĠResearch ers
ĠStr ong
ĠBit ly
ĠNot ably
Ġelect ronics
Ġenco unters
ĠAss ad
ĠKey logger
DE V
bu f
ĠDis play
ĠVB R
ĠAnti y
Ġhome page
ĠWork station
ĠSm ith
Ġdebug ger
orn ey
Ġcounter meas
ĠCan Sec
sec ret
ĠBu ffer
class ified
Ġsubs idi
Ġgraph ics
ĠCS RF
Ġdr ug
Ġproceed ed
Ġpenetr ated
Ġlif ecycle
Ġhistor ic
munic ation
Ġcompar able
ĠAny Connect
Ġsmart phones
isc losed
eter min
ĠColl ect
ĠColl abor
Ġtro uble
Ġcomplet ion
Ġbox es
ĠCO E
ĠMach ines
ĠEar lier
Ġchild ren
ĠShadows erver
Ġsuspic ions
Ġdat agram
Ġjo ined
ĠInit i
Ð½Ñ ĭ
Ġevalu ate
ĠHand ling
Ġspons or
Ġredict ably
Prot ect
plugin s
writ ten
Ġiex pl
Similar ly
allin x
âĢ¯âĢ¯ âĢ¯âĢ¯
ĠWild Fire
Ġdisapp ear
Ġstem s
ĠWill i
ĠBoy usec
ĠEnumer ate
Ġdiscon nect
Ġmat hem
ĠWiki Leaks
Ġpurs ue
ĠChong ryon
ĠâĨ Ĵ
Feb ruary
Ġdispos al
ĠFQDN s
ĠBalt ic
democr acy
ĠNCP H
ĠWonder ware
Ġencom pass
ĠKIT TEN
ĠCanSec West
4 39
5 26
B h
B it
C an
E L
I MP
J ava
K ernel
M O
M gr
O ff
R el
U TER
W ar
W ave
W ater
W orld
X I
a ur
b rowser
c isco
d eb
d rv
h ide
m K
m ys
n um
n ik
r at
r us
r ss
s g
t ag
v ance
z y
Ã ¶
Ø ©
Ġ echo
Ġt ur
re ak
at i
Ġs KyWIper
or ry
is ec
Ġb b
Ġb ure
al pha
Ġf aces
ion Solution
Ġp pt
il o
us ive
Ġm p
ers hip
ĠT ABLE
ĠS at
ĠS YS
ul iar
Ġn j
ĠA F
ur ring
ĠI d
st a
ow ner
ĠM B
ol er
Ġfor cing
Ġ1 10
ĠP rom
ĠP ixel
ĠW ang
Ġal i
Ġal ike
ch ant
ir al
tr ust
ĠR est
ĠR ising
ĠR IPTIDE
ĠF ar
ĠF SB
00 07
ĠO ften
ĠH as
ĠH illary
ĠB YTE
ĠB unny
Ġun fortunately
Ġun sophisticated
oc king
amp ol
und er
Ġcode base
Ġweb kit
Ġinc ent
ĠJ en
fer encing
ĠV ulnerabilities
ĠK SN
Ġind ivid
pl ant
Ġnetwork ed
ser vers
ocument ed
ast ionSolution
ĠHT A
nt ax
Ġag enda
AT S
Ġval ves
ond s
ĠSP R
Ġthem ed
Ġfound ation
Ġdef aced
ĠWeb View
ful l
Ġsub missions
15 5
Ġmet asploit
18 0
Ġund is
16 2
ĠFor bes
Ġmethod ologies
Ġgener ations
Ġac celer
ĠMan age
Ġtrans form
Ġrep orter
ĠAl ert
Ġanaly se
ather ing
oy al
file path
ĠWin RAR
ï¬ģ ltr
Ġembed s
Ġimport s
Ġsel ectively
ĠComp act
ĠSe asalt
Ġcorre lated
Ġsur prised
ued agh
ock ets
ĠDe veloper
For ZRLnk
ĠDef l
Ch ar
ĠAnal ogue
Ġauthentic ity
Ġprom ote
Ġprom ised
fe ed
pre p
Ġrepl aces
ĠSte aler
Ġlength s
Ġequ ally
ĠStr ategy
Ðµ ÑĤ
MB R
Ð½ Ð°
Ġsn apshot
Ġ65 00
BI OS
Ð¾Ð ´
Ð¾Ð ¼
Ð¾Ð ¿
ĠIR ONGATE
rows ing
Ġbig ger
idel ines
aid an
ĠCan ad
Ġrend ered
ĠRetrie ve
Ġintro duction
Ġrefl ected
ĠEX IF
arter ed
Ġra ising
off set
Ġblob s
Ġdiplom at
Dr agos
pos ium
Ġinterpre ter
ĠJun iper
ĠDest ory
Ġnc lude
ĠSci ent
Spec ifically
Ġbring ing
ĠAction Script
Ġpossess es
Ġpiv oting
ĠSH IPSHAPE
Ġintrud er
uer g
Ġpair s
Ġhacktiv ists
Ġproduc ers
Ġunivers al
Min iDuke
Ed itor
Sub ject
ĠOffic er
Ġoccas ions
307 29
Ġdum my
ĠShort cut
ĠCap stone
iction ary
reso urced
ĠSecret ary
Ġbal ance
ĠActiv ists
Ġcas ual
12345 67
orig in
olic ited
ĠTrack er
ĠXX x
ĠSnow den
ĠCIS O
ĠGem iniDuke
ĠGuang dong
ĠEstab lish
Ġvigil ant
ĠAngel es
nate on
pur ple
ĠSay ad
Ġmyster ious
Ġlegitim acy
Sek ur
glot Duke
Ġwebkit gtk
6 12
A H
C are
K ar
M W
M ark
P ri
P lease
V ID
b g
c if
c rypt
d k
d etected
f igure
h xx
h orn
j a
k p
l g
l ter
n p
n ational
s cri
s ites
s afe
w el
y es
Ã ¡
Ã ¼
ä »
é ĥ
Ġ ~~~~
on ic
on ald
re te
Ġc asc
at rix
Ġo v
en o
Ġin accessible
Ġin effective
Ġb atter
Ġw ind
Ġf ood
Ġd raft
ic ing
ro c
il ot
Ġm m
Ġm ation
Ġm ents
an a
ac ent
lo yd
le ged
ĠT ag
ĠS U
ĠS leep
ĠC ost
ĠC lick
ly ph
ab c
if iers
ĠM as
ĠM ap
ĠM az
ĠM agento
Ġg are
ĠP ir
ĠP OP
ĠP allas
Ġas semb
ĠW as
Ġal ive
Ġal igned
ĠD A
ĠD O
ĠD er
ĠD iv
ĠD ifferent
ch at
ĠR AM
ĠF irm
Ġcomp atibility
ĠU yghur
and er
ĠE B
Ġad equ
ort s
ĠH ad
ĠB h
ĠB uc
ĠB oard
ĠB ulg
ĠN aid
ĠG in
ĠG IE
Ġr um
Ġsu dden
ĠL O
ĠL Ã«
Ġsp end
Ġsp ray
Ġ3 65
ĠâĢľ \
lic king
iz able
Ġinc red
ĠV ice
Ġpre y
com plete
com merce
pl ayer
to gether
eb uerg
ĠTh ings
Ġpar agraph
istr ator
Ġpart itions
Ġper ipher
Ġper mits
Ġany more
Ġinter ception
Ġdifferent ly
32 1
Ġout ages
Ġout line
ĠCom RAT
ĠCom parison
Ġresearch ing
In te
ener gy
ĠKore ans
14 2
14 9
Ġcred ited
27 0
Ġregistr ar
Ġcl in
Ġi SIGHT
ps ec
AR C
ĠY an
Ġdist ance
ĠMac ron
vir t
St ri
St ats
Ġhttp client
ES VC
Com merce
RE AD
ĠPower S
man agement
Ġenvironment al
Ch inese
An aly
ĠBy te
ĠNe D
ĠAc adem
AL UE
Ġprom ise
Pl ugin
File Name
Ġhead lines
Ġmail ing
look ing
There fore
ĠTool kit
ĠLe ader
ĠLe vel
Ġcirc les
Ġreach able
ÑĢ Ð¸
Ġmult inational
TI ME
ĠSed kit
Ġuns olicited
truct ive
struct ion
Ġuna ware
ĠHack ed
Ġemer gence
Ġfall en
Ġmis use
ĠCT S
ĠCMS TAR
Ġcommer cially
def ender
ĠPres idential
ĠMedia Wiki
ĠIN F
Ġhop es
Ġkeylog gers
Res ource
run ning
ĠEnc oding
ĠStart ing
ĠInstall ation
ĠHost ing
Ġbreak down
Ġintercept s
ĠDE ADEYE
Ġreboot s
ĠCustom er
Ġfamiliar ity
ĠMe eting
Ġ88 444
Ġisol ate
prising ly
Ð» Ð°
Ġsell s
More over
Ġcat alog
Ġdev ast
Ġarri ves
Ġflex ibility
Ġlookup s
Ġri val
Ġcentral ized
ĠWater ing
target ing
TO OL
Ġsimpl istic
iy a
Ġslow ly
GE AR
126 10
reed om
ĠExt ension
Ġfrag ments
ĠIss uer
aut o
ĠMat rix
Ġunexpected ly
ĠBro kers
Ed it
ĠAR M
ĠAR P
upd ates
Gener ic
ĠSym posium
Ne ws
ĠLeg al
Ġanomal ies
tz ebuerg
IZ E
IZ Z
Ġpin point
Ġincons istent
Ab out
Ġprofil ing
reso urces
ĠPet ers
Ġchoo ses
ĠHeart Beat
ĠEth iop
MAC HINE
Ġcandid ate
law ful
Ġprolifer ation
Ġtre ated
MIT M
ĠTW O
ĠIre land
Ġsubrout ine
ĠCommun ist
Ġexcell ent
Ġreinf or
ĠEs sex
ĠLÃ« tzebuerg
2 25
4 07
4 36
6 20
9 00
? ?
A ccount
C ity
C oll
C ookie
F ox
F ield
F lash
H ard
J ack
J anuary
L ook
M ode
N ode
P wC
R DP
S vc
T est
T op
Z ip
a per
a ug
c raft
e an
f in
f unctions
g m
j ust
j ango
l ies
n ish
o om
o cc
q a
r int
t imes
u Sign
w ind
z en
ļ Ħ
Ġt alent
Ġa w
Ġc gi
Ġo st
Ġs ke
Ġs sl
al though
Ġf als
Ġm t
Ġre play
Ġre sell
Ġh oliday
ĠT O
ĠT ake
ĠS ig
ĠC ry
ĠC la
ĠC over
am i
20 06
20 01
ut ch
ect re
Ġat h
ĠI o
ĠI EX
ĠI KE
im ages
ĠM ant
ĠM IA
Ġl i
Ġl ang
Ġ1 20
Ġ1 12
ag a
Ġg lance
Ġg rown
Ġpro duces
ĠP U
ĠP PS
VE NT
ĠD ays
ĠD UK
ĠR ole
el ines
Ġst ake
ĠH ence
ll i
ĠIn to
ĠB ill
ĠB esides
iv al
ĠL TS
Ġ" ""
Ġim it
ĠJ MX
ĠV T
com pressed
Ġmod erate
ens ing
eb us
ĠTh ink
Ġar rests
Ġcontain ers
ĠEx filtr
Ġper mit
Ġper ception
ĠSt ation
Ġthreat en
Ġthreat ened
ĠRe view
Ġpat riotic
Ġpossib ilities
Ġsc reens
Ġdown stream
ru ft
unic ip
ok en
Ġlist ener
Ġdef ining
read ing
be at
ĠPro file
18 89
Ġform ed
ĠAd vant
Ġph armaceutical
Ġexp ecting
24 0
24 4
Ġimpact ing
Ġz lib
ie ve
03 5
23 1
ĠY ears
ĠZ DNet
Ġred acted
ĠApple Web
tract or
ier arch
LE C
Ġvalid ity
Ġ19 97
ĠNetwork ing
37 0
Ġlib c
wit ting
ĠSp ot
ĠSp ooler
Ġchange log
laim s
laim ed
ĠTr ade
Ġattribut ing
RE E
Ġfix ing
Ġocc asion
Ġclass ification
ĠMS RT
Ġhelp ing
ĠMin iduke
ĠMin ority
MP P
MP UTER
ĠÐ ¸
Ġed ge
ven ue
wh at
ĠAnt on
Ch at
back up
ĠJo an
ĠReg ional
ĠCloud Me
list ed
Ġframework s
ĠRed dit
Ġmiss iles
Ġavoid ing
Ġadvant ages
EX ESVC
bot tom
Ġwin ning
Un ique
Ġlaw y
Ġbl amed
Ġmult im
ĠPlug x
ĠPort able
Ġuns ure
ĠCre ated
Ġdesign s
conf iguration
lib c
ĠPh ase
Ġoccurre n
Ġmarket place
Ġprint ed
Sh ow
ĠMet a
Ġmanip ulations
Ġbroad ly
Ġappropri ately
ĠSW C
ĠVirtual ization
ĠVirtual Box
Ġsubs cription
Ġfund ed
ĠRun ning
ĠMar sh
Ġinsp ect
And roid
Ġposition ed
ĠHang ul
des cribed
atell ite
ĠCer ber
ĠCons idering
ĠUP X
Reg istry
Ġlabel s
Ġanalys es
duc ing
ĠShimRat Reporter
HTTP S
includ es
Ġce ase
ĠProv ince
ĠBot net
ĠCount ries
rt f
ĠAccount s
ĠStud y
ĠCH M
ĠGaz er
osh op
ĠArch ive
Ġsummar ized
char acter
024 09
Ġwall ets
ĠBr ad
ĠPhot oshop
Ġsound s
rs rc
ĠTelecom munications
ĠOpt ions
âĤ¬ âĦ¢
Ġmeet ings
Ġsust ain
Ġdepict ed
Ġdecre ased
ĠCompil er
Ġimag ine
priv ileged
ĠZe us
Ġmir ror
ĠComput ing
document s
Ġconven ience
hold ers
Ġamb ig
ĠESX i
ĠRoman ia
Ġdelim iter
ĠMag azine
Ġintermedi ate
Ġsubscri bers
ĠTav dig
Ġrank ed
Ġbus y
Ñĩ Ðµ
âĨ ĳ
Exper t
ĠNeut ron
Ġwithd raw
label ed
ĠEscal ation
Ġfundament al
ĠSTEP PE
ĠOpenS olaris
ĠTreat y
ĠUl tra
åĽ ½
Ġpec uliar
ĠLaser Jet
Ġundis covered
ĠCanad ian
Ġ~~~~ ~~~~
IZZ LY
ĠDUK ES
( âĢľ
) "
6 04
7 42
: [
A pr
B road
C ert
D IR
E ar
F ISH
G MT
H OST
M OD
N ove
N LS
P ay
P ORT
R esp
S U
S ET
V S
X P
b ably
d ater
f ant
f ooter
h idden
i i
i el
i ator
k m
k art
l ord
m ask
o ided
p ion
r age
t witter
v as
w r
w ire
z ed
Ð ŀ
× Ļ
æ µ
Ġ iv
Ġ ĉĉ
Ġt ick
on to
Ġc n
at ical
Ġs we
ed itor
it an
en v
is BT
Ġb low
al ities
Ġf aked
Ġp g
Ġp or
Ġd he
Ġd iversity
us b
Ġm aker
ac ies
Ġv oid
Ġre build
ers ions
Ġh ire
Ġh ous
ĠT ax
ĠS tructure
ĠC up
ĠC art
ĠC AP
ĠC amer
ĠC amb
ĠA WS
Ġ( *(
ab i
Ġcon stitute
im port
ot ion
Ġl d
Ġfor t
Ġg un
ate ur
ĠW AN
Ġal together
ĠR EST
Ġcomp licate
ĠE p
ĠO R
Ġcont ribute
qu artered
ist ical
ĠH anc
ĠH orizon
Ġun load
Ġun witting
ber net
Ġ2 22
Ġlo ve
ĠL en
ĠâĢľ <
lic ating
Ġse es
ĠJ ose
Ġ6 00
Ġdis count
ĠV AE
ĠV arious
Ġfil m
Ġ5 000
Ġ5 37
Ġpre configured
vers ary
ens ys
lud ing
Ġar range
av ior
out put
Ġpl anted
Ġpl enty
Ġreport ers
op ing
cal endar
Ġident i
Ġtool ing
Ġrem arks
yp es
Ġprov ision
Ġhost ile
Ġ11 77
ĠApp ro
la h
15 7
Ġhand ing
loc king
iss ary
Ġund ocumented
ov a
14 5
14 8
17 7
Ġmon et
Ġcrash es
ash board
24 2
Ġcl ue
Ġint ens
asp ora
ĠCon n
ĠOper ational
sh aring
Ġeng aging
ĠZ en
Ġhard ening
Ġfin ished
Ġcount ed
ell ia
Ġvalid ates
Ġ19 90
MS O
Ġter minals
Ġlocal host
Ġaut ocomplete
Ġcreat ors
ĠQ uedagh
ĠComp ress
Ġanalyz es
Com ment
Ġsusp ects
Ġfix ation
row ing
Ġless ons
ĠBe yond
Ġtext box
ĠHe al
ĠHe ader
56 7
set up
Ex p
ĠEnter tainment
air man
ĠCSC ts
ograph ically
ĠSu ccessful
So uth
ĠIs Space
ĠCommand Data
Ġscen e
Ġref resh
CC ESS
ĠSet up
ĠRec om
IF S
Ġscam mer
ĠQu ant
Ġinteract ing
Ġprof its
ĠNot able
ĠWith out
Ġhapp y
TR S
ĠCommunic ator
td own
Ġmy stery
Tr ack
Ġur anium
cf m
ĠCT O
Ġcounter part
aid u
Ġunus able
ĠPoison Ivy
ĠAdministr ative
nit ude
Ġiniti ative
Ġbill ing
ĠPlatform s
Ġpe ace
urrenc ies
Ġide ology
Ġcost ly
Ġer net
Ġoutl ines
Ġmeaning ful
Ob fusc
Ġunauthor ised
Ġnotice able
Rec ent
Rec ently
UN D
Cyber criminals
Ġadapt ed
List ing
ĠRegistr ation
AA F
ĠColl ects
Over all
Ġimprove ments
Ġdecompress es
ĠPanel s
Ġrestart s
Ġfingerprint ing
Is rael
Form s
ĠDest royer
sub mit
Ġran king
Ġtreat y
Ġassign ment
Ġterror ism
Hand le
Ġrecru iting
iment ary
ĠUnre com
ĠForum s
ado be
Ġguaran te
Ġspawn ed
Ġmag azine
ĠLat via
high speed
ĠCoo per
Ġbattle field
ĠChrist mas
Ġspokes woman
Ġfragment ed
Ġnotor ious
Ġperman ently
Ġchoo sing
Ġvirt ually
428 1
ĠWik ipedia
ĠRegard less
ĠMah ara
ĠMove ment
ĠFact ory
ĠOrca RAT
Ġveh icle
ĠFran cisco
Ġsuit able
Ġnumer ic
ĠLithuan ia
Ro aming
Ġfet ches
ĠFe ature
Ġdecomp iled
ĠCSO s
ucr ative
Ġannex ation
Ġconstitut es
Ġrecruit ment
Ġinadvert ently
ĠEmp ire
Ġsovereign ty
4656 2
VERS ION
idew inder
Ġunn ecess
Ġcountermeas ures
ĠIniti ative
Ġindivid ually
TOOL Z
ĠMant isBT
ĠAppleWeb Kit
bernet es
0 322
5 28
> /
A v
B mK
D og
D issecting
L ow
N O
T witter
U LT
V ol
V PS
Z ero
b bc
e ating
f ri
g Kg
h k
h ook
i ex
m id
m ilitary
r il
r ames
t cp
v in
w ik
x E
x F
Â ²
Ã Ļ
Ø ¯
Ġ ì
Ġa jax
in x
Ġth ir
Ġth reshold
Ġc he
Ġc ab
Ġo ri
is ign
Ġw ary
Ġf b
Ġf el
Ġf ellow
Ġd ocx
ar ia
ar ang
ac l
Ġh alt
ĠT TL
Ġe g
ĠS ens
ul us
ĠC ad
ĠC ram
ĠA udio
ĠA bs
ĠA bd
ĠA OL
ur a
ĠI AAF
id get
ad v
ad crimes
ig en
ig fx
ĠM ass
ĠM ember
ĠM ario
Ġl ie
Ġl iber
Ġl ucrative
Ġpro sp
ĠP GP
ĠW ave
ment ed
ĠD mit
ĠD TOP
ir y
tr l
tr ace
ĠR oyal
ĠF ed
ĠF ollow
so ut
ĠO ldrea
ure l
Ġst ager
ĠH aving
ĠIn jection
ĠB IOS
ĠB loomberg
ĠN A
ĠN AME
ĠG rum
ĠâĢľ [
ib ilities
ex cept
Ġinc orporated
Ġ0 158
Ġsh ape
Ġob lig
ĠJ PG
ph y
ph er
tern oon
Ġab sent
Ġinst itute
Ġar ise
ĠUn initialized
ap k
istr ict
ĠEx tract
Ġdirect ive
Ġinv isible
Ġsome how
Ġfunction ing
Ġrec onstruct
Ġdown time
Ġres ist
Ġres ort
Ġres olutions
ok er
Ġlist ens
Ġresearch ed
Ġdownload able
Ġj s
ĠEn try
Ġloc ates
Ġloc ks
13 3
16 6
lement ed
14 4
17 5
ĠAd am
Ġexp iration
19 3
Ġransom s
Ġcl one
ĠSh ould
IS E
06 7
sh ow
ER NET
pro ject
ĠInf ection
bit s
gin ning
uc ing
02 1
Ġ19 98
34 4
ĠThreat Expert
Ġfact ory
Ġlib avcodec
Ġlib purple
wit zer
ĠRes ources
ĠÂ ĥ
ĠOpen Office
Ġrout ed
ĠSp ectre
RE NT
Ġ+ =
Ġ* /
Ġappro val
ĠMS IL
Ġpop ulated
ĠBe ebus
IT ON
point s
ĠData Hub
Ex ecut
ron ym
ives ecurity
ĠES T
Ch oice
Ġexfiltr ates
An g
Ġimportant ly
Ġstrong er
Ð¾ Ñģ
ĠBack doors
Ġrespond ers
Ġdifficult y
ĠFil ters
File A
Ġpract ical
Ġstud ies
Ġlength y
Ðµ Ð´
ĠTur bine
rowd strike
Ġproblem atic
Ġcirc ulating
Ġopt ed
Ġopt im
TI ON
UR RENT
lean er
ĠPack age
Ġloop s
Ġprompt ing
Sh op
Ġhighlight ing
Ġmis sp
Ð¾Ð ¹
oon light
ĠEv olve
ĠBitcoin s
ĠVirtual Alloc
ĠĠĠĠĠĠĠĠĠĠĠĠĠĠĠĠ ĠĠĠĠĠĠĠĠĠĠĠĠĠĠĠĠĠĠ
Ġintro duce
leg al
Ġweapon ry
ĠAir lines
dec rypt
Set up
Ðº Ð°
Ġpred ecess
Ġra ises
ĠDragon OK
ĠEm bedded
Rec e
Ġaccur ately
Ġess ence
Ġshot s
Dec ember
Ġstri kes
ĠLike wise
IL TO
ĠAnaly zing
ĠEconom ic
Ġrestart ed
Ġbound ary
Ġdialog s
Ġupgr ading
Ġremed iate
Ġbuy ing
Ġiter ates
ĠAssoc iated
Ġflo ating
ĠPS EXESVC
Ġcommit ment
ĠBan load
Ġsomew here
ĠRo ad
Ġfav our
BL IC
Ġdraw ing
Out put
Ġdescript or
ĠArch itect
ĠCOR E
Ġscore s
ĠGR IZZLY
ĠPhot o
ĠCond uct
ĠGO V
ĠBelg acom
Ġmenu Pass
Prot ocol
hh hh
Gener al
Ġaf ternoon
ĠSand Box
164 1
ĠCharacter ized
lt imately
ĠSel f
Ġpreced ed
Ġenem ies
priv ate
ĠXtreme RAT
Ġsy ntax
Inv estig
Ġconcaten ated
resp onse
ĠSL Server
AY FISH
ĠHol iness
Ġpure ly
ĠAltern atively
Clear Sky
Custom ers
ulo us
Ġram FS
ĠThom as
Plug X
Ġappoint ments
Sep tember
Ġsurf aced
iD ionis
ĠPolit ical
ĠPoly glotDuke
Victim s
pas ec
ĠWE BC
ĠTermin ator
Ġdispar ate
hxx p
Ġdevast ating
Ġ""" &
Nove mber
ĠCram bus
ĠDTOP TOOLZ
ĠGrum man
witzer land
ILTO SS
, .
, âĢĺ
2 11
4 06
5 03
= %
A ug
B F
C red
E qu
G ate
H ang
H igh
I Q
M ag
O UT
R A
R ecom
T oday
U rl
V ideo
V ision
W E
W ait
W ui
b one
b rite
c art
c ensorship
d on
f arious
g it
g lobal
i pper
m il
o uth
p x
r pc
t g
u f
v b
v ili
w ould
x D
x or
¨ é
Ë Ĩ
Ð ¶
Ø ³
å °
ç §
in ity
Ġc s
it ech
is oft
al es
Ġf its
Ġf tp
Ġf abric
Ġp le
Ġp id
Ġp ending
Ġd ictionary
ro xy
ar c
il og
Ġm r
an ied
Ġre tool
Ġh al
ĠT P
ĠT en
Ġe a
ĠS idewinder
ĠS witzerland
ĠC am
ĠC ache
20 04
ĠA rid
ĠA UTH
Ġ( @
Ġ( ''
Ġcon vert
ĠI tem
st ype
ow en
ot s
ot or
ore a
ĠM it
Ġor ders
Ġg en
Ġg ar
ĠP H
ĠP T
ĠP os
ĠP ty
ĠP eter
ĠW rit
ĠW izard
ĠD ir
ĠD ong
ch o
ch annel
ĠR PM
rom eda
ĠF ail
ĠF ocus
ĠU ID
ke ley
th en
th read
el ect
ĠE u
Ġinf or
ist ically
per ties
Ġad mitted
Ġare na
Ġst ret
Ġst reet
ĠH E
ĠH istory
ug gle
ĠB B
ĠB Y
ĠB a
ĠN B
Ġun labeled
ĠG olunski
ĠL ayout
ĠL URK
Ġsp ike
ill ed
ther n
Ġacc ord
Ġsystem atic
Ġapp liances
ĠJ ude
ĠV ent
ĠV ill
ĠV oice
Ġab unasar
Ġpre defined
co ok
co py
ĠCh apter
Ġstr ugg
ens us
Ġtr acing
out s
Ġreg ul
Ġspec ulated
ĠAP K
ĠSer ge
ĠSt ill
Ġfollow ers
Ġinv okes
uss ed
Ġenc aps
Ġdes k
Ġdes erial
ĠRe ading
Ġout break
Ġpay roll
Ġsc ramb
Ġinte gers
Ġres ilience
ĠWeb mail
ĠApp in
ĠApp Scan
In side
Ġj ail
net ic
Ġtyp o
ĠOr der
Ġmet ric
Ġne farious
13 7
13 8
Ġcons iders
ov ich
Ġpublic ally
14 0
14 3
Ġqu ote
og ether
25 7
olog ically
rain ing
24 1
ci ent
Ġz omb
Ġspecific ation
Th us
Th anks
05 4
05 09
Ġtrans late
sh ockwave
ĠZ ip
ĠAl most
Wh o
app y
Ġshould n
St orage
por ary
fil ename
con sole
38 9
Ġel ite
Ġsm b
Ġpersist ency
ĠComp anies
inter face
IT DS
AD D
Script s
ĠCSC th
ĠCSC ud
ĠCSC to
Ġrepresent atives
Ġtem pt
ism atch
back ed
ĠAt om
ĠJo ong
ĠGe o
EN BT
Pl us
ĠPDF s
ĠGold en
like ly
89 0
ĠSE A
ĠGener ation
Ðµ Ð½
Ðµ Ðº
ren ce
ĠDes ert
HE ATE
ĠAPP DATA
=" _
ĠInv est
Ġet hn
ĠExecut ive
Log ic
ĠDri pion
ĠLog ger
ÑĤ Ð°
Ġprint ing
ĠCSCt f
System Root
Ġhook ed
yn chron
ĠWhite Bear
controll er
ane ous
ĠSub system
Ġtermin ation
Ġrecover ing
Ġclean ed
Ġclean ing
ĠPost Script
Ġinser ting
Ġillustr ation
Ġdisrupt ing
ĠTor onto
Ġide al
opt ions
Ġer a
CT U
yd ra
ĠCS RSS
PL UG
Comp rom
lip kart
Bu ild
Ġkill ed
Ġdigit allinx
Ġsmart phone
ĠAb out
Ġspeak er
Ġisol ation
ĠCC D
Ġindepend ence
Ġinterpre ted
Ð» ÑĮ
Last Error
hand le
util us
ĠPS Y
Ġschool s
ĠAutom ated
Ġimpress ions
ĠMP K
arb age
ĠMir ai
ĠSilver Stri
Ġtweet ed
Ġcompr ises
ĠFL ASHFLOOD
Ġboard s
ĠDeep water
Ġnavig ate
Ġunpack s
Ġaccomp anied
Ġcrack ed
dri ve
Ġå ¹´
ĠHam mer
Ġdepict s
ĠMed ical
ĠLight sout
ĠIntegr ated
Ġadj acent
DOC U
Enc rypted
Ġtal king
ĠAng ler
Ġord inary
pn f
Ġsy nd
Ġconven ient
Ġinher ent
Ġmim icking
ĠEV ILTOSS
Ġinnoc ent
Ġstyles heet
Ġdisas semb
ĠGul f
ĠLic ense
ï¬ĥ c
Ġrevel ations
Ġbread th
ĠMu hammad
Ġband width
ĠMel tdown
ĠHung ary
ĠEduc ation
Ġphotograph s
La unch
context is
ione er
Ġenrich ment
Ġoverlook ed
Ġbatter y
ĠPeters burg
ĠAdvant ech
ĠCamer a
ĠSilverStri pe
" :
* ]
0 10
A h
B o
B ro
B as
B log
B esides
C B
C nC
D ist
D HS
D rop
H ave
M icro
M ake
M ultiple
N SA
N ECT
O p
S G
S ave
S cout
T ra
T ick
V ault
V alid
b ig
b lack
b mp
b locks
c ab
d owner
f re
g ian
h g
h lp
h ima
j acking
l as
m ond
m ps
n ation
n ode
o site
o ffic
p olit
r ors
r ansomware
s ur
t ility
v a
y uk
z w
Ã Ĺ
Ð Ł
Ø ¬
ï Ĥ
Ġt witter
in el
in ternational
re lease
Ġo ct
Ġb f
Ġb om
Ġb ullet
Ġb zip
Ġb ooks
al low
Ġw onder
Ġp aste
Ġp ushing
ic ient
ec x
ar ah
an o
et ed
Ġre comp
lo ut
ĠT roj
ĠT we
ĠT error
ĠT itle
ĠS ix
ĠS ingle
ĠS HE
ul ative
ĠC ub
ĠC yberspace
ly wood
un te
he less
ĠA sh
ĠA udit
Ġ( ~
ĠI W
ĠI ll
im ity
ig ious
if orm
Ġex cess
ol t
ter ror
pt r
Ġg em
Ġg allery
Ġg libc
ĠP ictures
ĠW S
ĠW ired
ĠW ADA
ĠD har
ĠD istrict
ĠR ange
and estine
ke ye
el come
so cket
ĠE R
ĠE uro
00 6
ĠH a
ĠH ook
ĠH ole
ĠH otel
tem plate
ĠN at
Ġun rest
ber ry
ĠG mb
Ġr ar
Ġco erc
ĠL SA
ĠL ights
all s
um fant
Ġbit map
Ġse mi
Ġinformation al
Ġch ips
Ġsh im
ord an
ĠJ Script
ĠJ SSD
Ġle aking
Ġpo lymorph
Ġdis miss
ĠV ery
ph en
Ġso urced
Ġ4 45
ĠK VM
co unter
com puter
pl us
vers ions
to ps
ech en
Ġgroup ed
ĠTh anks
Ġreg ulations
Ġreg ression
ap on
ĠX MPP
Ġke en
Ġpl ays
Ġcyber war
ise ment
yp ass
Ġhost ilities
12 34
ree ment
Ġpub lisher
urre d
uthentic ation
Ġres iding
str act
Ġk ing
ĠWeb Core
Ġav oided
ĠWh ether
Ġhand ed
ĠEn s
ef ined
25 3
Ġac ronym
Ġph rase
ob served
27 20
24 7
Ġcl andestine
Ġtra its
23 3
AR F
ee per
06 11
Ġtrans it
Ġtrans formation
ĠAl leged
Ġrefer r
Wh ere
ik t
MS G
38 6
par ser
par ameter
Ġ14 8
ĠQ t
ĠQ amar
Ġmin ister
att i
We aver
Ġrespons ibilities
ĠTr aditional
ward ed
ĠPower Duke
Ġrev ision
Re AT
AS P
ĠDef eating
Ġgu idelines
md b
Ġlim iting
Ġcharacter ize
PS EC
RO D
88 5
Ġplace ment
we gian
let ter
100 4
Ġinstruct s
ĠSte am
Ġequ als
Ġadvert ised
Ġgreat est
ĠIm plant
ĠAss istance
ĠLe ft
Ġfr action
Un install
Ġsk ip
Ġbl ame
ĠInv ensys
ĠVPN s
Ġsn oop
ium phones
Ġflag ged
Tr ust
Ġstrict ly
ĠSm oaler
print s
ĠDocument ation
ĠSO A
public in
su ky
ĠNews foryou
ĠIN I
Ġunc ertain
Ġdi aspora
Ġsafe ly
ĠEv ents
Ġredu ces
++ )
Ġprep ended
vest ing
Ġtrain ed
Ġstudy ing
Sp ear
ĠDWORD s
DR UG
ĠKe ys
Ġrepe at
Ġwid get
Ġreboot ed
ĠImage IO
Ġ75 15
Ġtunnel s
des ktop
Ġimperson ation
Dec rypt
Ġparticip ate
ĠCer tain
ĠDoc uSign
ĠMe anwhile
Ġstri pped
Ind ia
ĠCall Manager
Ġsort s
Ġtw ist
Ġcoinc ides
ĠDist track
lim ited
Ġsto pping
ĠEar ly
Ġcontr ary
ĠFilter ing
Qu est
Ġresemb lance
ĠASP X
Ġharm ful
hack er
Ġap i
ĠChange log
ĠïĤ ¡
Ġhot fix
Ġsurprising ly
dis play
sv n
Ġovers ees
ĠSpy Net
Ġyield ed
ĠGR AYFISH
Ġroll ers
ih oo
Ġrecurs ively
ĠHam as
ĠContain er
Ġinnov ation
cre ated
ĠEQUATION DRUG
ĠSel ect
xc ls
Ġcul min
Ġcam ou
ĠBo eing
ĠSG H
Ġdead line
Ġrepro gram
Ġssh d
Ġpas sport
ĠKu bernetes
Ġundert aken
Po ison
xf ord
Ġexhaust ion
Ġbo ost
ĠCha fer
norm al
Ġscient ific
ĠAnn ex
Ġsock ets
clear skysec
Ġconstr aints
comprom ised
appropri ate
ĠAdv travel
Ġloose ly
ĠNiger ia
Ġelabor ate
ĠCour t
ĠFan ny
ĠDelet es
fol io
ĠCompact Logix
ĠGin Wui
ĠJoan ap
Apr il
×Ļ ×
ril lic
ĠAbd ul
Ġethn ic
( $
) (
) âĢĿ
9 002
: ]
B G
B ASE
C ase
C osm
C rouching
E U
E VENT
F ont
F acebook
I IS
M Y
N orton
P ad
P itty
S qu
S oc
T er
T IFF
W W
W ipbot
X t
\ <
] âĢĿ
b ad
b ined
b tz
c or
d p
g allery
m z
m ult
m atic
n ow
p u
p ers
p op
q ing
r m
r ad
s ic
s av
s ized
t x
x es
z stan
· Ð°
Ù Ĥ
Ù ĩ
â ĺ
ã ģ
å Į
ç ļĦ
Ġt ip
Ġt iny
Ġa uxiliary
in ery
in ternal
Ġc heap
Ġc rypter
Ġo mitted
es i
is ons
al i
Ġw ab
Ġp c
Ġp m
Ġp cap
ic ation
ic ide
ro py
il ient
Ġm unicip
as ible
lo op
Ġh um
Ġh inder
ĠT ab
ĠS ich
ĠS em
ĠC AS
Ġn av
un signed
he ed
he mer
ĠA ud
201 9
ĠI HEATE
id n
ĠM E
ĠM ike
ĠM att
Ġfor th
Ġ1 39
ag en
Ġatt end
ĠP etya
Ġas ide
ĠW u
ĠD im
ĠD CS
ĠD ES
ĠR aqqah
ĠF O
ĠF ig
ĠU ber
Ġ. ...
el ve
el led
ĠO M
ĠO V
ĠO PSEC
ĠB ad
ĠB TC
ĠB rian
ĠB aidu
ĠN ed
ĠN orton
Ġ2 50
Ġr h
Ġr ail
sp x
ĠL ear
ĠL ateral
ĠL arge
art icle
um ps
ud ong
ud imentary
Ġbit wise
Ġse a
Ġ" [
ex port
em issary
Ġem an
ord e
ĠJ ordan
ip ing
ear th
ĠV ia
ph oto
Ġfil ing
Ġdo ors
co pe
com ments
Ġx ls
unct ional
Ġmod er
ĠCh ild
to k
Ġy er
Ġy ahoo
Ġy ellow
Ġover come
arch ive
Ġtr ampol
Ġ8 080
Ġ20 2
Ġreg svr
ap d
Ġpl ants
Ġdec line
ĠEx ception
ĠEx pos
ĠEx cell
Ġev id
Ġdirect s
cal ly
Ġinter ference
10 11
10 14
ĠRe venue
Ġprov in
Ġval ve
Ġout let
Ġout look
Ġout going
Ġprocess ors
ĠIP sec
Ġres ide
Ġres ilient
Ġset uid
Ġnam espace
ĠWeb ex
Ġwork ings
In put
Ġsub key
Ġsub tle
Ġj ar
Ġj uris
ons ive
ĠEn able
Ġdri ven
Ġsend ers
17 44
25 68
ĠAd vert
ĠAd versary
Ġmon ik
27 19
ash i
ick er
19 1
ĠComm ons
ĠOS CE
Ġ12 2
Ġass ass
ĠY andex
06 06
Ġtrans mits
ER VER
ĠZ end
Ġadditional ly
29 5
29 6
ĠAnd rew
ĠAnd romeda
Ġfam ous
pro of
Wh ite
ĠWin Exec
Ġreal ize
ĠDec rypted
ĠAll en
Pro ject
Ġattribut able
Ġ* ((
Ġless er
Ġtext s
ĠFin nish
ĠDe vices
ĠService Main
Ġfail ures
Ġgu ide
Ch art
RO OT
ĠNet Weaver
ĠNe ither
ĠProt ect
Ġspecif iers
sc arlet
view er
Ġbr aries
MD B
ĠBit defender
Ġvirtual ized
Ġoutput s
Ġnet stat
ĠLe ad
Ġdot s
Ġconcer ted
Ġoverl ay
Ġtag ged
conf irmed
UR I
Ġann iversary
AB ROD
ĠLib raries
ĠLib TIFF
ĠMon ero
Ġplan e
Ġprompt s
ĠCSCt g
def ense
ĠCri minal
ĠIN TE
ĠSC R
Ġmanip ulating
Ġenumer ated
controll ers
Ġtermin ating
By te
Ġpe ers
Ġcontract s
Ġcompet ing
ĠSMB v
ĠEX EC
ĠTrans lation
Ġbreak s
Ġinvest ments
iber t
mon th
ĠLast ly
Ġclos es
Ġkill ing
ĠSmart Screen
Dec oy
Ġsys get
rec v
Ġtw elve
Or acle
ĠDirector ate
ĠSecond ly
Ġce ased
Ġviol ence
ĠVideo LAN
ĠDon etsk
Ġsimpl ified
Ġconsult ant
Ġaggress ively
Ġestim ates
Ġpret end
Ġexhib it
iffer ences
ĠCH AR
ĠFL Y
Ġsummar ize
ĠMalays ian
oft en
ĠSak urel
Ġspons ors
dri ven
ĠAL W
Ġexchang ed
Ġindirect ly
iph on
Install er
ĠIntegr ity
ĠSpr itz
ĠKor plug
ĠMot ives
Ġ\\ .\
Ġexplor ing
Cri minals
Cri mson
ĠDeputy Dog
ĠKu wait
Ġdefinitive ly
Ġfreed om
ĠRegard ing
Ġpursu ing
|| |
Ġmigr ated
ĠPract ical
Ġcentrif uge
Ġquiet ly
execut ion
ĠAli en
å¤ §
Ġunp acking
ÑĨ Ð¸
Ġheur istic
ĠGovern ments
ĠSistem as
ĠProced ures
ĠConsult ings
Ġlegis lation
Ġepis odes
Ġæľ Ī
ĠTalk Talk
Ġali ases
Kar agany
ĠIEX PL
Ġunnecess ary
ĠJoong Ang
ĠSich uan
ĠExcell ence
' d
( &
+ ..
. :
4 37
5 38
6 33
= [
= âĢĻ
> ,
? âĢĻ
A udio
B ar
B lock
B abar
D oping
E nd
F IG
G ER
K K
K HTML
L ine
M et
M oose
O TRS
P OR
P ublic
S k
S FX
S ometimes
T V
T icket
U AC
V ulnerability
W N
\ %
b ank
b lu
b uster
b bs
c ampaign
c olor
e X
e pt
f o
g oo
h es
h ns
h older
i ates
i ating
j i
j un
m ay
m obile
m agic
n oc
t age
u pt
v net
v alid
w eek
y O
y o
Â Ĳ
Ã ĺ
Ð Ŀ
ç »
Ġt mp
Ġt rial
in st
in jection
re al
re ci
Ġc ess
Ġs vc
it as
it ative
or osh
Ġb oun
Ġb ought
Ġw nC
Ġw oman
Ġf er
Ġf al
Ġf le
Ġf em
Ġf ru
Ġf ears
Ġp db
Ġd s
Ġd u
Ġto psec
ec king
ar se
us ually
Ġm fc
an i
Ġv e
Ġv Center
Ġh one
te x
Ġe Safe
ĠS A
ĠS ending
ĠS enior
ul s
ĠC I
ĠC lo
ĠC he
ĠC ook
Ġbe ars
ĠA B
ve illance
Ġ( %
ab ad
ri m
ri zz
ver ted
Ġcon sp
ĠI k
im id
ad ows
ore t
ĠM T
ĠM ing
ĠM un
ĠM ount
ĠM usic
ĠM oonlight
Ġl acking
Ġex ternally
Ġ1 24
are s
are nc
Ġg arbage
ĠP sy
ĠP ulse
ĠP orosh
ess Master
ĠW il
ĠW ind
ĠW EB
Ġal ly
ĠD a
ĠD OS
ĠD IR
ĠD NA
ch en
tr an
ĠR andom
ĠR iver
ĠF rame
ĠF older
ĠE c
00 000
ĠO pp
ĠH orde
ĠIn n
ĠIn sp
ĠB owen
ere ason
ĠN az
Ġ2 10
Ġ2 55
ĠG A
ĠG re
ĠG ro
ĠG ra
ĠG ithub
arg o
ff ff
Ġsp oke
ost art
um lib
ud dy
ant a
Ġch ina
Ġsh opping
ĠV C
Ġcan cell
ans k
Ġconf use
rig uing
Ġar ising
Ġdiffer ed
Ġdec ades
ĠSt ri
Ġinv asion
10 13
Ġtool kits
ĠRe verse
yp ical
Ġpay s
Ġ11 5
str ucture
ep al
ĠWeb Logic
Ġsub stitute
Ġj pg
Ġj uche
ĠWh ich
13 4
Ġund isclosed
28 5
28 89
Ġcred ible
07 5
27 32
27 22
27 31
ick lock
me ga
Ġcl as
ĠSh ared
Ġint riguing
ĠCon tractor
04 01
Ġorder ed
ĠY O
ĠY ang
IS ON
Ġtrans cript
sh ore
ĠInd ependent
ĠZ X
ĠZ lib
ĠAr c
oz u
Ġred ucing
Ġtim er
app data
bit r
ividual s
aj a
Ġsteal ers
ID S
Ġown s
red ict
Ġkn ock
ĠOpen ID
att ach
IP E
Ġblog post
ĠTr usted
RE CT
Ġappro ved
mit t
Ġrev is
Ġroot kits
man ent
ath an
Ġauthor ization
Ex it
Ġobfusc ating
Ġarch ived
ĠCSC uc
ĠCSC td
ĠÐ ¼
ĠEnterprise One
Ġstand ing
Ġmill isec
back door
ĠAt tempt
let es
Ġspecial ist
ĠSaf ety
sc reen
Ġhead quartered
ĠSE LECT
Ġimpro ving
Ġequ ipped
Ġoverw hel
APT s
Ġvol unt
Ġvol unte
ĠLe aked
Ġ\ "
Ġbl ind
Ġreach es
ĠFree gate
ĠSim plified
ĠSn ort
ĠMod ules
ĠVM Ware
Ġnear by
ĠExecut es
ĠPar ameter
Comm ands
Ġprompt ly
DB MS
ĠCSCt j
But ton
Ġpen insula
su pp
udi os
He al
Be h
Cont roller
chedul ed
Ġprox imity
Ġinform a
Ġclean up
Ġiniti atives
Ġinser ts
ĠPr ince
Ġpe ak
ĠFeder ated
ĠTele Port
ĠLong horn
fl ag
ĠScan ning
Ġexcept ionally
ĠCy rillic
Dr ug
Im port
ĠNa utilus
Ġaud iting
Bu f
ING S
Dec ode
Ġshe er
ĠAuthor ization
Ġstay ing
Ġparticip ation
Ġsecret ly
Ġmicro code
Ġstri p
1000 24
ams ala
ĠAnaly zer
ĠCC leaner
Ġdisco vers
ĠPe ace
Ġprefer ences
Ġcontr ad
== ==
Ġhospital ity
Ġinterf ere
ĠCred it
ĠPhilipp ine
ĠBot s
Ġscr utin
Ġengage ments
Ġprincip le
ĠPerson nel
ĠKy r
Ġyield s
Ġsimultane ous
Ġmasquer ade
Ġevalu ation
ĠHand ler
Ġbid s
Ġprepare s
ĠMor an
found er
writ able
ĠHunt ing
Ġconcentr ated
ĠNor wegian
ĠGlass Fish
obfusc ation
ble ed
Ġtal ks
Ġpreced ing
Ġord inal
Del ete
register ed
ĠCommer cial
water ing
secure list
ĠHol lywood
Ġthorough ly
enor off
Ġcritic ized
Ġvertical s
Ġrevers ing
ĠImport ant
Ġgeo location
Ġtamper ed
Ġwra pped
Ġtransp arent
Priv ilege
pan ic
Ġpursu it
Ġcentrif uges
elle brite
ĠXBAP s
ĠCyb ozu
ĠCU CM
Ġdissemin ation
Ġconcurrent ly
ï»Ł ïº
Ġwel come
Ġindiscri minate
Ġretal iation
Ġelimin ate
trend micro
adu ate
Ġseparat ists
Organ izations
Ġbor row
Ġtel net
feature d
Ġinconsist encies
ĠWilli ams
VID IA
Ġincred ibly
ĠPU BLIC
Ġretool ing
ĠGmb H
:] //
BG ary
hemer al
ĠwnC loud
rizz ly
arenc y
ĠPorosh enko
! )
/ ?
5 000
6 15
9 15
9 19
B oot
C ob
C ruft
D av
D ino
G old
G rid
H er
I tem
K DC
M SS
M AN
M andiant
N L
O B
O rigin
P at
P ity
R andom
R oman
S I
S ur
S and
S rv
T H
T aiwan
V BA
W ind
W RF
W TR
W LC
W ASA
Y et
a ef
b ind
c py
c ategory
e z
f old
h u
i pp
l an
m ess
m ath
m akers
n ch
p v
s z
t ier
t asks
u ve
y l
y ls
| %
£ Ðº
æ Ķ
Ġ ä¸
Ġt in
Ġt ut
Ġt ends
er on
Ġth ieves
re ported
re place
Ġc ybers
Ġc aching
at ility
Ġo g
Ġs av
ed ge
es is
Ġb orn
Ġb inder
Ġf ed
Ġp ause
Ġp uzz
Ġd dr
Ġd uty
ro se
Ġm b
an te
Ġv o
Ġv et
Ġv ot
Ġre q
Ġre ass
Ġre location
le ge
Ġh ind
Ġh ub
Ġh ierarch
ĠT a
ĠT ex
Ġe ast
ĠS B
ĠS ound
ĠS vchost
ĠC L
ĠC ard
ĠC lean
ĠC ipher
am co
am AV
ĠA W
ur f
ur ity
Ġ( /
Ġcon vic
im ents
id a
ig ner
if i
ore n
ĠM il
ĠM ET
Ġl abor
Ġl ikes
Ġex em
Ġex clusion
Ġg l
Ġg ran
Ġg mail
ĠP resent
ĠP II
ĠW ong
ĠD jango
ch ina
ĠR O
ĠR a
ĠR om
ĠR oc
ĠF ars
ĠF reedom
ĠU PS
ĠU mb
ĠU tility
ke l
est s
ĠE F
ĠE lement
ĠE OS
ĠE ms
ĠE AP
qu is
ĠH on
ĠB ig
ĠB und
ĠB road
ĠB astionSolution
ĠB rowsing
ĠB MW
ĠN FR
Ġ2 27
ĠG as
ĠG PU
Ġr and
ff f
sp h
sp ear
Ġfile less
ĠL ure
ĠL ife
Ġsp elling
ud a
ant ine
end ers
Ġ" /
Ġ" ..
ex ecute
Ġacc um
ĠJ ak
Ġca f
cript or
ust ar
ĠV ir
ĠV ict
ĠV iews
ach s
ang ing
com es
com ment
ase er
Ġ20 4
ser ving
ĠUn til
Ġimp licit
ĠX R
Ġspec i
Ġany way
Ġenc odes
AT ER
32 3
Ġlog file
ĠSP ARC
Ġanal og
Ġactiv ates
Ġactiv ating
ru ex
Ġk r
In ternals
Ġro se
Ġj unk
be fore
ĠOr ange
ĠPro perty
Ġ/ >
Ġpublic ity
17 23
Ġcustom ize
27 18
27 23
27 21
ick y
Ġext ends
ĠMan ip
ĠSh op
Ġpath names
the y
Ġint end
Ġi Sight
04 22
sel ect
ĠY u
33 37
33 40
Ġunder mine
sh ared
ĠZ a
ĠAl ong
Ġinitial izes
ĠAr bitrary
Ġrele vance
Ġtake over
AC HE
ĠCont ents
gy zstan
Ġam pl
Ġcount less
Ġprob ing
ĠUp dates
ĠWin log
Ġaut onomous
Ġyour self
ĠQ ue
Pro duct
Ġsel ecting
ĠSp read
RE SS
Ġ< !
ĠMin i
ĠDe ibert
inc orrect
epend ence
Ġfail ing
ĠÐ °
Ġmode m
Ġrepresent ations
wh en
ĠSc r
ĠSc ore
ĠAS N
ĠNet BIOS
ĠIs bu
ĠMalware bytes
Ġnote pad
CC MDB
ĠGe vers
Ġpos itives
Ġprom oted
Ġbas eline
ĠCor ps
ĠInter im
ĠUser name
RC E
ĠRed line
Ġop codes
Ġmov zx
SP Y
part icular
ĠSte ven
Ġstud io
Ġprof essor
aff ected
ĠResp onsible
ĠNot Petya
DP R
Ġinstitut es
Ġnational s
Ġwin logon
ĠDes tructive
ĠVis a
HE AD
PU T
Un known
Un ited
TI A
ĠCl ub
ĠCl amAV
Ġdetermin ation
Ġhar ass
ĠSn ap
ĠLib ya
Ġsn iffer
En able
En abled
En umer
Ġinqu iry
Ġgood s
Ġestablish ment
Ġtot ally
Sh adow
ĠDro ps
ĠCSCt b
Ġmis used
ĠPC I
ĠDel ivery
ĠDet er
ĠEd ward
Ġdig ging
ĠDocument um
ĠPre view
Ġcomb ine
ĠFirst ly
Ġhop ing
Ġquestion able
ĠBlog Palo
Ġconstruct ing
Ġescal ated
Ġmanufact ured
ĠPost al
Ġintro ducing
ĠQuick Heal
ĠFl ags
Ġintent ional
Ġswitch ing
Ġgraph ic
Ġinvest ed
Ġtelecom s
Ġreli ability
ĠSign al
ha ar
Ġschedul ing
ĠCN N
Ġaler ting
Ġsl ang
ĠAb unasar
Ġcoordin ates
Ġspeak s
ĠSimilar ities
Ġvi able
Ind icators
sl t
ĠOP M
Ġmount ing
Sim ple
Le g
PRO GR
access ed
Ġposs ession
Ġcontribut ions
Ġconcept s
Ġinstant ly
Ġsleep s
Ġattr acted
Ġviol ation
CO MPUTER
sm tp
Ġdiv ide
Dis able
hack ers
ene uve
omet hing
Ġap olog
ĠBot tom
Ġexplan ations
Ġretail er
ĠSys Internals
Ġdeep ly
Ġcovert ly
lab s
Ġphish ers
ĠImp act
ĠInit ially
Per haps
Ġroll ing
Ġrecurs ion
Ġconvent ions
019 9
"> âĶ
writ ing
ĠDig oo
ĠLat in
ĠIntegr ation
Ġconcentr ation
ĠHome page
ĠLeg itimate
Ġimag ery
ĠChrist ian
Ġfa ux
Ġheart beat
Ġnotor iety
ĠCrypto Wall
mt ab
ĠAlex ander
ĠLock heed
ĠExper t
agnost ic
Ġcritic ism
Ġdent ity
ĠPen etr
que ue
Ġabsolute ly
ĠTri umfant
ĠTav is
Ġmsv ci
Ġdisas sembly
-------- --------
ĠCyb ereason
Ġoccup ation
Ġmisle ad
Ġmisle ading
Ste p
ĠImpro ve
âĶĢ âĶĢ
ĠMis dat
Io Control
inent al
pay ers
Ġporn ography
Ġrenew ed
ĠActiveM atrix
ĠMongol ia
ĠSmarter Stats
Ġscal ing
Ġalar ms
ĠCRE ATE
dro pping
Cy lance
Ġmob il
Ġassert ion
ĠSwed en
Ġcontrovers ial
GRO UP
alers Choice
Ġanalyt ical
ĠHAN A
ĠCollabor ation
ĠManage Engine
ĠSU CCESS
Ġresell er
Broad Win
ĠAbs olute
ĠArchitect ure
Aug ust
Recom mendation
Ġgar ner
Ġstret ch
ïĤ ·
Ġevid enced
yO mega
ĠIk arus
Ġddr log
ĠEms isoft
! "
' m
+ ~
0 11
5 64
5 86
6 27
B ank
B rantall
C URRENT
E h
E ns
F AE
F unction
G FI
J ECT
K V
L V
M ond
P D
P F
P RC
P acific
R ad
R ather
S ocket
S OCK
T ran
T ool
U NT
V D
W ool
W AL
[ .
\ {
a way
c ol
c ms
c red
d igital
h w
l r
m ind
m ov
n ext
p d
p se
p ix
r ick
s b
s an
s chool
t m
t ar
t ap
v iev
w est
| '|
Ð Ķ
Ð ļ
Ñ Ĺ
Ù ģ
ã Ģ
ã ĥ
æ ĸ
Ĉ ï¿½ï¿½ï¿½ï¿½ï¿½ï¿½ï¿½ï¿½ï¿½ï¿½ï¿½ï¿½ï¿½ï¿½ï¿½ï¿½ï¿½ï¿½ï¿½ï¿½ï¿½ï¿½ï¿½ï¿½ï¿½ï¿½ï¿½ï¿½ï¿½ï¿½ï¿½ï¿½
Ġ è
Ġ nd
Ġ ib
ľ âĶĢâĶĢ
Ġt m
Ġt ort
Ġt ive
Ġt ier
Ġa pr
re q
re boot
Ġc mp
Ġs s
Ġs lo
Ġs urre
ed u
en a
en yang
Ġf lows
Ġf ax
Ġf lu
Ġp ain
Ġp ace
ec oder
ar pa
ar atus
il g
Ġm o
Ġm ismatch
ac cept
om ation
lo per
ĠS J
ĠS pe
ĠC AST
ĠC IFS
he ld
ĠA ad
ur d
ab b
ab ber
ri ad
Ġcon gl
Ġat om
ad in
ĠM i
ĠM utex
Ġl s
ag o
ter ed
Ġg rew
Ġpro portion
ĠP od
ĠP TR
ate l
ĠW ATER
ĠD R
ĠD un
ĠD em
ĠD ok
ĠD word
ĠD OT
ir ks
ĠR R
ĠR GB
ĠR DBMS
ĠF B
ĠF ight
ĠF lex
ĠF unctions
Ġcomp ro
ĠU z
ĠU NC
up grade
so phos
ĠE mdivi
00 97
ĠO OPS
ĠH ac
ĠH ay
ĠH ire
ĠH eb
ĠH ij
ĠH worm
ĠH BGary
ĠIn put
ĠB D
ĠB in
ĠB ox
ĠB rantall
ĠN art
ĠN ames
ĠN uclear
ĠN epal
ĠN VIDIA
Ġun serial
ber t
ĠG B
ĠG ot
ĠG ames
ĠG ray
ĠG REF
Ġr d
Ġsu ff
Ġsu fficiently
Ġsu icide
ĠL ang
ĠL ever
Ġ3 02
Ġ3 01
lic ity
ant ic
Ġse x
Ġse ize
em s
li ant
Ġsh ap
Ġapp reci
ĠJ E
ĠJ Rat
ĠJ AX
ĠV ALUE
ĠK o
ĠK ov
ĠK EY
ens ed
Ġtr unc
out ube
Ġreg imes
ap se
do ored
Ġvictim ized
ĠSt at
ĠSt udios
Ġany time
Ġinv ited
Ġinter vention
10 24
Ġrem inder
ĠRe le
ĠRe ve
Ġout lier
Ġout comes
Ġlog out
Ġsc rap
Ġhe ist
SS WAL
Ġconfig ures
Ġres ident
Ġif rames
Ġaccount ing
15 48
pr itz
Ġtyp ed
ĠPro ble
Ġmet rics
Ġpers u
Ġloc ating
18 50
Ġthere of
Ġno body
14 7
Ġsupp ose
og u
Ġph ony
ob j
ĠSo phistic
27 25
27 35
27 34
Ġprogram me
OR A
Ġz h
Ġafter math
lear n
Ġsens or
the me
// //
Ġadv ising
Ġfe asible
04 8
Ġass isted
Ġass adcrimes
ĠY ABROD
33 38
sh ould
ĠAl ger
ĠAs sembly
AC T
Ġfin ish
pro gram
NS OC
Wh ether
Wh atsApp
Ġlook out
gin s
Ġpresent ing
ON T
oot ing
Ġban ned
Ġconc rete
Ġ14 6
ĠQ U
Ġsel ective
ĠComp ute
ĠMS P
ĠMS XML
Ġless on
ĠFin al
AS Y
AS LR
man aged
AD NE
59 9
Ex plorer
ron es
ĠCSC ug
Ġed e
58 5
RO SSWAL
ĠNet gear
host ed
host name
ĠReal tek
ĠReg Duke
ĠProt ected
Ġï¬ģ eld
ĠTrend s
bin ary
ĠMy BB
ĠGo od
ĠCloud yOmega
Ġaccept ing
Ġaccept ance
pre viously
Ð° Ð½
100 2
Ġmov ies
ne got
SP OUT
ĠSte aling
oney well
Ġprof icient
Ðµ Ð½Ð¸
Ġcorrespond ed
=" __
ĠRT U
Ġquery ing
Ġmitig ated
ĠWar s
ret urn
ĠPh ysical
Ġwater mark
Ġdest abil
Ġdest ined
Ġpict ured
ĠPack ets
Ġur ge
ĠCSCt c
Ġfall back
ĠCT D
ĠPres ence
Ġshut ting
........ ........
ars on
Ġsandbox ing
ĠEv olution
Ġinform ing
Ġcr acking
install ed
Ġge ographically
Ġide as
Ġcompet itor
ordin ated
Process Packet
clus ive
Ġer ad
Us ed
Ġinsp ired
Ġtax payers
ĠInvestig ating
Comp anies
Ġlight weight
Ġadapt ive
ĠAN D
Ġmist aken
Ġcoordin ate
ĠIdent ification
ĠLoad s
ĠTR ITON
Ind eed
Ġdialog ue
Ġbuy er
Ġmax imize
Ġgrant s
Ġcomplet eness
ossib ly
Ġserial ized
Ġalign ment
Ġcontribut or
Ġmalvert iser
ĠRo aming
HK LM
Loc ation
Ġparent s
Ġsil ence
Ġwatch ing
ĠHash es
fire wall
Ġ*) (
Ġroll ed
LD AP
ĠIM AP
ĠOpt im
ĠOff set
ĠBelg ian
Ġsegment ation
Ġreput able
Group ware
rip bot
jo in
Ġcut ting
ĠShort ly
ĠBer keley
bel t
Ke ep
Ġmir rors
Ġaccident ally
Http Request
Ġprofil ed
Ġtack s
Ġpoll ing
ĠEnt ity
Ġdisp ute
Ġrevers ed
Ġquant ity
Ġecd he
OWN LOAD
ĠDV R
Ġtransp arency
Ġinnoc uous
Ġqual ified
ĠSen ate
ĠMov able
Ġfrustr ate
Register Server
Ġbol ster
Ġcategor ized
ĠChang es
Jo hn
ĠDiplom at
Raw Packet
ĠPV Z
Ġadobe air
Sel f
Georg ia
ĠRefl ection
Ġboo by
ĠPortug al
Ġartefact s
Ġculpr it
ĠFle et
russ ia
ĠStrong Pity
etermin ed
Ġbure aus
ĠDiv ision
ĠBuc keye
Ġclin ical
rint f
Ġoccurren ce
Ġswe ep
ĠHanc ock
Ġfel t
ĠDmit ry
Ġaccord ance
ĠVill eneuve
ĠHammer Duke
ĠDhar amsala
ĠChild ren
ĠINTE GER
ÂĲ |
Ġclas stype
ISON PLUG
ĠKyr gyzstan
£Ðº ÑĢÐ°
Ġtut orial
Ġpuzz le
Ġgran ular
sph rase
+~ =
|'| '|
Ġcongl om
ĠWATER SPOUT
ADNE WS
ROSSWAL K
% ,
( '
( [
+ âĢĻ
/ ;
2 23
4 322
5 20
5 23
5 56
6 56
7 10
= >
A ir
A uthor
A part
B ACKSPACE
C ur
C reat
C by
C oun
C ipher
C trl
D ro
H unter
L NET
L AS
M ING
M ini
N on
P eople
P CC
R ight
R aqqah
S X
S w
S uper
T U
T ele
T iny
T SM
U AE
W elcome
Y our
Y AH
b ro
c lean
c orp
d t
e ven
f i
f ar
f an
f ail
g id
g mer
h s
i u
k as
k ip
l ay
l ug
l ucky
m v
m ember
m enu
n fs
o pp
p edia
p resent
p erson
q q
r ate
s df
t ion
t ure
t ens
t ons
v id
x ec
z ech
¨ å
Â §
Ã ³
Ñ Ī
æ ĺ
Ġ ity
Ġ ub
Ġt ill
er ied
re ce
at ics
ed ar
it ime
it ized
es h
or ad
Ġb g
Ġb ases
Ġb raz
al and
Ġw mic
Ġf ather
ic ast
ar re
il er
Ġm ys
et or
om ew
as ure
Ġv ir
Ġv oting
Ġv ague
Ġh ol
ĠT ian
ĠT XT
ĠT enable
Ġe gress
Ġe Bay
ĠC md
ĠC OL
Ġn ice
ut omation
un known
ĠA A
ĠA DS
ur ations
ur cing
ri k
ĠI r
st op
st rap
ot ype
ĠM and
ĠM ade
ĠM ask
ĠM FC
ĠM IPS
ĠM utter
Ġwh ilst
Ġatt rib
ĠP AP
ĠP iw
ĠP upy
Ġas ser
Ġas ynchron
Ġal liance
ĠD J
ĠD ar
ĠD ie
ĠD ock
ĠD aemon
ĠD TL
ĠD LD
ĠD utch
ir rel
Ġwe ather
ĠR V
ĠR ack
ĠR end
ĠF ac
ĠF lipkart
ĠU ri
and em
el spy
ĠE ternal
00 09
ĠO G
ort o
ĠH u
ĠH an
ĠH oliday
ĠH ydra
ĠIn form
ĠB atch
ĠB EC
ĠB eta
ĠB GP
ĠN F
ĠN ok
ĠN ets
cc fg
ĠG DI
ĠG SM
ĠG IMP
Ġr ing
Ġr ity
Ġr ising
Ġr udimentary
Ġen orm
iv able
ire s
ĠL ists
Ġsp ending
Ġcode page
em en
Ġsh ipped
Ġsh adow
Ġob j
ĠJ ack
load ed
ip es
ak te
Ġdis ag
ĠV i
ĠV FW
ict ory
ach ine
Ġab ort
Ġpre serve
Ġmod ulus
pl ist
ĠCh rom
min ing
ecut ive
Ġgroup ing
ide ocon
Ġreg ex
Ġimp ly
Ġback ing
Ġvers atile
Ġgo v
Ġlog ger
Ġcomput ed
Ġwho is
Ġrec all
ru ed
Ġk il
TE XT
In ject
Ġ; )
Ġsub jected
Ġsub directory
Ġj un
Ġman agers
Ġtyp ographical
ĠEn coded
Ġcons ecutive
ld ap
hod an
14 10
Ġsupp lies
25 8
25 9
Ġmon etary
27 26
27 36
Ġdem o
ĠPl one
19 61
OR Y
Ġz er
Ġspecific ations
day biz
Ġret arget
Ġcl imate
ĠSh ield
Ġint imid
Ġadv ise
Ġadv travel
Ġ12 6
Ġdisc red
ĠTrojan ized
AR D
AR CH
ĠY ong
Ġinvestig ator
05 1
05 00
33 39
33 41
06 08
Ġorigin ates
Ġunder est
sh ift
ĠZ etter
ĠZ Company
Ġrep licate
Ġhard ly
Ġhard ened
ĠAr s
ĠAr amco
ugg able
Ġam ple
St udio
Ġcertific ation
ier i
Ġaut umn
Ġemploy er
38 7
Ġpersist ently
Ġcompl aint
IP R
RE CV
Ġ+ +
Ġpolit icians
Re al
Ġroot s
Ġ18 8
Ex am
Ex amples
less ly
Ġobfusc ates
ĠDef ine
ME M
Ġed ition
Ġdisclos ing
Ġfre nch
Ġcar s
ili ated
RO P
Ġclick jacking
Ġens ured
%\ {
Pl ay
ĠCor re
ĠInter loper
Ġmot or
ĠEl astic
Ġstud ios
Ag ain
63 32
ĠGeorg e
ĠXML HttpRequest
ram id
Ġreason ably
Ġsk ipping
Ġmult itude
69 1
Ġentire ty
ĠScript s
Ġes cap
lib rary
ĠPh il
ĠOb served
XX E
anc er
IA utomation
ÑĤ Ð¸
Ġdw ell
Ġur gent
Ġsitu ational
Ġbeacon ed
ĠPre viously
Ġcomb ines
ĠFore front
Ġconstruct s
ĠSub scri
Ġcalc ulations
ĠClear Quest
Ġadvis ories
ĠFl ag
Ġcontinu ation
dec oded
ĠiP ad
Sp ot
upload s
Ġmapp ings
Ġeduc ate
415 5
415 6
Ġstealth ily
lit er
Ġaffili ate
ĠAny where
Ġseg reg
Ġparticip ated
ĠMo udoor
rec orded
ĠAnaly st
RT F
Ġcollabor ative
Ġalter ing
ĠChar ming
Bot s
lim pse
Ġcat id
Ġunre stricted
ĠDevice IoControl
ĠSM N
CA LL
Ġfacilit ated
ĠCol lege
Ġpret ends
Ġexhib its
Ġsil ent
Ġsucceed ed
inte l
ĠBahrain i
ĠUpload ed
Object s
Ġretail ers
ĠCertific ation
agh i
ĠDen mark
ĠStandard s
414 8
ĠTra vnet
ĠImp lement
sock opt
ĠSur tr
ĠBr and
Ġmultip lier
Ġpredict ed
det ails
ĠOlymp ics
ĠGO Z
ĠCreat or
ĠMor occ
Threat Connect
ĠSqu irrel
ĠMed iator
Ġtransmit ting
Ġround s
ĠNor way
ĠPlugin s
Eng lish
Ġhypothes es
ĠMot or
Ġdisapp eared
Ġwish es
ffici ency
Ġrecv msg
Ġrecv from
ĠExper ts
Ġado ption
Ġstrain s
ĠEnumer ates
Kn ow
Ġprecaut ions
Ext ension
techn ical
ĠPy ong
Imp lement
orig inal
Ġdomin ated
Ġexhaust ive
Ġcandid ates
ĠIl bo
Ġrevel ation
ĠHead quarters
ĠNan o
ĠRep resent
ĠSent inel
onduct or
ĠWH ERE
ĠSusp ected
ĠFast Back
ĠdwCommand ID
Ġsch olar
20100 101
Ġsubstant ially
Und er
Ġremark able
ĠSab re
Ġprohib ited
Ġarr ays
ĠDelta V
RHE L
arn ieri
ĠCog n
ĠGn u
ĠPossib le
ĠPO ISONPLUG
ĠRock well
Ġsubsidi ary
wel ivesecurity
ĠBh atti
Ġsudden ly
Ġambig uous
Ear lier
Ġcn ccfg
Ġpor tray
ĠQuant um
ĠCooper ative
ĠFed ora
Ġmr xcls
Tick Count
ĠYO UR
ĠVict or
ĠBottom s
ĠSophistic ation
kip ot
Ġbraz en
ĠNok ia
IAutomation Core
! @
' )
+ ]
- /
. |
/ âĢĿ
0 101
3 06
4 158
5 35
5 36
6 03
6 29
8 061
9 000
> :
? "
A spx
C am
D h
D est
D ifferences
E urope
F B
F r
F our
F ull
G raph
H istor
J PEG
L A
L ite
M G
M ajor
M AL
N ational
N IC
N amed
O thers
O ldrea
P ID
R ol
R ich
R ule
S ci
S ID
T ranchulas
U nt
V ue
V ari
a ij
c ks
c lose
c ams
c ritical
f p
f inal
g athering
h ones
j oy
l ists
l ename
l inux
n op
n ie
o ffice
p osition
r p
s andbox
t i
u j
u its
v t
w ang
x s
z ak
Ã ¤
Ã ¥
Ñ Ħ
å Ĭ
Ġ ul
Ġt or
in ating
in vesting
re as
re use
Ġc ele
Ġc urs
Ġthe oret
Ġs ing
Ġs ian
en h
or illa
Ġin appropriate
Ġb er
Ġb ount
Ġw s
Ġw alk
Ġw mi
Ġf d
Ġp s
Ġp aign
Ġd ss
ic ial
ic ode
ro le
ar p
ar med
il ateral
Ġm ss
Ġm erc
Ġv ote
Ġh on
ĠT aking
ĠT rop
ĠT esting
ĠS D
ĠS ter
ĠS old
ĠS igned
ĠS ID
ĠS AM
ĠS hodan
ĠC ur
ĠC and
ĠC ash
ĠC onse
ĠC asper
Ġn ul
ut ting
ĠA J
ĠA le
ĠA cc
ĠA round
ĠA FP
ab it
ad ded
ĠM ont
ĠM iss
ĠM SC
ĠM ES
ĠM oney
ĠM itig
Ġl in
Ġl ad
Ġl iable
Ġex ï¬ģltr
ol ph
Ġfor get
Ġ1 11
Ġ1 0000
Ġatt orney
Ġg n
Ġg am
ĠP ing
ĠP ot
ĠP iv
Ġas cer
ĠD y
ĠD roid
ĠD PR
ĠD GA
ĠD MZ
ch r
ir an
tr apped
ĠR as
ĠR ES
ĠF ace
ĠU CL
and roid
th y
ulnerabil it
fore nsic
ĠE L
ĠE val
00 4
ĠO man
ĠO thers
qu ence
ĠH OME
ail ing
ail ton
ĠIn complete
Ġnot ifies
Ġnot ifying
ĠB ing
ĠB IS
ĠB ADNEWS
ĠN ag
Ġun seen
Ġun classified
vic tim
ĠG ill
ĠG ets
ĠG SD
ĠG rizzly
Ġlo an
Ġr t
Ġr amp
Ġr cs
iv ated
sp am
Ġsu ites
Ġsu ms
Ġco ast
ĠL I
ĠL ess
Ġsp aw
Ġ3 36
plo ader
um bs
Ġse mic
Ġweb servers
ecur s
ex tract
Ġsystem d
Ġapp ending
ĠJ im
ip ort
ĠV S
ĠV IX
ĠV iber
ĠV ulnerabilit
co uld
Ġx mm
ĠCh at
ĠCh echen
ĠCh essMaster
min ute
ĠUn ique
ast ro
Ġimp licated
ĠX ia
Ġpl eth
Ġback doored
Ġdec ipher
ĠSt ored
Ġinv oking
form ance
ĠCom plete
Ġconfig uring
Ġorgan ised
Ġfound ed
Ġ11 6
ont akte
ĠWeb Admin
ĠWeb Center
ĠApp let
ĠApp Locker
In et
Ġsub module
15 30
Ġent ropy
Ġj mp
be k
ĠPro pag
Ġsec u
loc ate
18 75
Ġund o
Ġund efined
ov o
Ġqu oted
Ġmethod ical
Ġopen ly
Ġste ad
ob y
OR ITY
enc ent
Ġspecific s
IN A
Ġtra verse
Ġint u
Ġint ensive
AN ux
AN GE
Ġadv ises
old ing
Ġmach inery
ĠY ub
Ġassoci ations
33 93
Ġfunctional ly
29 4
ĠAr men
Ġ$ _
Ġpost ings
pro bably
roll ers
Ġend ian
26 3
Ġsimp licity
aj ik
con v
ell er
ĠNorth rop
Ġreal istic
34 97
Ġ15 7
Ġ14 1
Ġ14 00
44 7
Ġblock chain
ĠDec oded
ĠComp lex
ĠSp am
ĠTr aveler
Com plete
RE G
Ġ* **
Ġindex ing
Ġconv in
47 3
ĠAg reement
Ġclass ical
ĠMS Ps
Ġdistribut ions
Ġrev ocation
ĠSS ID
ĠBe ing
IT S
IT SEC
Re ader
Re ports
ĠXOR ing
ĠDe alersChoice
inc lude
ĠOne Login
ĠCSC ub
cont in
ĠTechn ica
ĠÐ ±
ĠÐ ĺ
Ġed ited
58 8
Ġfre el
IC O
Ġshort codes
Ch ange
ĠXP lug
Ġopp onent
ĠIns ider
Ġprior itize
erb aij
ĠNe ed
ĠNe ustar
press ion
Ġsepar ation
vis ible
Ġhijack s
Ð¾ Ð½
Ġconsider ations
Ġconsider ably
Ġspecial ize
urs es
Ġrest aur
Ġstat istical
Ġrepl ied
Ġhead ed
apt ure
ĠSte ve
ĠTibet ans
US T
Ġmiss ed
ĠNot ice
ĠGener ator
Ġinternational ly
ĠDD E
ĠAss ante
Mon itor
ĠLe viev
LS ID
ĠShell Execute
() ;
Ġregard s
Ġ> =
ĠMod ified
XX X
Ġwater hole
Ġeconom ies
ĠPar ameters
ĠLog o
ĠLog itech
ĠPa ul
Sh ort
Ġhit ting
ĠPC A
ĠDet ailed
Ġcorrect ing
UM INT
System s
Ġdig est
ĠIR GC
Win nti
ĠCri mson
ĠIncident s
Sc reenshot
ĠAddress es
ĠPoison ed
FI RE
Run ner
Ġskill set
Ġstream ing
Ġdisgu ises
blog spot
Ġrang ed
ĠiP hones
chang ed
iï¬ģ cally
ĠWorld wide
DI B
DI RECT
rench ment
)) (
ĠPay ment
Rec orded
415 1
415 3
Ġimperson ated
ĠRequest s
ĠSmart Cloud
CH Q
Ġsl ide
zz zz
Ġcoordin ating
prot ocol
SM H
Ġansw ered
ĠWi Fi
ips ind
with out
Ġorchestr ated
Ġsuper vision
ĠUP DATE
process or
Reg ard
Ġhope fully
Ġfraudul ently
Ġgot o
Fil ename
Mail Ag
Ġiter ations
Ġanalys ing
Ġsell er
ĠNET GEAR
ĠKim suky
ĠIndust ries
dr agos
Ġmalvert isers
ĠCOM MENT
aked own
ĠScar Cruft
Ġviol ations
218 0
218 8
iy ane
Ġgang s
Ġdefin itions
Ġdestroy ing
Ġharm less
ĠCol umb
ĠCred entials
ene z
Ġperpetr ated
110 3
BL IN
DT D
ĠStealth y
ĠïĤ ±
MA IL
Ġcell ular
Ġjump ing
Ġdescript ors
Ġinsert ion
Ġtreat ment
414 7
ĠSpy ware
po ch
Ġmultip art
ĠRout ing
Ġcult ural
det ail
Ġexchang ing
ĠTrust wave
ĠSqu ared
Ġmag nitude
ĠLiber ty
ĠBrazil ian
ĠEquation Drug
ĠRegister ed
DOC TYPE
Enc ryption
Ġhear er
ĠFront ier
xc us
ĠBer kut
bel ieve
ĠMa udi
Ġaccident al
CV SS
sd p
Ġpas sphrase
ĠLite Duke
exploit ation
Ġdiscon nected
ĠZh ang
Ġhyper visor
ĠLeban ese
Ġecd sa
ĠGraph ics
Ġprem ises
Ġintermedi ary
mac ro
Ġexceed s
Ġpoison ed
Ġpoison ing
Ġsurv ive
ĠGame Stop
ĠTransport ation
Sn ake
Ġ"- //
INK HOLE
Ġworry ing
dem and
ĠCr isis
ĠVan illa
Ġneigh bor
Ġpir ated
Cal endar
ĠVP NSOC
Virtual Alloc
Mess enger
Ġeaves dropping
ĠMur cy
Ġsubmar ines
VA ULT
rele vant
Ġredund ant
ĠAz erbaij
ĠOcc upy
Ġcommod ity
Off set
Ġnj Rat
Dragos Inc
cif s
Ġcasc ade
roc hemical
ĠAcadem y
Ġost ens
Ġath letes
ĠLen ovo
Hang Over
Mag ick
cook ie
Ġzomb ie
offic ial
ĠCub a
Ġcamou fl
xes he
ĠAdvert isement
ĠAlien Vault
Ġconsp ir
ĠPsy lo
ĠGre ece
icklock lucky
bitr ation
Ġmillisec onds
Ġborrow ed
ĠTex as
ĠSnap chat
Ens ure
ĠAad haar
ideocon ferencing
ĠSquirrel Mail
ĠNano Core
ĠCogn os
Ġspaw ning
Ġpleth ora
INKHOLE D
ĠAzerbaij an
icklocklucky dog
. ),
/ >
4 24
4 160
5 45
8 080
9 64
9 05
A ES
A nti
C rab
C orp
D H
F h
F CS
F ANT
G er
G of
G SD
H at
H IC
K D
K M
K O
K b
L ive
L ong
N D
N SS
O OPS
P ers
R M
S amples
S MB
S aver
S ession
T DS
V olexity
W D
X F
Z E
Z IP
\ [
a es
a ware
b ec
b usiness
c m
c ar
c ss
c ipher
d ist
e o
f ort
f ill
f ord
g s
g ly
g one
h r
h os
h oles
h istory
i Sign
j in
j ee
k j
k u
l ayout
m k
m r
n ight
n ull
p et
p pt
p cap
p itas
u art
w m
w ner
Â ±
Ã Ŀ
Ä Ļ
Ð ¢
Ð ĺ
Ø µ
å Ī
Ġ VE
Ġ rid
Ġ ern
Ģ İ
Ġt een
Ġt ension
Ġt akedown
Ġa uction
in ations
er vers
Ġc p
Ġc ens
at re
Ġs ion
Ġs un
Ġs ake
Ġs ync
Ġs olve
or bis
Ġb all
al ike
Ġw al
Ġw age
Ġf asc
Ġd l
Ġd ub
Ġd rew
ic he
ing Data
il ation
ent al
et heless
om y
Ġre calc
Ġh or
ĠT y
ĠT UR
ĠT raining
ĠT ajik
Ġe lligence
Ġe yes
ĠS olar
ĠS DB
ĠS ender
ĠS AV
ĠS ocket
ĠS atellite
ul n
ĠC as
ĠC lose
ĠC ERNET
ĠC zech
Ġn om
Ġn ov
âĢ Ĳ
am as
am mers
he v
Ġus b
Ġ( '
ct ioned
ĠI SA
ĠI CT
ig an
ĠM Q
ĠM es
ĠM ission
ĠM PEG
ĠM oler
Ġ1 45
Ġ1 35
Ġ1 30
ter min
Ġg a
Ġg ad
Ġpro be
ĠP AC
ĠP IX
ĠP urpose
ĠW ORD
ĠD F
ĠD ial
ir is
ir ms
pp ets
ĠR ip
ĠR yan
rom aidan
ĠF D
ĠF eed
ĠF ellow
ĠF AST
Ġcomp artment
ĠU C
ĠU IAutomationCore
and Crab
th ird
el f
el ing
so ever
ĠE ff
Ġinf ector
Ġad her
ĠH F
ĠH ex
ĠH CM
ail ored
ail ability
ug ene
ĠB A
ĠB re
ĠB ranch
ĠB OT
ere pan
ĠN ate
ĠN aseer
cc ifer
Ġ2 20
ĠG ov
arg er
Ġr ace
Ġen joy
ĠL G
ĠL if
Ġwas te
Ġsp ite
Ġsp ill
Ġsp here
Ġsp arse
art a
art s
art icles
ant om
Ġse z
Ġweb cams
ib us
Ġim per
Ġch r
em u
Ġsh ips
Ġapp aratus
ĠJ on
ĠJ PC
ĠJ eff
ident ally
ak ash
Ġdis sent
ĠV enez
Ġso uth
Ġusers pace
ĠK as
ĠK DE
ĠK ris
co ind
co op
Ġind ef
ub air
ub untu
to o
Ġstr uggle
ens itive
Ġover ride
tain er
Ġrel ates
Ġrel igious
Ġ20 48
ific ant
av y
Ġexecut ions
ĠX L
ĠX U
log ging
Ġaddress book
os is
Ġdocument ing
ĠSer vlet
Ġper mitted
ound s
Ġinter connected
10 33
ĠRe plication
Ġprov es
Ġval ign
Ġout ward
Ġrec urring
Ġaff ord
Ġres umed
Ġ11 8
Ġdef ectors
Ġav p
ĠApp arently
Ġsub vert
Ġro ad
Ġro ws
ger print
Ġman eu
Ġtyp os
igh ter
Ġdri ving
18 88
13 65
Ġcons ensus
ov ec
ĠFor ward
oll ar
28 0
28 8
Ġqu its
Ġqu eried
25 40
ym bol
Ġph ar
Ġexp ands
07 6
07 9
07 79
27 28
ka z
Ġext ending
the w
09 2
ran ked
Ġfe es
Ġsite id
33 5
33 8
33 30
ĠCyber crime
06 07
Ġunder way
Ġnames ervers
29 0
29 7
Ġbypass ed
lock er
ĠAs ide
ĠAs ruex
ero ute
NS I
Ġdemonstr ation
Ġam id
Ġam ateur
Ġwhat soever
Ġattach es
26 8
app s
Ġu id
eng ers
Ġ17 56
uc uri
LE FANT
ĠUp dater
CS P
Ġ19 8
Ġaut ostart
34 8
Ġemploy ment
Ġ14 0
Ġshow c
az e
az iz
Ġimport ing
ĠDec ode
ĠUs ually
ĠÂ ·
Ġpersist ed
Pro perty
Pro jects
IP C
Ġindex ed
rend er
46 6
inter esting
49 1
Ġformat ting
Ġfore cast
Ġgu id
ĠÐ ³
ĠÐ ł
Ġed i
58 9
dd ns
IC T
Ch ild
ĠTeam Spy
88 0
Ġopp onents
98 1
Ġref ug
99 9
%\ ~
Ġconsist ency
ĠMy stery
Ġspecial izing
Pl ace
ĠTo ys
77 7
Ġrest oring
ĠOut put
Ð° ÑĨÐ¸
ĠEl irks
Ġsomet ime
ĠPo C
aff iliated
ĠNot hing
Ġcollect ions
Ġcirc ulated
ÑĢ Ñĥ
ĠSun RPC
Ġnation wide
ĠAut orun
ĠOver view
Ġachie ving
ĠGu arnieri
Ġregard ed
Ġtrust worthy
ĠGet TickCount
Ġmy riad
ĠPer manent
ĠRet urn
Tr uth
Ġloop back
Ġprint s
Sh ower
Ġdw Payload
Ġur i
ĠEd it
Ð¾Ð ³
ĠIR P
ĠSO L
Ġcounter intelligence
âĦ¢ ,
NC GROUP
class es
Ġpress ed
ĠAV G
Ġbill s
Ġcalc ulates
ĠClear ly
ĠProcess ing
Ġair port
ĠPr inter
Ġrecogn ition
Ġrecogn izes
ĠCrime an
ST ART
ĠTrans itional
IV ORE
iï¬ģ ed
Ġ36 00
Ġassist ant
Current ly
ĠAm my
ĠMond e
Ġder ive
Ġgr and
hib it
Ġdiplom ats
ĠUN ION
Se Se
415 0
415 7
415 9
Ġschedul er
ĠChr is
ĠCN O
Ġassum ing
Inter face
prot ect
ĠIdent ifying
332 5
332 8
ĠMe et
ĠRecord s
ĠMo afee
Not able
fr ames
Ġsuper ior
Ġspreads heets
ĠWho Is
Ġgrant ing
Ġcollabor ate
Ġsan ity
Ġcoinc ide
ĠComprom ised
ev it
VM ware
Ġunre li
Ġexperi ences
ĠAutom atic
Ġviol ent
Ġimpress ive
Ġconsult ants
USER PROFILE
ĠOrigin al
Ġobserv able
Ġfacilit ates
ĠIntr ud
Ġtab s
Ġscr atch
Target ing
ĠSan ri
Det ect
ĠBlock buster
Ġemphas ize
414 1
Ġassign s
ĠDi agnostics
ĠSFX RAR
Ġpredict able
Ġopin ions
ĠKnow ing
det ection
ĠMich igan
ĠGO BLIN
ĠMor gan
ĠHam za
Ġdepict ing
ĠIO Active
ĠTE LNET
ĠOffic ials
ĠNor thern
ĠScot ty
Ġencour ages
ĠTro oper
izard Squ
Ġsni ppets
ĠFind ings
Ġnickn ames
kr nl
rel ay
Trans fer
Ġperfect ly
Ġdemocr atic
phish ed
CR YP
Ġprem ier
Util s
ĠCON NECT
ĠDown Execute
Ġtri age
Ġmailbox es
sim ilar
Aut o
Ġveh icles
ĠCab inet
comprom ise
Ġstress ed
ĠAust ria
Ġcorrobor ated
Ġsupplement al
Ġnets vc
Ġexplo red
ĠOp ens
El ect
ĠTH RE
Ġincon ven
Ġdilig ence
Pol icy
tec ode
ĠWAR RAN
ĠExam ining
ilo so
ĠRest ore
Ġincent ive
Inte lligence
ĠPowerS pritz
ĠEthiop ia
craft ed
Ġfals ified
ĠCry SyS
Ġmultim otor
Resp onse
ĠRecom mendation
Ġthir teen
ĠCad elle
Ġpredecess or
Wait ingData
ĠFocus ing
Ġencaps ulated
Comprom ised
ĠSHE ll
ĠIll ustr
ĠFLY ING
Ġfem ale
ĠPenetr ation
ĠUz bek
ĠGray Fish
ĠAlger ia
Ġconglom erate
Ġenorm ous
ĠSubscri ber
ĠPyong yang
ĠTrop ic
ĠRip Gof
erepan ov
ĠJPC ERT
ĠVenez uel
LEFANT ASY
izardSqu ad
' ]
) âĢĻ
, '
4 000
5 12
6 06
A p
A meric
A UTH
B an
C ad
C BC
D ig
D eb
E WEB
E agle
F low
F act
F BI
F eed
H y
H ook
H acking
H aving
I LL
J in
K im
K logger
L ater
L anguage
M el
M em
M ult
M ON
M ai
N P
N t
N um
N one
N GO
O H
O ce
P ix
P ets
P II
P utin
P ARA
Q C
R V
R out
S K
S HO
T M
T en
T ab
T aidoor
T rolling
U nc
U NC
V MS
V ICE
W MI
W ARF
b low
b ak
c ost
c ious
d as
f ake
f uture
g z
g ra
h p
h ard
j u
k g
k om
k vm
m is
m ir
n E
n n
n ail
o a
o very
p am
p rom
p urpose
p Trolling
q iang
s r
t otal
u ity
v w
w er
w ild
w indow
w ins
x d
x e
y ch
© ¬
© ×
Ë Ļ
Ð ł
× Ķ
Ø Ń
á ĥ
â Ļ
å Ĩ
Ġ Î
Ġ é
Ġ ks
Ġ igfx
ģ µ
Ġt v
Ġt ang
in to
in ject
Ġth er
on ical
re vers
Ġc id
Ġc isco
Ġc ron
Ġs am
it ous
it ious
en amed
Ġin et
Ġin evit
is itions
is loader
Ġb on
Ġb esides
al ert
Ġw iki
Ġw omen
Ġw aters
Ġf at
Ġf ul
Ġp ic
Ġd ut
Ġd ress
Ġd ict
Ġd rones
Ġto ys
il s
us lim
Ġm a
Ġm imikatz
as ive
Ġv m
Ġv oc
Ġre ject
Ġre nam
Ġre ward
Ġre names
Ġre duction
lo od
ĠT ek
ĠT EXT
ĠT orto
te go
Ġe fficiency
ĠS le
ĠS CS
ĠS OC
ĠS dn
ĠC ell
ĠC raw
ĠC hemical
ĠC ROSSWALK
Ġn orth
am in
am ilies
20 51
he ight
ack ets
ur er
Ġ( <
Ġ( _
ab s
ri ers
Ġcon ferences
ĠI CO
ĠI HG
st atic
st ats
ig ma
ig gins
Ġon wards
od a
if il
ain an
ĠM s
ĠM OD
Ġl ux
ol ta
Ġfor ge
ag iar
ith met
are a
Ġg w
Ġg it
Ġg lit
Ġpro bed
ĠP ages
ĠP oll
ĠP eng
ĠP ush
ĠP udong
ĠW ay
ĠW SA
ĠW RF
ĠD ump
ĠD ream
tr aditional
ile aks
ĠR asc
ĠR aaS
ĠF low
ĠF und
ĠF alse
Ġcomp ens
ĠU UID
ĠU ltimately
th ink
so cial
ĠE K
ĠE ric
ĠO s
ĠO ld
ĠO xford
per cent
Ġst all
Ġst ance
Ġst akes
Ġst icks
ĠH X
ĠH VM
ĠH oneywell
ĠB MP
ĠN etw
ĠN ik
cc d
Ġun le
Ġun compressed
Ġun privileged
Ġun confirmed
Ġ2 17
Ġ2 60
ĠG ate
ĠG OM
ĠG ReAT
ĠG CHQ
oc ations
Ġlo ts
Ġr ational
iv a
ĠL C
ĠL icking
ĠL OG
ĠL uh
act ical
Ġ3 322
um per
ant ir
Ġbit coind
ex c
ex ternal
Ġch a
Ġch airman
em l
Ġsh ops
ĠJ et
ĠJ SP
ass ador
ĠV ideoconferencing
ict ure
ach able
Ġ4 09
Ġuser id
Ġ00 00
ĠK CC
ĠK iev
co urse
Ġcommand ed
ub ted
ĠCh erepanov
min ately
Ġconf used
Ġy pass
Ġstr uck
Ġtr uth
Ġ8 64
Ġ8 77
ard ed
Ġ20 9
Ġ10 8
out look
Ġemail ing
ast s
Ġden ying
Ġpri ze
Ġimp r
int end
Ġback bone
ĠSer b
ĠSt atic
Ġsamp ling
Ġinv oice
Ġinv ented
Ġinter rog
Ġinter mitt
10 10
gr ab
gr ity
Ġbut tons
amet ime
32 5
Ġsome body
Ġlog os
Ġsc are
11 58
Ġres ent
Ġset t
Ġk idn
Ġpass code
ish ih
In stance
Ġsub string
Ġsub direct
Ġro w
Ġj our
be eck
esp ecially
Ġversion ing
64 0
64 6
64 7
Ġread ings
Ġuthentic ate
Ġcons olid
16 86
Ġmain Loop
ĠAd visor
Ġph iloso
ob o
Ġsent enced
07 3
Ġbro ker
ĠMan ual
Ġ= >
ĠComm Loop
the host
ator ies
Ġtra ï¬ĥc
Ġwhere by
Ġass ure
ps noc
Ġla und
Ġlong standing
Ġ| .
Ġ| |
06 19
Ġdist ur
ĠZ im
Ġrep ublic
ĠAl t
ĠAl lows
ĠMac OS
Ġcommon alities
ĠCont rollers
08 9
Ġend orse
ĠInf ected
ĠInf os
Ġlook alike
Ġneed ing
por a
Ġ17 68
con st
Ġprob es
Ġlast ed
MS I
Ġter abytes
Ġreal izing
36 52
38 0
Ġel ig
par ing
22 1
ĠQ ihoo
att le
Ġcompl eting
Ġcompl aints
ĠAttack er
Ġinteresting ly
Ġnon existent
ĠControl Logix
Re Re
Re Rol
56 1
56 38
ĠDu o
ĠMin iDionis
AD S
Ġfore ver
Ġgu err
ĠCSC te
ĠCSC ty
ME A
cl inton
Ser vlet
Ġfre email
EC K
An n
rid ex
comm unication
ĠIs lands
back end
ĠMalware Hunter
ĠIns urance
Ġimplant ed
ĠReg ion
ĠLoc ations
ĠGo ing
ĠCar r
ĠAc er
ĠAc qu
ĠPL AN
ĠMess ages
Ġspecial izes
97 8
ĠPE ID
Al fa
ĠInter active
ĠMc K
87 9
Ġinput s
ĠGener ic
ĠGener ate
Ġwant ing
Ġnever theless
ĠPri ma
ĠPri mary
Ġvol tage
ĠLe o
ĠLe ak
ĠKey stone
ĠIndian a
Ġtrick y
ĠPal antir
Ð¸ Ðµ
ides how
ĠSun belt
ĠEst ate
conf irm
ĠSim m
Ġet h
AB AB
ĠAgent Kernel
ĠOb viously
En vironment
ĠMon th
Ġprop os
ĠList en
Sh ift
Ġdw Bytes
Ġsym metric
ĠMet adata
ĠCSCt n
OT US
Ġweak est
Ġmis cre
ĠCT A
Ð¾Ð º
ronic les
CL I
Ġboot strap
su pported
ĠFirst Watch
Ġ100 73
Ġadvertise ment
Ġhop s
........ ..
ï» ®
ĠIntel RS
yc lo
With out
Ġdang ling
ĠCPU s
Ġcombin ing
ĠAdministr ators
pack ed
ĠSec Dev
domain s
Ġbroad band
De velop
Ġdisrupt ions
ĠCA LL
Ġintro duces
erc ase
Ġded uce
ĠTele Bots
Ġgraph s
CT L
ĠScan box
ĠBl vd
Us age
Ġassist ing
ĠEmail s
ĠCob ra
Ġrepe ating
ĠRel ay
ĠTV s
ĠHigh ly
Ġinflu enced
mark eting
415 2
415 4
des cription
post s
Ġadapt ing
atur ity
Ġwip es
Ġimperson ates
Bu ilder
ĠSk ia
ĠProf essor
Ġpurch ases
332 4
332 6
332 7
LC md
364 6
Ind ex
Ind ust
Not es
sl ide
rec ord
fr ag
ĠSearch es
Ġtw enty
Ġptr ace
Or der
ĠObject s
AV A
ĠTom ato
ĠGuard Logix
Ġflo oding
spec ial
Ġcontribut ors
Ġunre achable
Ġacqu isitions
Ġseed s
218 4
Ġsw ap
ĠDon ald
sm art
ste aler
Ġdece pt
ĠJB OH
ĠProv ider
Ġshortcut s
dig iumphones
Ġfeel ing
Ġ95 035
ĠLAN G
ĠDrop bear
download s
ĠFL V
ĠArch er
414 9
Ġrat io
ĠImp erson
Per f
Ð½Ñ Ħ
ĠSur veillance
Ġnavig ator
Ġnegot iation
po inter
ĠCarac achs
Ġindict ments
ĠIslam abad
ĠTelecom munication
Ġproduc er
Ġcrack down
XXXX XXXX
Ġguess ing
ĠDll RegisterServer
ĠAL TER
ĠInt ro
ĠInt uit
ĠOneDrive Solution
random ly
Ġeb p
ĠSqu id
ĠSqu are
Ġoverla pped
Ġfoot er
Ġdoc s
iph ers
Par se
XY Z
Ġmer chant
Su pport
Ġtal ked
Ġbund les
Att ributes
pub lished
Ġencour aging
ĠIntrusion Truth
Ġunint ent
ĠGround Work
Ke ys
pol icy
Ġcam ellia
Ġcast s
ĠPOS IX
ĠEther Net
ĠPs iphon
Ġchecksum s
Ġdim in
illary clinton
Ġrepro duced
ĠWIN EXE
ĠSoft Logix
Ġdelim it
Ġecd h
Ġfriend ly
ĠDid n
Ġfavor ite
ĠRus so
Ġdomin ance
Power Shell
Ġinterrupt ed
Ġadvoc acy
ĠSyn chron
Ġincrement al
Ġsurv ival
Entry Point
ĠPract ices
Clear ly
disc ussed
Aut orun
Car thy
Pr int
Ġstamp s
ĠNan jing
ĠAttach ment
Ġbol et
Ġbread cr
engine ering
Ġcopyright ed
ĠImpro per
}\ /[
ĠVal ve
div ide
ĠSecur ID
Ġheur istics
ĠdwCommand Type
ĠBur ma
Ġindiscri minately
ĠMongol ian
vari ant
Ġtight ly
Ġacknowledge ment
Ġunderscore s
ĠXS LT
ĠEmploy ee
ä¸Ń åĽ½
Ġconst rued
ĠJiang su
Ġsubmar ine
GW IA
Cons ider
Ġprogramm able
Debug ger
Ã¿ Ã¿
Ġupt ick
Ġmathem atical
ĠFSB Spy
Ð¾Ð¿ ÑĢ
ĠScient ology
ĠMas ashi
ĠFirm ware
Ġadequ ate
ĠBulg arian
ÑĩÐµ ÑģÐº
Ġtick ets
Ġunwitting ly
ĠCompress ed
iex plore
ĠPos itive
ĠVent ure
Ġstrugg ling
Ġregul atory
Ġdesk tops
Ġreferr er
Soc ial
Ġrh etor
Chart reuse
recv msg
hns on
Ġhone yp
Ġtin ym
oren beeck
ĠRoc ra
ĠUmb rella
COMPUTER NAME
Ġls ass
ĠDOT A
ĠHeb rew
+~= ]{
ĠMotor ola
ĠVIX EN
Ġundo ubted
ĠYub o
ĠMoler ats
ĠKris R
ĠVenezuel a
Ġrenam ing
ishih ata
Ġsubdirect ories
Ġundoubted ly
# âĢ«
% ),
/ <
2 160
3 20
6 35
6 38
7 46
8 05
> âĢĿ
? )
A pi
A uthorization
C er
C atch
D own
D roid
D onald
E WS
E ston
F ancy
G ame
G IF
H unt
H WP
H ANG
J PG
K S
K orean
M b
M obile
O ffic
P A
P oS
P etr
P ipe
P hone
S pe
S oviet
S ources
S USE
T G
T T
T ag
T ree
T ouch
T INGS
V AS
W IN
W iper
W ADA
W rapper
[ ],
_ <
b oy
c oder
d m
d am
d out
d atabase
d ollar
f our
f alse
g ument
g uration
h al
j tl
k h
k ur
l if
l urid
m g
m at
m ot
m oo
m fa
m asters
n ir
n ost
p his
p oll
p ossibly
q ld
r isk
s ol
s ip
t ypically
u ese
v ard
w ed
w rites
x p
y z
} âĢĿ
ã Ĥ
ç Ķ
è ·
ï Ģİ
Ġ ă
Ġt a
Ġt ent
Ġa x
in Mo
on en
re bus
Ġc y
Ġc art
Ġc raw
Ġc unning
Ġo c
Ġs i
Ġs in
Ġs le
Ġs ong
ed x
it age
en ary
or i
Ġb oss
Ġw ond
Ġw get
Ġf o
Ġf s
Ġf usion
Ġp p
Ġp lot
Ġd ash
Ġd dos
ic ulous
ic ago
ec d
ec ured
ro om
ro red
il ly
Ġm un
Ġm ine
Ġand roid
an z
an aly
ac m
et ion
as m
as is
as aus
Ġre plication
Ġre vert
Ġre bel
Ġh ive
ĠT es
ĠT oo
ĠT ok
ĠT DI
ĠT IME
ĠT encent
te in
Ġe F
Ġe W
ĠS ri
ĠS ays
ĠS HO
ĠS ino
ĠS UB
ĠS entry
ĠS arah
ĠS INKHOLED
ĠS ametime
ĠS pora
ĠC AN
ĠC EC
ĠC CT
ĠC unning
ĠC ellebrite
Ġn a
Ġn oc
âĢ ŀ
am ine
am av
20 25
Ġbe aring
un ique
un install
Ġus able
ĠA X
ĠA k
ĠA pt
ĠA UR
ĠA NSI
ect ives
ur ch
Ġ( âĢĿ
ri ot
ct or
ĠI ME
im edia
im asaus
ad x
ad vant
ig a
ig ation
od ia
if iable
ain s
ain ted
ĠM AP
Ġl aboratory
Ġex plos
Ġwh oles
ce al
Ġg op
Ġg ithub
Ġg limpse
ĠP ast
ĠP op
ĠP ASS
se y
se par
ĠD iff
ĠD ipsind
ch air
Ġby tecode
ĠR am
ĠR ate
ĠR ew
ĠR ub
ĠR os
ĠR ound
ĠF R
ĠF W
ĠF lo
ĠF OR
ĠF MS
Ġser v
Ġcomp elling
Ġ. ....
est a
th ur
up on
ĠE E
ĠE poch
orm an
Ġcont est
qu ality
ist o
per gle
Ġad ept
âĢĻ :
Ġst ar
Ġst aged
ĠH en
ĠH ill
ĠH av
ĠH ast
ĠH opper
ĠH ainan
ĠB us
ĠB oo
ĠB AT
ĠB ash
ĠB DF
ĠB hd
Ġde obfuscated
Ġun iform
Ġun affected
Ġ2 11
ĠG P
ĠG oo
Ġr tf
iv ation
iv ili
ind i
Ġco al
Ġco sm
ĠL u
ĠL etter
ĠL andscape
ĠL TD
ĠL INK
ĠL arson
Ġsp orts
ĠâĢľ _
um air
ant asy
ib ei
Ġ" \
Ġim g
Ġsystem info
Ġsh o
Ġem ot
Ġem ulation
ĠJ a
ĠJ ason
Ġpo ols
Ġ6 1850
Ġdis advant
ĠV K
ĠV in
ĠV UP
ĠV ersions
Ġ4 08
ĠK on
ĠK ind
ĠK os
ĠK aba
Ġ5 20
Ġab und
co ur
ub mit
irect ional
Ġdet ain
Ġmod ulo
Ġoper a
Ġoper atives
pl aces
ĠCh arter
vers al
Ġconf orm
Ġy outh
ĠUn ity
ĠUn install
ĠUn precedented
Ġ10 9
Ġimp osed
Ġimp licate
ĠX Agent
ĠEx Petr
Ġag nost
Ġdirect ing
10 36
ĠRe quire
32 4
32 7
32 8
32 9
Ġprov ing
Ġout so
Ġout standing
Ġ9 00
). âĢĿ
ĠIP C
ree k
Ġaff inity
Ġsa fer
Ġk idd
word s
Ġcor p
TE CT
Ġorganiz e
In ternational
la use
Ġprev iew
Ġsub stations
Ġsub folder
Ġbot master
Ġtyp ing
Ġlink ages
ov sky
17 76
28 3
28 4
Ġqu otes
Ġdevelop s
ĠOn going
SA M
Ġexp onent
Ġsent ence
ash es
OS INT
24 5
ĠJava Svc
ms d
ms dn
put ation
Ġcl oned
ĠSh in
Ġins iders
krain e
ran king
ĠCon vention
04 6
04 7
Ġbeh ave
Ġla id
ĠInte lli
Ġproduct ivity
ĠY AML
05 2
33 32
33 35
33 34
06 03
ĠOper ators
ER G
ĠAl per
ĠAr m
oz er
ĠAct ions
Ġtraffic king
Ġwar s
Ġtim ers
Wh ilst
Ġattach ing
45 0
45 50
app le
St ar
St ill
org e
tes y
uc lt
ĠUp dated
Ġsuggest ion
ON TC
ON ZE
ĠWin logon
Ġintegr al
red irect
red acted
36 5
36 50
Ġconc ert
Ġconc ludes
Ġel ected
ĠDec ompress
ĠRes ults
48 80
ĠSp iral
Com ments
ĠAg ents
Ġpa ired
inf ection
Ġsur ge
Ġnon ce
Ġ16 3
49 7
IR C
man age
MP C
ĠDe ath
Ġbuild ings
ĠÐ ¤
Ġdep os
Ġnews papers
Ġutil s
Ġpres umed
:\ \
Ġarg ue
ĠRem exi
ĠXP ath
Ġenter tainment
ĠBy tes
oth ership
96 6
ĠIns ikt
Ġprior ities
Ġref in
As ync
oun ced
ĠMy Bulletin
ĠRec overy
Ġrespond ents
Ġspoof s
Ġresource ful
Ġlow ercase
EN CODE
ĠInter esting
list ing
Ġstat s
100 00
Ġpract ition
ne g
Con n
ĠStr ateg
Ġvirtual ization
Ġavoid s
Ġlack ed
ĠIm aging
force ment
Ġwin mm
ĠLe aks
ĠKey board
ĠKey View
Ġobser vers
count ers
umer ic
ĠPal adin
DE AD
Ġes i
ĠAut onomy
ĠClient Hello
66 6
ĠCozy Car
ĠMod ern
ĠMod ifiers
ĠLib yan
Ġsit ting
Log s
ĠRet ail
Tr ace
Tr aditional
Ġmarket ed
ĠDo D
Sh utdown
DB A
Ġmis configured
add y
Ñģ Ð¸
ua uclt
ĠNews Be
ĠBlog s
sec ond
sec exp
ï» £
ï» ¤
ĠSi T
Cont ents
ĠSub mitted
ĠSub version
Ġrend ers
ĠSSH Bear
Ġsure ly
ĠAV IVORE
ĠPost s
ĠProcess es
Ġpe ac
Ġspam ming
leg itimate
ĠST D
ĠST ONE
Process es
Ġsoon er
ĠTrans mit
lass ian
ĠMar ia
Ġintercept ing
Ġinsp ected
Ġtelecom munication
oss ert
ĠEm bed
ĠOrgan isation
web secexp
Ġpenetr ating
Ġcent ury
Ġreli ably
ĠImage Path
ĠImage Magick
Im pl
rest ore
Ġeduc ated
Ġinflu ential
Sy ria
ĠLast Pass
Ġadapt ers
Ġstealth ier
ïº ĳ
Ġemb arr
Ġcompar isons
Ġsys log
Ġshe et
ĠAtt ached
ĠIdent ified
Ġstay ed
332 9
Program s
BB BB
eter ans
ĠCons umer
364 0
364 7
ĠMo inMo
Ġtro ub
Ġpip eline
Ġpip elines
ĠCall isto
ĠSearch ing
EB YTE
Ġremed iated
Back up
Ġconver ts
Ġconver gence
Ġlayer ed
Or ange
Ġcollabor ating
Le aves
Ġalter ations
AV O
PRO TECT
Ġmind s
ĠKing View
217 1
217 5
217 6
sy nc
Ġconsequ ential
ĠPe er
Ġdev ised
ĠEar th
Ġcontribut ing
Ġexperi encing
ĠScar ab
Ã© s
218 7
SE SS
Ġip config
ĠRo ute
Ġdiv isions
ĠMax imum
gener ic
gener ations
rem end
Dis play
Ġtend ency
Ġfill ing
Ġaccom mod
Ġperpetr ator
Ġtab let
mal loc
Def ense
Def ender
Ġwatch dog
ĠExt ended
check ed
ĠShadow Net
ĠIss ue
Conf iguration
cer pt
Ġcompr ising
Ġjump ed
Techn ologies
Ġovers ee
Crypt o
ĠDi ag
Ġstrength ening
ypothes is
Ġgrid s
Ġilleg ally
ĠIM G
Ġspons orship
ĠClass ified
dri vers
ĠAL Zip
ĠGN OME
LAN T
Ġeb x
ĠDig est
Ġhear d
prof its
men istan
Att ach
ĠCap abilities
ĠDHCP v
Ev ents
ĠAD MIN
ĠZe aland
Ġconcaten ates
**** ****
800 6
ĠEM ET
ĠHis pasec
ĠSG OS
ĠInject or
Ġdim ensions
ĠLZ O
Ġrefund s
Ġrig or
ĠCF Network
216 5
Ġinher ently
Ġnegoti ating
EM U
ĠBlu enoroff
Ġxt ension
Fl amer
ĠNight Dragon
Ġundert ake
ĠCert ified
ĠNum bers
ĠNum erous
ĠGraph ical
Init ially
Ġmar itime
account s
xS G
Ġheight ened
ĠÐ¿ ÑĢ
ban network
Ġadvoc ates
Carb on
ĠMov ie
ĠLic ensing
Ġimm une
ĠCha os
ĠDP HK
ĠBR AVO
ĠDan iel
Exper ts
ĠAttach ments
ĠCU PS
Ġï¬ģn gerprint
Ġincorpor ate
Ġcorrel ates
ĠProced ure
Georg ian
Ġprosecut ors
ĠSmarter Tools
Ġalar ming
nic zw
Ġgram mar
ĠPortug uese
DOM AIN
RHE V
å® ī
Ġanticip ated
ĠRU AG
Ġinaccur ate
Ġinaccur acies
Ġproï¬ģ le
OO o
ĠTs ar
ĠIMP LANT
deb ugging
ĠHad oop
Ġrum ours
Ġperipher al
ĠSpot light
Ġlawy ers
Ðŀ Ð
Ġ(*( *(
Ġguarante ed
igen ous
ĠEST soft
ĠGolden Gate
ĠPSY OPS
DOCU ME
Ġsynd icate
ĠEns ure
Ġuncertain ty
Ġeman ating
Ġmonik er
blu etooth
Ġfru it
ĠMing jing
Ġcancell ed
ĠStri kes
supp lied
Cob alt
Roman ic
Ġhierarch y
ĠMil pitas
ĠImprove ment
Mond e
Ġsurre pt
ĠReve aled
Ġub iqu
Ġasynchron ous
ĠEternal Blue
Ġkil oby
recorded future
ĠMorocc o
Unt il
Ġcele br
ĠMitig ation
ĠDPR K
FIRE EYE
ĠColumb ia
Ġostens ibly
Ġconspir acy
ĠBOT ID
ĠdwPayload Size
Ð¾Ð³ Ð¾
ĠMeet ings
Ġunreli able
ĠIntrud er
krnl pa
ĠTHRE EBYTE
ĠWARRAN TY
ĠUzbek istan
Ġdut ies
ĠTek ide
ĠLuh ansk
jtl ich
ĠCCT V
Ġnoc ase
imasaus kas
ivili ans
umair aziz
ibei ro
ĠVUP EN
ONTC ACHE
ĠMyBulletin Board
ĠNewsBe ef
ĠSSHBear Door
Ġembarr ass
ĠMoinMo in
/ )
2 12
3 10
5 33
5 44
5 48
5 119
7 03
7 33
8 07
8 38
: /
A I
B in
B AE
C ap
C lose
C AL
C ybersecurity
C ozy
C AST
C apture
D at
D ump
D IA
F re
F ore
H M
H a
H d
H z
I e
J i
K N
K R
L MS
M J
M U
M uch
M ax
N or
P os
P op
P ioneer
R I
R am
R OR
R ES
R IDE
S al
S um
S of
T cp
T TY
W ell
Y LE
Z a
Z j
\ .
] ;
b ors
b em
c reat
c irc
d h
d one
d iction
g f
g us
g ch
g ard
g ateway
h ir
h ij
i ro
i am
i ations
i MC
j html
k re
l ined
l arge
m ant
m etr
n icklockluckydog
o vers
p ure
r are
s al
s ection
s ense
s usp
s leep
u u
v ous
v ations
v oid
w mi
x slt
y te
z o
» å
Ë ľ
× ©×
Ø ®
å Ń
æ °
Ă Ă
Ġ ć
Ġ ice
ı ç
Ġt xt
Ġt andem
Ġa wait
Ġth row
Ġth inks
re covery
Ġc ial
Ġc li
Ġc ents
Ġc rowd
Ġc yc
Ġc ivilians
at ial
Ġo t
Ġo missions
Ġs orry
ed y
ed ed
it a
it ations
en ames
is y
nd ns
Ġb are
Ġb arg
Ġb esp
Ġb unch
Ġw est
Ġf ro
Ġf an
Ġp n
Ġp al
Ġp isloader
Ġd h
Ġd tl
Ġto ler
ic ine
ic ian
ic ert
ec f
ar ry
il le
ac uda
as co
Ġv pn
Ġre using
Ġh illaryclinton
ĠT w
ĠT ry
ĠT EC
ĠT eh
ĠT AO
te am
Ġe fficiently
ĠS to
ĠS IG
ĠS udo
ĠS chedule
ĠS ockets
ul ent
ul ators
ĠC amp
ĠC ult
ĠC yp
ĠC CP
ĠC ath
ĠC PL
ĠC rowdstrike
ĠC LSID
Ġn nm
Ġn ipp
ly az
am iliar
un ed
ĠA VE
ĠA UT
ur c
ab ler
ct p
ver ify
ĠI ML
ĠI con
id o
id ious
Ġcom ic
ad i
ad ays
ig o
ig abytes
ot ive
od ings
Ġan not
Ġan cient
ĠM A
ĠM ut
Ġl ag
Ġl ately
ol omew
Ġfor b
Ġ1 25
Ġwh g
ag an
Ġg eared
Ġg lyph
Ġg ilg
Ġg igabytes
ĠP c
ĠP ow
ĠP AR
ĠP OC
ĠP ony
ate ful
ĠW R
ĠW his
ĠW ait
ĠD yn
ĠD rew
ĠD OWNLOAD
ch m
ir l
ir s
ir it
Ġwe ight
ĠR on
ĠR LE
ĠR af
ĠR az
ĠR ai
ĠR tl
ĠF S
ĠF os
ĠF ault
ĠF light
ĠF etch
ĠF abric
Ġit coin
Ġcomp ound
ĠU r
and al
th ose
th olomew
so und
ĠE ither
ĠE MP
ĠE LEC
ĠE cho
ĠE rebus
00 5
00 03
00 34
ĠH op
ĠH OST
ĠH orenbeeck
tem porary
ĠIn nov
Ġnot ion
ĠB C
ĠB ay
ĠB low
ere um
ĠN Y
ĠN TP
ĠN ative
ĠN AS
Ġun limited
ĠG M
ĠG i
ĠG ig
ĠG ang
ĠG HOLE
ĠG andCrab
sp reading
sp onsive
ind est
Ġco urses
ost i
Ġ3 20
Ġ3 50
art en
art ner
ĠâĢľ $
iz z
end ip
end erson
end oor
ew is
Ġsh ield
ĠJ IT
ip ients
ip nir
Ġle ap
ass ess
ĠV x
ĠV ital
ph ant
ach i
Ġ4 03
ĠK S
ĠK r
ang ed
Ġab rupt
Ġab bre
co un
Ġx if
Ġdet on
ĠCh an
ĠCh icago
Ġover ly
eb s
Ġ8 000
Ġrel ays
Ġar ithmet
av i
Ġreg u
Ġden ote
ĠHT C
istr ation
log ic
Ġdiffer ing
Ġdec iding
Ġdirect ions
Ġdirect ives
Ġvers atility
Ġinv ite
Ġinv ocation
Ġinter ven
uss ion
10 18
Ġenc losed
AT I
32 6
Ġwho ever
Ġtechn ologically
ĠIP ID
Ġinte lligent
Ġ' \
str ings
Ġk Berry
ep artment
Ġbu cket
Ġencrypt or
Ġav atar
TE NT
), âĢĿ
Ġsign iï¬ģc
Ġsub keys
Ġhack tools
Ġj an
Ġj peg
Ġj umps
net t
ĠPro c
rit ish
igh th
Ġoff ending
ĠSecurity Labs
Ġund erst
ov itch
ov olta
Ġmain stream
xt m
ĠAd ware
Ġpack ing
Ġste pped
Ġste ady
Ġcred ibility
ob s
ob tained
27 9
ough ly
Ġleg ally
24 53
24 54
ms c
Ġz w
me er
Ġregistr ants
Ġins idious
IN ET
IN ST
Ġtra f
ild ed
ran k
AN M
ĠOS INT
Ġfe at
Ġresult ant
ĠCon struction
ĠCross RAT
Ġdisc rep
Ġass urance
ĠID C
ĠY emen
33 31
err udo
ĠCyber war
ĠCyber kov
06 20
06 23
Ġunder gone
ER GET
ER AGENT
ĠMac ros
Ġcommon place
Ġpur ports
Ġsoc iet
Ġend less
ĠInf ections
app ears
St yle
eng du
LE ASE
ather ine
ID I
Ġerr one
Ġ19 9
MS K
af ia
af ety
Ġreal ities
34 0
Ġwrit er
Ġsm tp
22 12
ĠQ EMU
Ġcheck out
xy z
ĠDec oding
Ġprim itives
ĠOpen Shift
Ġsel ects
ĠSp oof
Ġdefault s
ĠFlash Pix
BM H
39 7
une i
Ġdeter rence
Ġcompil ing
Ġclass ify
ns ics
Ġrev enues
Ġsur pass
Ġautom ate
Re ference
56 0
na h
de ad
86 9
Ex ile
Ex tract
For ward
Ġfore see
ĠCSC ta
ĠCSC ua
ĠÐ £ÐºÑĢÐ°
ĠSc ada
ĠSc orp
Ch r
ĠAnal ys
Ġtem per
RO L
ĠConf usion
Ġpast ed
88 3
Ġpersonal ized
TC IRT
ĠBlack Worm
ĠSy kipot
host s
Ġï¬ģ ve
Ġï¬ģ lename
99 99
ises hell
medi ately
vis ual
ĠIT SEC
ĠTrend Labs
ĠGe ographic
Ġ) ;
Ġid le
ĠCloud Pets
97 9
Ġdifficult ies
Al tern
Al most
ĠRed Leaves
ĠNew Romanic
Ġpract ically
âĢ¬ âĢ«
âĢ¬ #âĢ«
ĠMc Carthy
ĠSyri ans
Net flix
ĠSE IL
lu ence
Ġmail to
ĠIm m
ĠTur tle
Ġapproach ed
Ġwin ver
Ġwin rar
comp onents
Ġdam aged
Un raveling
Ġsk ips
ecom press
ĠRT LO
HT A
79 5
Ġuns ecured
ĠCre te
Ġexam ines
ĠOb tain
ĠExecut ing
admin istrator
ĠSpec ific
En ter
ĠDefense Code
hem a
ĠSecure works
Ġdistinct ion
ĠList ener
Comm unication
Ġdw LastError
0000 0000
ĠArab ian
ĠDel iver
Ð¾Ð »
Ġdiss ecting
ĠMal tego
IX ESHE
Time out
Ġaim ing
ĠPre m
ĠPre p
Ġboot s
ĠSC M
ĠSC O
He ad
Ġcluster ed
Ġsandbox ed
Sc ammers
Ġdi ver
Ġdi vert
Ġdi agn
ĠGhost Admin
ĠGhost script
ĠSub sequently
Ġsafe guard
ĠShare s
ĠEv olving
ĠExpress ion
Ġcol on
Ġclean er
ĠAV I
Ġiniti ating
Ġair ports
Ġair lines
patch er
ĠĠĠĠĠĠĠĠĠĠĠĠĠĠĠĠ ĠĠĠĠĠĠĠĠĠĠĠĠĠĠĠĠĠĠĠĠĠĠĠĠĠĠ
At las
Ġrecogn ised
Ġadvis or
umb lr
ĠFl or
DD WARF
Ġtele phony
ĠTele graph
ĠSV N
Command er
Ġneg l
Ġer ase
ĠTrans mission
dec ryption
Ġpropag ated
CU CM
ĠElect ronics
ĠDE LE
bb b
Ġreli ant
Get File
Rec on
mark et
ny times
ĠCN ITSEC
olid ays
Ġaffili ation
ops is
Key logger
ĠAb ove
ĠProf ibus
ĠCons ider
364 5
364 8
364 9
Ġimprove ment
utin izer
ĠPlay ing
ams ung
Ġorchestr ating
Not ify
Not ably
Ġupgr ades
ĠTer m
Fil ecoder
win inet
Ð» Ð¸
Ġtail or
oper ational
cs v
Ġcryptoc urrencies
ev a
Ġsell ers
217 7
217 8
Ġunre sponsive
have x
Cloud Duke
dr m
Ġinstant iated
Ġque ued
VER RIDE
avig ator
start s
218 2
direct investing
ĠCosmic duke
Ġbook marks
bl ue
ĠSci ences
Ġrevious ly
Ġwor ried
Ġwhitel isted
cell aneous
format ted
ĠExt ensions
Ġmix ture
Ġbehaviour al
Ġacadem ics
Ġbind ings
Ġwa ited
ĠElectric ity
sn MM
Ġextra ordin
Ġsubmit ting
ĠBeh avior
ĠGR U
Ġmultip lication
ĠMat thew
ĠTurk menistan
ĠPrint ing
lad en
FTP D
ĠCreat ive
ĠNorm s
BIN E
ĠInt Ptr
Ġreser ve
ĠIO A
ĠIO As
Ġannounce ments
Ġmag netic
ĠSym phony
ĠCharacter istics
## #
ÑģÑĤ Ð²
Class es
Su ite
Att ribution
Trend s
was her
Ġnatur ally
Alloc ate
xFF FFFF
Pre viously
Ġmir rored
ĠDay break
Ver iSign
but ton
threat s
document ed
otb x
Ġprefix ed
Ġbud gets
ĠPlus DLL
Ġdim ension
ĠLZ MA
Ġroom s
ĠPet ro
216 6
Derusbi Thread
Ġdispatch er
ĠLoadLibrary A
ĠSing h
Ġcod ename
ĠSal ted
Ġquant ities
Ġtamper ing
TAR GET
Ġdram atic
ouch DB
WR ITE
pat tern
ĠEth ereum
Ġremind s
hy brid
ĠCreateProcess A
âĨ ĵ
ĠBR ONZE
Ġtrail ing
ĠOrca Rat
Ġpurs ued
Ġpet rochemical
ĠCab r
Ð¾ÑĢ Ð¼
ĠRep ly
Ġupper case
Ġunp redict
ĠPat tern
Ġguard ed
who is
ĠDiplom atic
ĠKen ya
Ġmand atory
ĠON WASA
Ġrating s
Ġpng downer
Ġmut ual
Ġremark ably
Ġepis ode
ĠKorDllbot s
job s
ĠSab Pub
ĠLan ka
ubles h
Ġplo y
Ġeaves drop
ĠMultip oint
ĠXS LCmd
ĠColor ado
ĠBLACK STAR
mc afee
rot ate
ĠSET TINGS
ĠCog ent
ĠBanks hot
Ġculpr its
Ġredund ancy
ĠPossib ly
Ġanim ation
Ġrul ing
Ġenfor ced
Ġappe al
Ġliter ally
âĢ¯âĢ¯âĢ¯âĢ¯ âĢ¯âĢ¯âĢ¯âĢ¯
prep ared
lter ing
ĠPir ate
ĠPir pi
ĠDer pTrolling
ĠByte Array
ĠCamb ridge
ĠEp hemeral
Ġarrange ments
Ġintens ity
fri end
wik ipedia
Ġprosp ective
Ð¾Ñģ ÑģÐ¸
Ġhal ted
ĠAUTH ORITY
ĠEu romaidan
ĠSerge i
Ġscramb led
Ġpolymorph ic
ASP ERAGENT
BASE MOD
Ġtrampol ine
POR TS
ĠGro ove
Ġvot ers
ĠFars i
Ġ".. \"
Ġharass ment
Wool ger
ãĢ Ĥ
ĠSJ TU
Ġunserial ize
ĠVALUE VAULT
Ġtrunc ated
ÐµÐ½Ð¸ Ðµ
ĠOptim izer
ĠFleet Commander
ĠTian jin
Ġdiscred it
Ġbount y
Ġascer tain
ĠDroid Jack
ĠFace Time
Ġconvin ced
Ġball istic
Ġfasc inating
Ġrecalc ulates
ĠTUR BINE
Ġindef initely
START UP
Ġinconven ience
Fact ory
Mai rie
Oce anLotus
ĠSle ipnir
Ġ864 00
Ġphiloso phy
Ġelig ible
ĠAcqu isition
Ġeth ical
yclo pedia
Ġdelimit ers
Ġtinym et
ĠAlper ovitch
Ġpractition ers
Ġkiloby tes
Sof acy
Ġbesp oke
ĠTeh ran
Ġnipp lib
ĠRai u
Ġabrupt ly
ovolta ic
ERGET IC
% /
' ;
) ((
. ;
0 23
1 200
3 18
3 16
4 20
4 10
4 38
6 14
6 08
6 36
6 01
7 57
8 24
: ,
; \
@ ]
A Z
A udit
A meer
B inary
B YTE
C I
C AD
C lipboard
C olor
D en
E tumbot
E mdivi
F ast
G V
G allery
H ER
H MI
H ikit
I ron
J B
K eeper
M er
M ask
M ission
N orm
N HS
N aid
N ING
N NM
O le
O asis
P AM
Q Q
R U
R ig
R CS
R UN
R ailton
S ogu
S amsung
T ap
T aking
U SA
U CS
V al
W M
W annaCry
W CM
X C
Y L
Y ahoo
[ '
[ @]
a que
a uthentication
b il
b nb
c g
c ult
d or
d le
d ubbed
e ws
e ach
f it
f und
f ocus
f etch
f unc
g ow
g ments
g reen
g ithub
h op
h io
h acking
j ack
k ows
l ife
m art
m ob
n f
n j
n orth
n ato
o IP
p in
p olitical
r ino
s X
s ample
s bin
s ina
t ip
t iff
t orrent
u S
u Soft
v p
v able
v ian
w ess
w av
x b
x fs
z ok
z antine
¡ å
Ã ł
Ð ¡
× ķ
â ŀ
å ¸
å ¼
æ Ĺ
Ġ `
Ġ Í¾
Ġ ï¬Ĥ
Į å
Ġt ional
Ġt iff
Ġt rip
Ġa te
in ition
in formed
er ation
re nt
re cent
re verse
Ġc der
Ġc nc
Ġc tl
Ġc aches
Ġc calc
Ġc iphers
Ġthe ories
at tr
Ġs on
Ġs ic
Ġs cc
Ġs ky
Ġs ne
Ġs ched
Ġs Commerce
ed c
en ix
en ara
es et
es ity
or ation
Ġin tern
Ġin aug
is ive
is ance
Ġb iz
Ġb ureau
Ġb png
Ġb virt
al ive
Ġw l
Ġw he
Ġw int
Ġw ise
Ġf un
Ġp il
Ġp added
Ġd n
Ġd uo
ec rypt
ec mgr
ro upt
ar ab
Ġm of
Ġm usic
an os
an other
ac les
as a
as mx
Ġv Bulletin
Ġre jected
Ġre writing
lo v
le ased
Ġh all
Ġh olidays
ĠT S
ĠT ier
ĠT iki
ĠT FTP
ĠT ogether
ĠT bil
te ps
Ġe ffic
ĠS I
ĠS it
ĠS ol
ĠC ru
ĠC ox
ĠC itect
ĠC LI
ĠC odo
ĠC edar
ĠC errudo
ĠC ouchDB
Ġn er
ut sc
Ġbe llig
un i
ĠA E
ĠA mb
ĠA AA
ĠA umlib
ur ally
ur prisingly
Ġ( ((
ab its
Ġis land
ĠI SO
ĠI CA
ĠI xeshe
im d
im ated
im pl
im ony
ad m
ig g
ĠM ic
ĠM av
ĠM MS
ĠM erc
ĠM uslim
ĠM IDI
ĠM snMM
Ġl l
Ġl nk
Ġl ingu
Ġl iability
ol on
Ġ1 64
ag ga
ter y
Ġg ras
Ġg ender
Ġg fx
ĠP ad
ĠP ure
ĠP CS
ĠP IA
ĠThe ft
ĠW AP
ĠW rites
ĠD TLS
ĠD PP
ĠD anti
ĠD ovec
ĠD ridex
ch an
ir q
ir able
tr uth
tr ast
tr aveler
ay ing
ay ton
ĠR ule
ĠR IG
ĠR AND
ĠR yuk
ĠF AT
ĠF ager
Ġcomp lement
Ġcomp ete
ĠU G
ke e
th es
el ter
el se
el ist
ĠE ll
ĠE HP
ĠE agle
00 20
00 04
ĠO l
ĠO ri
ĠO wn
ĠO wner
qu ake
ist ant
Ġad here
âĢĻ ),
Ġst ays
Ġst ood
ĠH M
ĠH orse
ĠH FS
ĠB ACK
ĠB arr
ĠN u
ĠN CC
Ġde gr
Ġun connected
Ġun readable
Ġun icode
Ġun changed
Ġ2 18
Ġ2 23
ĠG ather
ĠG DS
ĠG GE
Ġr ush
Ġr aid
sp lit
Ġsu ited
Ġsu ffers
Ġfile path
ĠL ai
ĠL oop
ĠL loyd
ra id
Ġsp ans
Ġsp rintf
act ivity
Ġ3 000
Ġ3 89
ĠâĢľ {
lic ted
um ulative
Ġbit shift
Ġse p
iz hi
ib ank
Ġ" !
ew eb
Ġch oices
em e
em esis
li e
Ġsh r
Ġem p
ult ing
ĠJ ones
ĠJ osh
Ġdis pro
ĠV en
ĠV acon
ĠV IOS
ach head
ĠK R
ĠK le
ĠK aw
co gn
Ġx xxxx
Ġx xxxxxxxx
Ġcommand ers
Ġcan cel
ub b
Ġoper and
ĠCh op
ĠCh ronicles
ĠCh engdu
min er
min zok
Ġconf ined
eb e
arch ing
Ġ20 20
Ġ10 6
Ġcraft ing
ap r
ĠAP AC
Ġpl ugged
Ġdec ides
Ġdec entral
ĠEx im
ĠSt uart
Ġany body
Ġinv oices
Ġinter ruption
AT CH
Ġdifferent iate
ĠRe place
ĠSP SS
11 29
ĠCom ments
SS P
ree ye
Ġres ence
Ġres umes
ok ra
Ġ11 00
Ġaccount able
Ġset tle
Ġset hc
Ġpass ively
ĠWeb Client
ĠWeb sense
ĠWeb washer
ĠApp end
ish a
ish vili
Ġorganiz a
In stitute
15 64
Ġj b
be h
ĠOr chestr
ĠPro vision
Ġprot otype
Ġ/ *
64 59
iss on
Ġinject ions
13 67
13 68
13 70
13 72
13 73
ov ych
Ġ[ âĢ¦
14 27
14 93
Ġste pping
Ġsent iments
Ġ: \
07 64
ade qu
Ġprogram mer
Ġme g
Ġme ets
ĠPl agiar
ĠURL Download
19 80
ves ter
enc ode
Th ank
ĠSh ah
IN IT
09 7
Ġtra it
ared on
Ġdiscover ies
AN N
ĠCon ceal
Ġdisc ip
Ġdisc ont
Ġdisc ipl
ilit ating
05 71
05 78
05 72
06 09
06 05
Ġtrans liter
:// ]
Ġvis a
ĠInd uSoft
ĠZ ubair
ĠAl ways
onstr uction
Ġear ned
ĠMac ro
pro pag
pro perties
Ġam bit
Ġwar ri
ax y
Wh y
ĠNO P
26 1
26 9
Ġpr one
St atus
35 44
Ġeas iest
Ġpresent ations
Ġ17 61
con nection
Ġlast ing
Ġsuggest ive
02 19
ĠWin amp
Ġextens ible
37 2
37 4
Ġlocal ized
34 3
34 6
Ġwrit ers
Ġel s
ï¬ģ reeye
ĠQ TI
Ġclear ing
az a
Ġmin iduke
ĠRes olution
ĠOpen VMS
att ribution
ĠDirect Show
ĠComp ared
Com put
Com mit
Com parison
ĠSe quence
RE Q
Ġevery where
Ġdistribut or
inf ect
Ġsur g
ĠBe endoor
Ġtext ual
Ġ< %
AS HO
AS RT
59 0
59 2
ek t
light ed
Ġfore ground
ĠCSC tt
ĠÐ ·Ð°
Ġed g
cl amav
Ġarg u
Ġproxy ing
Ġsmall est
Ch arge
RO FILE
An unak
Ġopp osite
Ġrandom ization
ĠNet BSD
98 5
ĠReal Media
Ġref rain
attack ers
Ġstrong est
CC C
Ð¾ ÑģÑĤ
Ġinstr umentation
EN TR
ĠQu agga
ĠSaf ran
Ġprom otion
ĠPE B
Ġtask list
rupt ed
File W
File Size
Ġaccept able
ĠResearch er
pre t
Ġbr anding
PN F
apt o
SP E
SP ROFILE
Ġhist ories
Con sole
Ġexport ing
system root
ĠTwitter JS
aw a
Ġcompress es
Ġtrojan ed
ĠGener ally
63 00
entr um
bot net
Ġnational ist
Ġwin inet
ĠVis it
gu ide
comp any
comp onent
comp iled
Ġassess ing
IE M
Ġcirc uit
Ġbl urred
Ġcorpor ation
Ġoffer ings
ĠGu ide
ĠDis ney
SQL ite
ĠMod bus
ĠOb esity
anc ies
ĠSpec ifies
Ġâ ŀ
Tr ump
ĠWork er
ĠLog ic
Ġsym path
ĠCo in
ĠCT F
def ence
ĠSO GU
ĠPre vent
undred s
Ġcounter fe
ĠSC TP
........ ....
ĠDomain Tools
Ġdang ers
Ġfalse ly
Ġcr ude
De vices
Ġcalc ulating
install er
Ġadvis ors
umb ler
Ġweapon ised
ĠST ART
ĠST YLE
Ġfilter ed
Ġsco ut
Ġproceed ing
ĠMar quis
Ġinsp ecting
Ġtax onomy
ĠKe vin
ao ux
ĠCR ASHO
Ġrepe ats
ĠDE LT
PL ATINUM
ĠAv ailability
ĠPers p
Ġmodern ization
Rec ord
Ġq emu
Sy rian
Str ings
Ġris en
des c
des igned
Read WaitingData
ïº ®
Ġprec ursor
Ġassum ptions
Ġbad ly
Ġcipher ed
ĠAT D
CH ECK
Ġsl ave
AK E
ĠAb lyaz
SM TP
nes ia
fix tools
364 1
364 2
364 3
364 4
ĠMo hammad
NE W
Ġtro ve
TL D
Ġsuper f
Ġinterpre ts
Ġcenter ed
Ġremed y
Ġdomest ically
Or g
ĠTer rit
Rem exi
Ġsan itization
Ġsan ctioned
ĠTel vent
Ġiter ate
win sta
ĠRead y
ev ents
Act ivity
Form at
QU EST
incip al
Ñĥ Ñİ
Ġri dd
Ġpanel s
ĠSupp liers
tl b
Ġ>> >
Mod ified
Ġwire tap
CO FF
USER SPROFILE
gener ated
Ġslow ed
Ġdece ive
ĠProv iders
ĠIntr anet
Ġshif ts
Des k
Des ign
root kit
ĠDouble Click
ĠCertific ates
Ġcompr ise
Ġign oring
Proc Name
Ġemphas izes
Ġir relevant
ĠWrite File
Ġdepart ure
LI B
ctr l
ĠSur vey
ĠBr unei
Ġevalu ated
Ġevalu ating
ĠJournal ists
Ġilleg itimate
Lnk N
inv estig
Ġspons oring
ĠVari ants
ĠSw iss
ĠSw ift
acc ording
ki ri
ĠCare CERT
ĠComf ort
Red irect
Ġmeasure ment
hol ing
ĠCharacter izes
Ġdistingu ishing
Ġpreced ent
rout er
Ġconce ivable
064 2
064 5
tel ecom
ĠEle phant
ĠOil Rig
ĠGam aredon
ĠSpear phishing
HOME PATH
ĠMot ion
ĠCa rol
Ġinbox es
ĠDOC X
ĠInject ors
UB NI
UB LEFANTASY
PT ray
wid get
ĠSR P
ĠHard y
Ġassault s
609 0
ĠRoman ian
Ġdisp ers
Ġmim ics
Ġidentiï¬ģ er
ĠHeart bleed
FW SM
ĠEV FS
ĠHot fix
techn ology
Ġexc lude
ĠTem plate
Ret rie
Ret urns
Ġproc ure
ĠLinks ys
Exploit ation
Ġmails lot
Ass ad
Ġjud ging
ĠFact or
ĠWorm s
van ovich
Ġcommission ing
Ġaggreg ation
ĠContin ues
Iran ian
edi at
Ġexec Str
execut able
Initial ize
Ġ<< <
ĠGuang zhou
Go vernment
ĠICMP v
Ġthumb nail
ĠLithuan ian
ĠObfusc ators
ĠMarc zak
kin en
ĠDisk coder
Ġcorrel ations
Em bedded
Ġporn ographic
pres ident
ĠDat ong
Ġlegis l
Ġsqu are
ĠRisk IQ
Ġrevolution ary
Ġmsvc rt
ĠIG SS
ĠRemov ing
Ġseparat ist
ĠNaval ny
ĠSwed ish
Ġconfront ation
Ġsubtract ion
ĠDebug ger
ĠMad i
Ġproï¬ģ ling
ĠGal axy
Ġrul ed
Ġdistract ion
Ġsatisf ied
refer red
ĠEN ERGETIC
activ ate
Ġupt ime
Ġdisconnect ing
mys ql
ĠProm pt
Ġcasual ties
ĠEB X
Ġadequ ately
ĠBulg aria
ĠYan uk
Analy zing
ĠCla udio
ĠIo Cs
Ġstake holders
ĠExfiltr ation
Ġlawy er
æµ ·
Ġhous es
ĠCamb odia
import ant
Ġcab inet
Ġori ent
Ġori ented
Rece ive
ADD RESS
big fixtools
Ġexcess ive
Cosm ic
åĮ º
Ġmunicip al
ĠUber cart
Ġmoder ately
Ġjuris dict
ĠSCR IPT
Ġboun cer
ĠMount ain
ĠInsp ection
Ġoverwhel ming
Ġvolunte er
Ġ\" %
Ġcontrad ict
Her itage
Sand worm
Ġconvic ted
ĠJak arta
Ġanalog ous
Ġampl ification
ĠQue ue
ĠScr utinizer
Enumer ate
PROGR AMS
Ġsuff ix
Ġmistaken ly
Dro pped
bro ken
ĠCOL UM
ĠPiw ik
ĠDJ I
ĠDie go
ĠUri minzok
Ġzer os
Ġretarget ing
Sci eron
Ġtheoret ically
olph in
Ġgn ome
Ġstead ily
Ġcamoufl age
Saver Extension
Unc ia
revers ing
ĠSCS I
Ġlux ury
ĠRasc agn
ĠNetw ire
Ġimpr ison
ĠLeo Uncia
Ġdecept ive
Ġrhetor ic
Offic ials
è· ¯
ĠAUR ORA
Ġwholes ale
Ġcosm u
Ġdisadvant age
ĠKos kinen
Ġpeac etime
Ġtroub ling
å®ī åħ
gch appy
ĠSIG INT
ĠCyp rus
Ġarithmet ic
Ġunderst ands
Ġzw Shell
ĠScorp ions
otbx dx
ĠCabr era
Ġunpredict able
Ġcder learn
roupt umbler
ĠTbil isi
Ġeffic acy
utsc he
Ġbellig er
ĠDovec ot
ĠFager land
ĠProvision ing
ĠPlagiar ist
ĠCRASHO VERRIDE
ĠDELT A
UBNI UM
ĠUriminzok kiri
" ).
) âĢĶ
+ .
+ âĢĿ
- %
0 117
5 10
6 34
7 07
7 29
8 02
9 03
9 29
= {
@ @
A VE
B P
B Y
B r
B us
B ind
B ey
B ees
B AB
B ooks
C ard
C IP
C RE
C entral
D V
D w
D er
D em
D atabase
D OT
D NC
D OWN
D ifferent
D GS
E V
F ound
F ocused
G M
G lass
H ence
H ome
H ound
I l
I p
I ss
I sl
K Y
K re
K ed
K en
K ill
L inks
M g
M ill
M ilitary
M apping
M AND
N ova
O ption
O ften
P Z
P et
P AR
P akistan
S usp
S DK
S IM
S cheduler
S cope
T ake
T oken
T itan
T ogether
U ns
U WN
V T
V ersions
W iz
W OR
W ild
W icked
X O
X LS
Y MAL
Z X
Z Y
[ *]
_ %
_ âĢĿ
a ax
a Duke
b h
b ell
b ulletin
b ridge
c B
c end
c ue
c one
c aster
c bc
c bb
c illary
d ue
d ark
d ynamic
e ment
e av
e ither
e val
f n
f on
f ax
f raud
g b
g c
h l
h ed
h us
h our
h wp
j ournal
j pc
k x
k im
k orea
l at
l ide
m ag
m ajor
m arily
m ood
m andiant
m apping
m illion
n r
n x
n est
n ai
o ured
o pher
p ed
p ly
p ot
p owershell
p wd
q m
r ac
r ill
r sa
s q
s il
s qu
s ap
s aid
s uper
s bd
t ab
t old
t ml
t cl
t iger
t ale
t mgr
v als
w a
w c
w get
x a
x auth
y pt
y andex
z es
z apto
Ã ¨
å ¿
æ ´
æ Ī
æ Ł
ç ī
Ġt ure
Ġt ibet
Ġt remend
in Tech
in mann
er vice
re Office
Ġc ious
at ars
Ġo mits
Ġs ow
ed on
it ate
or andom
Ġb et
Ġb ash
Ġb ars
al ink
al loc
Ġw k
Ġw ield
Ġw aged
Ġw inter
Ġf p
Ġf oc
Ġf iction
Ġp un
Ġp ud
Ġd ws
ic an
ic ating
ic ator
ec aches
ar ce
ar ray
us ations
Ġm k
Ġm sp
an onym
an onymous
ent ries
ac a
et z
et ect
et aling
Ġv an
Ġv enues
Ġre ss
Ġre per
Ġre install
Ġre acted
Ġre negot
lo ver
le ading
Ġh a
Ġh es
Ġh oney
ĠT ec
ĠT IA
ĠT FC
te ll
Ġe gr
ĠS z
ĠS ure
ĠS av
ĠS AS
ĠS ne
ĠS ources
ĠS onic
ĠS cheduled
ĠS ucuri
ĠC B
ĠC ool
ĠC LO
ĠC OD
ĠC licking
ĠC laims
ĠC atherine
âĢ ĳ
ut ation
he ard
he alth
ĠA AC
ĠA MP
ĠA CC
ĠA RC
ĠA DO
ab bit
Ġis t
ver ning
Ġcon serv
ĠI IOCs
st h
st or
st able
st ory
ad elph
ow all
od Tools
ĠM N
ĠM U
ĠM unk
ĠM MM
ĠM APP
Ġex otic
ol ated
are st
Ġg p
Ġg id
Ġg est
Ġg ra
Ġpro wess
ĠP AM
ĠThe me
ĠW rapper
se ong
ĠD N
ĠD Y
ĠD ot
ĠD raw
ĠD IB
ch k
ch al
ch unk
ch ulas
ir ut
tr as
tr fs
ĠR h
ĠR id
ĠR od
ĠR ay
ĠR ome
ĠR EC
ĠR IPE
ĠR imasauskas
ĠF ew
ĠF air
ĠF ortunately
and ed
ke i
est ag
th ese
ss ier
el co
up data
00 06
Ġinf ra
Ġmal code
ĠO L
ĠO le
ĠO ption
ĠO lder
ĠO hio
Ġcont ing
per f
Ġad ult
Ġad mit
ort ium
ĠH Q
ĠH o
ĠH ans
ĠH uss
ĠH aw
ĠH DD
ĠH aq
ll ll
Ġck er
ĠB ind
ĠB ob
ĠB etter
ĠB ody
ĠB attle
ĠN BM
ĠN BC
ĠN DC
Ġde put
Ġde bit
Ġun ion
Ġun ified
Ġun know
Ġun mask
Ġun earth
Ġun published
Ġ2 13
Ġ2 16
ĠG T
ĠG ab
ĠG od
ĠG LO
ĠG PG
Ġlo ans
arg v
Ġr k
iv ast
Ġ201 01
Ġco lo
âĢĿ -
Ġhave x
ĠL B
ĠL ia
ĠL ip
ĠL ou
ra ken
act or
ations hip
art z
ĠâĢľ âĢĻ
um seong
ill s
ud ge
Ġhas ht
Ġse am
ib re
Ġ" <
ex per
Ġ0 38
Ġch ats
em pty
Ġsh orter
Ġsh adows
Ġsh arp
Ġem ulate
Ġem ulator
ĠJ in
ĠJ BE
ip Chat
ip odTools
Ġ6 55
ear ing
ĠV A
ĠV PTray
ach enko
ĠK yle
ĠK itty
ĠK urt
ĠK ASPERAGENT
ang es
Ġ5 55
Ġab stract
Ġcommand line
Ġcan vas
ĠCh er
ĠCh alleng
ĠCh ien
Ġ7 00
Ġ7 50
Ġup stream
to uch
2011 1103
Ġover arching
Ġ8 32
Ġinst ability
ĠTh ai
Ġcontain ment
av l
av kaz
Ġ10 5
Ġ10 33
Ġreg istries
ĠX I
ĠX PS
Ġdec isive
ĠEx plo
Ġev il
ari ans
10 28
10 19
10 59
Ġenc odings
ĠRe putation
Ġsc ra
Ġsc atter
Ġsc ada
11 11
11 25
Ġwho pping
ink hole
Ġ9 000
Ġactiv ism
Ġkey chain
12 25
ree ments
Ġsim ulation
ont ium
Ġk ick
Ġdef unct
Ġdef iant
Ġav atars
In ternal
Ġsub ordin
Ġsub mits
LL O
Ġj am
ĠWh ilst
ĠServer Hello
cover er
esp aces
ĠEn abled
13 66
Ġcons cious
17 01
28 83
Ġqu o
ext ended
Ġgener ators
ĠWe apon
Ġmem orial
07 57
27 1
27 5
ash ed
ka i
ick ery
19 99
ms n
ĠMan ufact
wn ed
ĠSh ift
ĠSh opping
ĠSh utdown
ĠSh enyang
03 18
Ġadv ances
Ġrece iver
ĠCon way
ĠCon nected
04 9
04 11
04 09
04 87
ps on
05 0
05 59
05 60
05 61
05 74
05 73
33 6
06 00
Ġunder going
sh an
sh ire
Ġvis ually
ĠInd icates
ĠZ y
ĠZ HANG
ĠAr bitration
ĠAr gument
ĠAnd re
pro duction
pro jects
Ġend eav
ĠNO D
tract ed
45 06
45 025
26 5
26 00
St atic
ector al
Ġ17 8
ik h
Ġvalid ating
Ġvalid ator
Ġ19 96
Ġ19 80
Ġintegr ate
MS DEV
37 3
36 89
Ġappear ances
Ġhttp chen
Ġ15 00
Ġban ners
ĠCisco Works
work ing
ateg ories
par agraph
az ing
Ġmin us
ĠDec ryption
Pro of
ĠComp rehensive
48 0
ĠSp indest
OC ESS
Ġrespons ibly
ĠSe an
vert ising
Ġadvers ar
Ġindex es
Ġevery day
ider man
Ġcontext s
Ġcontext ually
Ġsur m
ĠBe ginning
Kit tens
ĠFin ance
Ġroot ed
Ġ< >
Ġ< ==
de ploy
ĠMin sk
AD OWS
ĠAdd ing
Ġauthor ize
inc idents
Ġresol ver
Ġarch iving
Ġarg ues
IC LE
ĠRem sec
ĠAnt imalware
Ġshort en
Ġtem po
Ġver dict
Ġec om
Ġmaintain ers
comm unity
Ġrandom ized
Ġ24 6459
ĠNet S
ĠIs land
ĠAt lassian
aps i
99 3
attack er
Ġweek days
not es
ĠGe ers
ĠGe umseong
Ð¾ ÑĤ
ĠMy Web
ĠBack ground
ĠRec over
ĠCloud Bees
Ġperiod ic
Ġpurpose fully
ĠPL M
EN C
ĠInter est
Ġinteract ed
apt ers
ĠSte phen
ĠSE H
ĠSE ANux
Ðµ Ð½Ñ
Ġnet cat
Ġvol atile
Ġsum mit
Ġms d
Ġms k
Ġms html
Ġms hta
ĠDes criptor
etr ics
HE LL
gu i
Ġobser ver
Ġrecon figure
ĠVirus es
Un ivers
Ġcour tesy
Ġlaw ful
Up dates
Ð¸ Ð±
Ġcirc ulation
ĠCre ation
Ġachie ves
ĠGu ccifer
ĠTim estamp
ĠGet ting
ĠLib reOffice
Ġmean while
Ġwater holing
ĠForm er
ĠPer iod
ĠMon keys
sequ ence
ÑĤ ÑĮ
ins ki
Sh ared
Ġdw Size
Ġur ging
ĠCSCt u
ĠCSCt w
ĠPC Rat
ĠDel hi
Ġcorrect ed
ĠIR IS
-- [
Ġdiss ident
ĠSO E
ĠSO FTWARE
Ġill umin
ĠAff ili
idel ity
ĠIN T
ĠIN TER
Ġcounter ing
Ġunc ation
........ .....
Ġconstruct or
Ġenumer ating
ï» ¨
ï» ²
ĠSi elco
Be ginning
Sc ot
Sc arlet
ĠBu f
Ġescal ating
ĠLink er
Ġside loading
pth ority
Ġcol ors
Ġevol ves
De ploy
Ġforens ically
Ġsurveillance ware
** *
Ġlab s
bor ne
Ġdisgu ising
:" --[
Ġcontract ed
Ġide ally
At om
Ġrecogn izing
Ġrecogn izable
Ġrefl ecting
Ġweapon ize
ĠIE EE
ĠRev oked
ĠAir port
ĠPass code
Ġtravers ing
hel per
ĠTrans lated
aa a
ĠRE DDWARF
Ġoutl ining
ĠInstall ed
ĠCS EC
Set ting
Ġdr one
Work er
Ġinvest ing
Fire fox
ĠElect rum
ĠAm nesia
Ġlimit ation
Ġgr ad
ĠPatch ed
Ġuint l
Ġbenef ited
Ġbenef ici
Admin istrator
Ġdiplom acy
Attack er
Comp onent
Ar ch
fc b
Sy nc
Ġlight ly
Ġspok en
ïº ª
atur ally
ĠCN E
ĠSmart y
xC ls
Ġagree ing
uck ily
ĠAtt orney
ĠRegistr ar
ĠColl ection
ĠSil vanovich
Ġcond itional
ĠMo j
Ġspot light
NE asy
Ġtro op
Ġaltern atively
ĠUnic orn
ĠCall s
Ġrecommend ation
pos itory
process ing
Ġgot ten
Ġconver ting
Sim plified
ĠTer minate
Ġlabel led
Mail er
Ġcollabor ated
pha el
Ġmind set
Is bu
Ġwarrant s
Ġwarrant ed
ze hir
ĠKing soft
Ġdeg rees
ĠPe king
Ġmas king
Ġseed ed
Ġinstant iation
Ġpolic ym
Ġsleep ing
400 4
ĠCommit Charge
Ã© sum
ĠVer ify
ĠVer ification
ĠVer isign
Ġsw ift
ä¸ ľ
Ġdiv ul
Ġaggress ion
gener al
rem ove
ĠLive Grid
Ġdepend ency
Ġdepend encies
HK EY
ĠDemocr acy
Ġrelay ing
ĠProgram s
ĠHealth care
Ġpossess ed
ĠSys log
ĠSys Update
ĠSys main
Ġacadem ia
ĠDrop It
Ġecosystem s
Ð² Ð°
Ġrestore s
ĠSH ADOWS
aut om
ĠCOR BA
Ġemphas ized
Ð´ Ð°
ĠDi achenko
sn ake
ĠSpy Note
ĠPerson a
Ġmasquer aded
æľ ĥ
Ġcru ise
ĠEmb assies
Ġhav oc
ĠVol gmer
Ġrecru ited
Ġanom aly
ĠOpt ional
ĠGOT HIC
Ġterrit ories
Ġcle ared
Ġobsc ured
plug x
âĤ¬ âĢĭ
Ġguess ed
Ġdir api
Ġanonym ized
ĠBro ok
hh oc
Gener ate
gl ecaches
Ġadminister ed
Sub s
ĠLight NEasy
Pres ident
Ġconcentr ate
Ġconcentr ations
Ġacknowled ges
OPS EC
Par ams
ĠPrivate Memory
cre ation
Ġmer gers
ĠSpr ings
ĠMagic Hound
Ġgrab bing
Ġconflic ting
ĠChrist opher
Ev idence
WA LL
ĠMem Commit
Ġunf old
Ġunf amiliar
Rep ly
Ġmen us
ĠBo elter
Ġextortion ists
Ġwilling ness
ĠSOCK SS
ANE L
Ġvisual ization
EXEC UTE
ĠWP A
ĠNS IS
Ġnotor iously
Sys W
ĠHar vard
ĠExper ience
MENT S
ĠLaunch er
Ġpoll s
ĠACL s
ĠReser ve
Ġrot ation
Ġrot ating
Ġclever ly
Ġcod enamed
ĠActiv ities
ĠKeep Key
Ġhyper link
Ġdatas ets
Ġundert aking
Any one
iw i
Ð¿ Ð°
proc laimed
ftp d
Ġfavor able
ĠAfric an
Ġattract ing
ĠCON TENT
ĠAltern ate
BO ARD
Priv ate
åı ·
Ġrent ed
SW C
SW F
Ġmigr ate
Ġjud gment
Root kit
Ġwebshell s
yy yy
ĠGreat er
Ġ"- "
ĠChong qing
Ġaggreg ated
Ġscient ists
Ac cept
Computer Name
Ġdispos able
Force point
ĉĉĉĉ ĉĉ
pw c
ĠSuck fly
sum mar
tray ex
Ġnumer ical
Ġcripp le
Ġcripp ling
LOG Y
ĠMulti Group
Ġlp ProcName
Ġdeleg ation
ĠÐŁ Ð¾Ð¿ÑĢ
Oper ating
Ġfet ched
Ġcooper ate
Ġcooper ating
464 45025
Int Ptr
ĠBur ling
pres umably
Ġpixel s
Ġvent ure
ĠRob o
ĠHung arian
Ġboo lean
ĠSin apsi
ĠCRE AMS
Ġgram m
ĠHistor ical
ĠHistor ian
Ġforgot ten
Ġparam ilitary
ĠGuest book
current ly
ĠWell inTech
ocon f
!! !
organ ization
Ġsubtract ed
Ġpseud orandom
Ġteach er
ĠSl ide
ĠRA W
Ġsubsidi aries
Ġdisappear ance
Ġencompass ing
Bit coin
Rel ated
War ning
mys qld
ĠScient ific
ĠEstablish ment
Care to
Ġspray ing
Ġperipher als
ĠPowerS ploit
ĠEthiop ian
Ġreinfor ce
ĠPPS X
Ġwithdraw al
Ġrebuild ing
Ġfort un
Ġprovision ing
Ġmonet ize
ĠConn ector
Ġcounterpart s
Ġguarante es
Ġmissp elling
Investig ation
Equ ation
¨é ©¬
ĠHE AD
ĠBa um
ĠNB OT
Ġdeserial ization
Ġtempt ing
ĠGeo location
ÑĤÐ° Ðº
Bo ire
Ġcoerc ion
ĠLSA SS
ĠAbdul lah
cor ruption
Ġnav al
ĠDim nie
ĠFO UND
Ġprovin ces
Ġsvc md
Ġfal lout
ĠGra ham
Ġknock ed
Ġrevis ited
Ġvolunt ary
Beh ind
Ġscrutin ized
fold ers
ĠSB U
ĠMET A
ĠBund estag
HEAD ER
">âĶ ľâĶĢâĶĢ
Ġgarner ed
west dc
æĸ °
Ġappreci ate
ĠKov ter
ĠStat istics
Ġzh Cat
Ġtutorial s
ĠOG NL
ĠNF log
ĠElastic search
ĠBrand on
Graph ics
Ġcurs ory
Ġmss ecmgr
ĠSter ling
ĠMES G
Ġlin ear
Regard less
ÃĿ w
ĠVE N
Ġgad gets
Ġcompartment al
aze era
Cad elspy
Mult i
Nt Uninstall
NGO s
Ġbon us
ĠTorto iseshell
ĠCraw ler
ĠSerb ia
Ġdistur bing
Cer tific
mot ivated
moo o
ĠSentry o
ĠHen ry
Ġcorp us
ĠDeath Click
ĠDrew la
ĠELEC TR
ĠInnov ation
endip ity
ĠVx Works
coun try
Ġregu est
ritish news
Ġdiscrep ancies
ĠAnalys es
ĠPrem ium
NNM i
Ġsched ules
Ġduo jee
ĠCodo so
Ġdecentral ized
ĠURLDownload To
Ġdiscip line
ĠAblyaz ov
Ġridd led
ĠCarol ina
Ġjurisdict ions
ĠCOLUM N
Isl am
YMAL R
ĠCLO UD
adelph ia
ĠMAPP ING
ĠLip ovsky
ipodTools Cby
ĠCREAMS ICLE
" );
) âĢĿ.
/ "
/ _
0 202
0 115
4 113
5 46
5 49
6 23
6 39
6 57
6 65
7 09
7 34
7 47
7 58
9 06
9 45
= ,
> "
> >
A round
A long
A SCII
B ITTERBUG
B reak
C i
C AT
C IS
C HOPSTICK
D G
D i
D os
D addy
D epartment
E st
E ss
E ARCH
G own
G reen
G host
G ames
H I
H istory
J ul
J AVA
K SN
L IE
L KK
M a
M ic
M TP
M iddle
N B
N X
O pt
O DE
P an
P ASS
R on
R ow
R IM
R BN
S i
S at
S ong
S ound
S ock
S witch
S olar
S phere
S ERVER
T A
T N
T unnel
T ea
T ypically
T eX
U LE
U AG
U RCE
V R
V ista
W ed
W IC
W estern
Y u
Z W
\ '
] /
_ .
a ux
a ways
b j
b p
b al
c ve
c ub
c mp
c ron
c dd
c onduct
d est
d de
e ase
e ast
f ad
f acebook
f rog
g el
h j
h ad
i us
i enced
i ppet
j e
j k
k ish
l ite
m ates
m ont
m isc
n ine
n etworks
p od
r ising
s ans
s aw
s amples
t ur
t pl
t roll
u ate
u zer
u kraine
v u
v et
v ip
v pn
w iping
x md
x AA
y et
z ap
} {
° å
Â °
Ð Ĵ
Ð ĵ
Ð Ĺ
Ø ´
å º
å į
æ ¸
è §
Ġ ly
Ġ ud
Ġ ÑĢ
Ġ Åĵ
ĳ æ
ĺ Ł
ľ ¨
ľ ç
Ġt s
Ġt if
Ġt ips
Ġt ape
Ġt uned
Ġa ro
Ġa ward
Ġa warded
in er
in th
in sp
in os
in ny
in ternals
re v
re ated
re quire
re set
re fl
re ster
Ġc ve
Ġc old
Ġc ables
Ġc lip
Ġc urrencies
at tempt
at omy
Ġo us
Ġo sp
Ġs z
Ġs lot
Ġs olic
Ġs olved
it t
it im
it iously
en ek
es ha
is a
is ations
is cal
is py
Ġb at
Ġb le
Ġb ers
Ġb old
Ġb oy
Ġb gp
al uable
Ġf eb
Ġf ought
Ġf ighter
Ġp ent
Ġp ings
Ġp cre
Ġd ug
Ġd ashboard
Ġto y
ec ode
ec enter
Ġm ur
Ġm map
Ġm aturity
an try
an ik
ent als
ac s
ac ls
ac eroute
et m
Ġv ill
Ġv ex
Ġv ictory
Ġre ct
Ġre min
Ġre actions
le mar
Ġh abits
ĠT M
ĠT own
ĠT ap
ĠT ree
ĠT rib
ĠT ob
ĠT ell
ĠT MP
ĠT LD
ĠT rip
ĠT oken
ĠT ailored
Ġe q
ĠS on
ĠS ud
ĠS ant
ĠS we
ĠS AML
ĠS Locker
ĠS ERVER
ĠS IEM
ĠC ys
ĠC act
ĠC PC
ĠC FO
ĠC ategory
am ber
am ai
20 33
20 02
Ġbe achhead
un ix
ĠA I
ĠA id
ĠA th
ĠA CP
ĠA MS
ĠA uk
ĠA BB
ab d
ab l
ab unasar
ri ff
Ġcon gress
ĠI F
ĠI AT
im an
st olen
od af
Ġan g
Ġan ime
ĠM C
ĠM en
ĠM ol
ĠM ake
ĠM ars
ĠM OL
ĠM IL
ĠM sg
ĠM aidan
Ġl ucky
Ġex if
ol ent
Ġfor wards
Ġ1 33
Ġg host
Ġpro d
Ġpro long
ĠP ORT
ĠThe matic
ĠW W
ĠW al
ĠW ide
ĠW SD
ĠW ipbot
se in
ĠD UBNIUM
ch or
ch ild
ch ecking
pp e
pp onen
Ġwe igh
Ġwe aken
ĠR S
ĠR and
ĠR ename
ĠR onald
rom tech
ĠF X
Ġcomp ute
Ġcomp lications
Ġcomp licates
and ora
ulner able
ke ep
ke eper
ss et
el ib
ĠE AX
ĠE ugene
ĠE MEA
00 10
00 19
00 05
00 75
Ġinf ring
ĠO ak
qu ent
qu ences
per ate
per mission
Ġst re
Ġst umb
ĠH i
ĠH LP
ĠH BO
ĠH UMINT
ĠH iggins
ll or
ĠIn no
Ġnot ices
ĠB F
ĠB ost
ĠB IN
ĠB amb
ĠB ossert
ere x
ĠN P
ĠN ancy
ĠN arang
cc c
Ġde obfuscation
Ġun al
Ġun lawful
Ġun managed
Ġ2 12
Ġ2 200
ĠG ong
ĠG SS
ĠG RE
ĠG reg
ĠG aming
ĠG rab
ĠG rey
ĠG DPR
ĠG reek
oc s
Ġr use
Ġr anks
Ġ201 104
ĠL ex
ĠL ove
ĠL IST
ĠL ewis
all ing
ous ands
ĠâĢľ *
lic ensed
um ar
ill ustr
ud ging
Ġbit torrent
end or
end um
Ġ" ,
ex ter
ex pl
Ġacc usations
Ġch an
em ulation
ult y
ĠJ N
uct ions
ident al
ust otal
Ġdis mant
ĠV uln
ĠV ickery
ph ic
ĠK i
ĠK ash
ĠK ENT
ĠK iwi
unt s
unt ing
Ġ5 795
co e
co ordinated
Ġcan ce
ĠCh arger
ĠCh urch
ans w
Ġconf using
Ġconf isc
Ġstr anger
ens ible
rig ade
Ġtr ilog
Ġ8 08
ĠTh ought
Ġrel ent
Ġreg ulator
ap ache
Ġimp ed
Ġpar aly
rol ifer
ĠX DP
ĠX UL
ĠX AGENT
Ġspec iï¬ģcally
log s
ras es
os ity
ĠEx it
Ġdirect ors
ari at
Ġinv ocations
Ġinv aluable
Ġinter im
Ġenc oder
Ġrem n
yp etm
Ġout s
Ġout er
.. |
.. .âĢĿ
Ġpat ience
11 77
Ġrec yc
Ġdown grade
ĠCom bined
12 56
12 86
12 95
Ġsim ulated
Ġorgan i
Ġ11 4
ont ab
ont rol
Ġdef acing
Ġbu ck
ĠWeb log
Ġav enues
ced Tea
Ġdel ays
la ir
15 69
Ġent re
Ġent hus
Ġj ul
ĠWh itel
be e
net svc
Ġbot her
ĠPro j
ĠPro x
ĠPro FTPD
64 5
ĠEn ables
ĠEn forcement
13 37
13 69
Ġno ise
ĠHTTP Only
14 1
Ġsupp ress
Ġsupp lier
17 03
Ġform ally
28 90
Ġqu it
Ġqu arters
ext ension
ext ensions
ĠAd ium
Ġpack s
Ġpack ers
Ġmem cpy
Ġexp enses
ĠSo phisticated
Ġ: :
07 60
27 3
24 14
24 60
24 51
ĠPl ant
ms l
Ġz ips
Ġafter wards
enc ryption
Ġret ired
[...]
