{
  "version": "1.0",
  "truncation": null,
  "padding": null,
  "added_tokens": [
    {
      "id": 0,
      "content": "<s>",
      "single_word": false,
      "lstrip": false,
      "rstrip": false,
      "normalized": true,
      "special": true
    },
    {
      "id": 1,
      "content": "<pad>",
      "single_word": false,
      "lstrip": false,
      "rstrip": false,
      "normalized": true,
      "special": true
    },
    {
      "id": 2,
      "content": "</s>",
      "single_word": false,
      "lstrip": false,
      "rstrip": false,
      "normalized": true,
      "special": true
    },
    {
      "id": 3,
      "content": "<unk>",
      "single_word": false,
      "lstrip": false,
      "rstrip": false,
      "normalized": true,
      "special": true
    },
    {
      "id": 4,
      "content": "<mask>",
      "single_word": false,
      "lstrip": true,
      "rstrip": false,
      "normalized": false,
      "special": true
    }
  ],
  "normalizer": null,
  "pre_tokenizer": {
    "type": "ByteLevel",
    "add_prefix_space": false,
    "trim_offsets": true,
    "use_regex": true
  },
  "post_processor": {
    "type": "RobertaProcessing",
    "sep": [
      "</s>",
      2
    ],
    "cls": [
      "<s>",
      0
    ],
    "trim_offsets": true,
    "add_prefix_space": false
  },
  "decoder": {
    "type": "ByteLevel",
    "add_prefix_space": true,
    "trim_offsets": true,
    "use_regex": true
  },
  "model": {
    "type": "BPE",
    "dropout": null,
    "unk_token": null,
    "continuing_subword_prefix": "",
    "end_of_word_suffix": "",
    "fuse_unk": false,
    "byte_fallback": false,
    "ignore_merges": false,
    "vocab": {
      "<s>": 0,
      "<pad>": 1,
      "</s>": 2,
      "<unk>": 3,
      "<mask>": 4,
      "!": 5,
      "\"": 6,
      "#": 7,
      "$": 8,
      "%": 9,
      "&": 10,
      "'": 11,
      "(": 12,
      ")": 13,
      "*": 14,
      "+": 15,
      ",": 16,
      "-": 17,
      ".": 18,
      "/": 19,
      "0": 20,
      "1": 21,
      "2": 22,
      "3": 23,
      "4": 24,
      "5": 25,
      "6": 26,
      "7": 27,
      "8": 28,
      "9": 29,
      ":": 30,
      ";": 31,
      "<": 32,
      "=": 33,
      ">": 34,
      "?": 35,
      "@": 36,
      "A": 37,
      "B": 38,
      "C": 39,
      "D": 40,
      "E": 41,
      "F": 42,
      "G": 43,
      "H": 44,
      "I": 45,
      "J": 46,
      "K": 47,
      "L": 48,
      "M": 49,
      "N": 50,
      "O": 51,
      "P": 52,
      "Q": 53,
      "R": 54,
      "S": 55,
      "T": 56,
      "U": 57,
      "V": 58,
      "W": 59,
      "X": 60,
      "Y": 61,
      "Z": 62,
      "[": 63,
      "\\": 64,
      "]": 65,
      "^": 66,
      "_": 67,
      "`": 68,
      "a": 69,
      "b": 70,
      "c": 71,
      "d": 72,
      "e": 73,
      "f": 74,
      "g": 75,
      "h": 76,
      "i": 77,
      "j": 78,
      "k": 79,
      "l": 80,
      "m": 81,
      "n": 82,
      "o": 83,
      "p": 84,
      "q": 85,
      "r": 86,
      "s": 87,
      "t": 88,
      "u": 89,
      "v": 90,
      "w": 91,
      "x": 92,
      "y": 93,
      "z": 94,
      "{": 95,
      "|": 96,
      "}": 97,
      "~": 98,
      "¡": 99,
      "¢": 100,
      "£": 101,
      "¤": 102,
      "¥": 103,
      "¦": 104,
      "§": 105,
      "¨": 106,
      "©": 107,
      "ª": 108,
      "«": 109,
      "¬": 110,
      "®": 111,
      "¯": 112,
      "°": 113,
      "±": 114,
      "²": 115,
      "³": 116,
      "´": 117,
      "µ": 118,
      "¶": 119,
      "·": 120,
      "¸": 121,
      "¹": 122,
      "º": 123,
      "»": 124,
      "¼": 125,
      "½": 126,
      "¾": 127,
      "¿": 128,
      "À": 129,
      "Á": 130,
      "Â": 131,
      "Ã": 132,
      "Ä": 133,
      "Å": 134,
      "Æ": 135,
      "Ç": 136,
      "È": 137,
      "É": 138,
      "Ê": 139,
      "Ë": 140,
      "Ì": 141,
      "Í": 142,
      "Î": 143,
      "Ï": 144,
      "Ð": 145,
      "Ñ": 146,
      "Ò": 147,
      "Ó": 148,
      "Ô": 149,
      "Õ": 150,
      "Ö": 151,
      "×": 152,
      "Ø": 153,
      "Ù": 154,
      "Ú": 155,
      "Û": 156,
      "Ü": 157,
      "Ý": 158,
      "Þ": 159,
      "ß": 160,
      "à": 161,
      "á": 162,
      "â": 163,
      "ã": 164,
      "ä": 165,
      "å": 166,
      "æ": 167,
      "ç": 168,
      "è": 169,
      "é": 170,
      "ê": 171,
      "ë": 172,
      "ì": 173,
      "í": 174,
      "î": 175,
      "ï": 176,
      "ð": 177,
      "ñ": 178,
      "ò": 179,
      "ó": 180,
      "ô": 181,
      "õ": 182,
      "ö": 183,
      "÷": 184,
      "ø": 185,
      "ù": 186,
      "ú": 187,
      "û": 188,
      "ü": 189,
      "ý": 190,
      "þ": 191,
      "ÿ": 192,
      "Ā": 193,
      "ā": 194,
      "Ă": 195,
      "ă": 196,
      "Ą": 197,
      "ą": 198,
      "Ć": 199,
      "ć": 200,
      "Ĉ": 201,
      "ĉ": 202,
      "Ċ": 203,
      "ċ": 204,
      "Č": 205,
      "č": 206,
      "Ď": 207,
      "ď": 208,
      "Đ": 209,
      "đ": 210,
      "Ē": 211,
      "ē": 212,
      "Ĕ": 213,
      "ĕ": 214,
      "Ė": 215,
      "ė": 216,
      "Ę": 217,
      "ę": 218,
      "Ě": 219,
      "ě": 220,
      "Ĝ": 221,
      "ĝ": 222,
      "Ğ": 223,
      "ğ": 224,
      "Ġ": 225,
      "ġ": 226,
      "Ģ": 227,
      "ģ": 228,
      "Ĥ": 229,
      "ĥ": 230,
      "Ħ": 231,
      "ħ": 232,
      "Ĩ": 233,
      "ĩ": 234,
      "Ī": 235,
      "ī": 236,
      "Ĭ": 237,
      "ĭ": 238,
      "Į": 239,
      "į": 240,
      "İ": 241,
      "ı": 242,
      "Ĳ": 243,
      "ĳ": 244,
      "Ĵ": 245,
      "ĵ": 246,
      "Ķ": 247,
      "ķ": 248,
      "ĸ": 249,
      "Ĺ": 250,
      "ĺ": 251,
      "Ļ": 252,
      "ļ": 253,
      "Ľ": 254,
      "ľ": 255,
      "Ŀ": 256,
      "ŀ": 257,
      "Ł": 258,
      "ł": 259,
      "Ń": 260,
      "Ġt": 261,
      "Ġa": 262,
      "in": 263,
      "er": 264,
      "Ġth": 265,
      "on": 266,
      "re": 267,
      "Ġc": 268,
      "Ġthe": 269,
      "at": 270,
      "Ġo": 271,
      "Ġs": 272,
      "ed": 273,
      "it": 274,
      "en": 275,
      "es": 276,
      "or": 277,
      "Ġin": 278,
      "is": 279,
      "nd": 280,
      "Ġb": 281,
      "al": 282,
      "Ġw": 283,
      "Ġf": 284,
      "ion": 285,
      "Ġp": 286,
      "Ġd": 287,
      "Ġto": 288,
      "ic": 289,
      "ec": 290,
      "ing": 291,
      "ro": 292,
      "ar": 293,
      "il": 294,
      "us": 295,
      "Ġm": 296,
      "Ġand": 297,
      "an": 298,
      "Ġof": 299,
      "ent": 300,
      "ac": 301,
      "et": 302,
      "om": 303,
      "as": 304,
      "Ġv": 305,
      "Ġre": 306,
      "lo": 307,
      "le": 308,
      "ers": 309,
      "Ġh": 310,
      "ĠT": 311,
      "te": 312,
      "Ġe": 313,
      "ation": 314,
      "ĠS": 315,
      "ul": 316,
      "ĠC": 317,
      "Ġn": 318,
      "âĢ": 319,
      "ly": 320,
      "am": 321,
      "20": 322,
      "ut": 323,
      "Ġbe": 324,
      "un": 325,
      "he": 326,
      "Ġus": 327,
      "ĠA": 328,
      "ack": 329,
      "ect": 330,
      "ve": 331,
      "ur": 332,
      "Ġ(": 333,
      "ab": 334,
      "ri": 335,
      "Ġis": 336,
      "ity": 337,
      "ct": 338,
      "201": 339,
      "ver": 340,
      "Ġcon": 341,
      "Ġat": 342,
      "ĠI": 343,
      "im": 344,
      "st": 345,
      "id": 346,
      "Ġcom": 347,
      "ad": 348,
      "ig": 349,
      "ow": 350,
      "Ġthat": 351,
      "ot": 352,
      "Ġon": 353,
      "od": 354,
      "if": 355,
      "Ġan": 356,
      "ain": 357,
      "ore": 358,
      "ĠM": 359,
      "Ġl": 360,
      "Ġex": 361,
      "ol": 362,
      "Ġfor": 363,
      "Ġ1": 364,
      "Ġwh": 365,
      "ag": 366,
      "ith": 367,
      "ter": 368,
      "Ġatt": 369,
      "Ġor": 370,
      "are": 371,
      "pt": 372,
      "ce": 373,
      "Ġg": 374,
      "Ġpro": 375,
      "ĠP": 376,
      "Ġas": 377,
      "ess": 378,
      "ate": 379,
      "VE": 380,
      "ĠThe": 381,
      "Ġwith": 382,
      "ĠW": 383,
      "se": 384,
      "ment": 385,
      "ia": 386,
      "Ġattack": 387,
      "Ġal": 388,
      "ĠD": 389,
      "ch": 390,
      "ir": 391,
      "tr": 392,
      "Ġby": 393,
      "ay": 394,
      "pp": 395,
      "Ġwe": 396,
      "ile": 397,
      "ĠR": 398,
      "rom": 399,
      "ĠF": 400,
      "abil": 401,
      "ws": 402,
      "ware": 403,
      "ner": 404,
      "Ġser": 405,
      "Ġit": 406,
      "Ġcomp": 407,
      "ial": 408,
      "ĠU": 409,
      "Ġ.": 410,
      "ary": 411,
      "ated": 412,
      "and": 413,
      "ulner": 414,
      "CVE": 415,
      "ĠâĢ": 416,
      "ke": 417,
      "est": 418,
      "th": 419,
      "ss": 420,
      "ulnerabil": 421,
      "el": 422,
      "up": 423,
      "ys": 424,
      "so": 425,
      "fore": 426,
      "ĠE": 427,
      "Ġvia": 428,
      "00": 429,
      "Ġinf": 430,
      "orm": 431,
      "Ġmal": 432,
      "Ġbefore": 433,
      "ies": 434,
      "ĠO": 435,
      "Ġcont": 436,
      "qu": 437,
      "ist": 438,
      "ure": 439,
      "per": 440,
      "Ġthis": 441,
      "Ġad": 442,
      "age": 443,
      "ort": 444,
      "Ġare": 445,
      "âĢĻ": 446,
      "Ġst": 447,
      "ft": 448,
      "ĠH": 449,
      "ail": 450,
      "ug": 451,
      "Ġfrom": 452,
      "ll": 453,
      "tem": 454,
      "Ġck": 455,
      "Ġote": 456,
      "Ġows": 457,
      "ode": 458,
      "ĠIn": 459,
      "Ġnot": 460,
      "ĠB": 461,
      "ere": 462,
      "ĠN": 463,
      "ich": 464,
      "cc": 465,
      "Ġvulnerabil": 466,
      "Ġde": 467,
      "Ġun": 468,
      "ave": 469,
      "vic": 470,
      "ive": 471,
      "ber": 472,
      "low": 473,
      "Ġwhich": 474,
      "Ġ2": 475,
      "Ġckers": 476,
      "ĠG": 477,
      "ors": 478,
      "oc": 479,
      "Ġlo": 480,
      "arg": 481,
      "Ġr": 482,
      "Ġen": 483,
      "ff": 484,
      "iv": 485,
      "ork": 486,
      "his": 487,
      "ire": 488,
      "amp": 489,
      "Ġ201": 490,
      "ame": 491,
      "Ġused": 492,
      "sp": 493,
      "Ġsu": 494,
      "ind": 495,
      "Ġco": 496,
      "Ġcomm": 497,
      "Ġmalware": 498,
      "âĢĿ": 499,
      "Ġhave": 500,
      "Ġfile": 501,
      "ĠL": 502,
      "own": 503,
      "Ġwas": 504,
      "Ġact": 505,
      "all": 506,
      "ystem": 507,
      "ign": 508,
      "ous": 509,
      "ra": 510,
      "uld": 511,
      "Ġsp": 512,
      "ied": 513,
      "The": 514,
      "ost": 515,
      "und": 516,
      "act": 517,
      "ations": 518,
      "Ġ3": 519,
      "art": 520,
      "arget": 521,
      "plo": 522,
      "ions": 523,
      "rary": 524,
      "ĠâĢľ": 525,
      "ata": 526,
      "lic": 527,
      "ite": 528,
      "um": 529,
      "ill": 530,
      "Ġcode": 531,
      "ud": 532,
      "ant": 533,
      "Ġvulnerability": 534,
      "ormation": 535,
      "cri": 536,
      "vice": 537,
      "Ġbit": 538,
      "Ġhas": 539,
      "able": 540,
      "Ġse": 541,
      "iz": 542,
      "etw": 543,
      "Ġtarget": 544,
      "Ġweb": 545,
      "ified": 546,
      "ib": 547,
      "ecur": 548,
      "end": 549,
      "ecurity": 550,
      "Ġbitrary": 551,
      "Ġinformation": 552,
      "ther": 553,
      "Ġ\"": 554,
      "ew": 555,
      "ex": 556,
      "Ġacc": 557,
      "ows": 558,
      "Ġim": 559,
      "ry": 560,
      "Ġsystem": 561,
      "ute": 562,
      "Ġinc": 563,
      "Ġ0": 564,
      "ious": 565,
      "Ġch": 566,
      "Ġdata": 567,
      "Ġadd": 568,
      "em": 569,
      "li": 570,
      "Ġsh": 571,
      "Ġem": 572,
      "ord": 573,
      "Ġapp": 574,
      "ult": 575,
      "Ġob": 576,
      "ĠJ": 577,
      "ht": 578,
      "load": 579,
      "ip": 580,
      "Ġca": 581,
      "ection": 582,
      "uct": 583,
      "ical": 584,
      "Ġle": 585,
      "port": 586,
      "fer": 587,
      "Ġpo": 588,
      "ass": 589,
      "Ġ6": 590,
      "cript": 591,
      "ear": 592,
      "ident": 593,
      "ak": 594,
      "ress": 595,
      "ence": 596,
      "ust": 597,
      "Ġdis": 598,
      "ĠV": 599,
      "ine": 600,
      "ict": 601,
      "ph": 602,
      "ploit": 603,
      "Ġfil": 604,
      "etwork": 605,
      "Ġso": 606,
      "indows": 607,
      "ected": 608,
      "tern": 609,
      "ach": 610,
      "Ġ4": 611,
      "ory": 612,
      "Ġuser": 613,
      "ities": 614,
      "reat": 615,
      "ugh": 616,
      "Ġalso": 617,
      "Ġusers": 618,
      "Ġother": 619,
      "roup": 620,
      "Ġ00": 621,
      "use": 622,
      "Ġservice": 623,
      "ĠK": 624,
      "ecute": 625,
      "Ġexploit": 626,
      "kn": 627,
      "Ġdo": 628,
      "unt": 629,
      "ang": 630,
      "2012": 631,
      "Ġ5": 632,
      "Ġab": 633,
      "Ġpre": 634,
      "co": 635,
      "ĠWindows": 636,
      "com": 637,
      "Ġx": 638,
      "Ġcommand": 639,
      "yber": 640,
      "2010": 641,
      "Ġind": 642,
      "unct": 643,
      "Ġcan": 644,
      "ub": 645,
      "Ġattacks": 646,
      "irect": 647,
      "ase": 648,
      "Ġdet": 649,
      "ue": 650,
      "uth": 651,
      "Ġmod": 652,
      "ĠThis": 653,
      "Ġoper": 654,
      "pl": 655,
      "ĠCh": 656,
      "Ġbeen": 657,
      "Ġfiles": 658,
      "Ġwere": 659,
      "Ġ7": 660,
      "Ġup": 661,
      "vers": 662,
      "ecified": 663,
      "Ġtheir": 664,
      "min": 665,
      "rypt": 666,
      "to": 667,
      "ans": 668,
      "Ġfunct": 669,
      "Ġconf": 670,
      "oo": 671,
      "Ġy": 672,
      "Ġstr": 673,
      "ime": 674,
      "Ġthese": 675,
      "ens": 676,
      "ome": 677,
      "Ġnetwork": 678,
      "ech": 679,
      "ject": 680,
      "ument": 681,
      "her": 682,
      "2011": 683,
      "Ġserver": 684,
      "rig": 685,
      "Ġcould": 686,
      "Ġover": 687,
      "ecut": 688,
      "Ġgroup": 689,
      "ectors": 690,
      "Ġscript": 691,
      "eb": 692,
      "arch": 693,
      "ved": 694,
      "Ġtr": 695,
      "ased": 696,
      "Ġ8": 697,
      "ard": 698,
      "specified": 699,
      "lud": 700,
      "Ġxecute": 701,
      "Ġinst": 702,
      "ĠTh": 703,
      "tain": 704,
      "Ġfol": 705,
      "cess": 706,
      "Ġsecurity": 707,
      "Ġrel": 708,
      "ong": 709,
      "Ġ20": 710,
      "ser": 711,
      "Ġar": 712,
      "ĠUn": 713,
      "known": 714,
      "raft": 715,
      "ide": 716,
      "Ġcontain": 717,
      "icro": 718,
      "Ġattacker": 719,
      "ual": 720,
      "ific": 721,
      "av": 722,
      "Ġ,": 723,
      "Ġvectors": 724,
      "Ġusing": 725,
      "Ġ10": 726,
      "Ġuse": 727,
      "out": 728,
      "Ġexecut": 729,
      "Ġcraft": 730,
      "ates": 731,
      "ĠCVE": 732,
      "rough": 733,
      "Ġits": 734,
      "ional": 735,
      "Ġdif": 736,
      "Ġcrafted": 737,
      "Ġreg": 738,
      "ian": 739,
      "Ġinclud": 740,
      "ocument": 741,
      "ap": 742,
      "Ġemail": 743,
      "ast": 744,
      "ictim": 745,
      "Ġden": 746,
      "Ġpri": 747,
      "do": 748,
      "Ġcause": 749,
      "ĠHT": 750,
      "Ġwill": 751,
      "Ġimp": 752,
      "ould": 753,
      "ks": 754,
      "int": 755,
      "site": 756,
      "Ġthrough": 757,
      "Ġpar": 758,
      "omain": 759,
      "Ġvictim": 760,
      "istr": 761,
      "Ġthey": 762,
      "rol": 763,
      "Ġone": 764,
      "Ġcre": 765,
      "ĠX": 766,
      "Ġdenial": 767,
      "quest": 768,
      "les": 769,
      "Ġke": 770,
      "Ġpart": 771,
      "Ġspec": 772,
      "ĠAP": 773,
      "nt": 774,
      "log": 775,
      "soft": 776,
      "any": 777,
      "'s": 778,
      "Ġpl": 779,
      "Ġcyber": 780,
      "ĠMicro": 781,
      "Ġaddress": 782,
      "Ġdiffer": 783,
      "Ġ-": 784,
      "ras": 785,
      "Ġreport": 786,
      "os": 787,
      "Ġdocument": 788,
      "Ġback": 789,
      "aign": 790,
      "ampaign": 791,
      "echn": 792,
      "Ġdec": 793,
      "ĠSer": 794,
      "ĠEx": 795,
      "Ġag": 796,
      "Ġper": 797,
      "Ġev": 798,
      "Ġattackers": 799,
      "ĠSt": 800,
      "ound": 801,
      "ake": 802,
      "Ġany": 803,
      "Ġfir": 804,
      "Ġfollow": 805,
      "Ġdoes": 806,
      "ount": 807,
      "Ġdirect": 808,
      "icious": 809,
      "ari": 810,
      "Ġvers": 811,
      "Ġsamp": 812,
      "Ġ200": 813,
      "Ġinv": 814,
      "op": 815,
      "cal": 816,
      "Ġinter": 817,
      "Ġallow": 818,
      "Ġident": 819,
      "uss": 820,
      "ote": 821,
      "Ġaccess": 822,
      "Ġdomain": 823,
      "Ġall": 824,
      "10": 825,
      "Ġenc": 826,
      "one": 827,
      "Ġtool": 828,
      "Ġdes": 829,
      "gr": 830,
      "Ġcampaign": 831,
      "gan": 832,
      "Ġbut": 833,
      "lication": 834,
      "Ġgo": 835,
      "Ġrem": 836,
      "Ġrelated": 837,
      "ese": 838,
      "AT": 839,
      "Ġdifferent": 840,
      "Ġthreat": 841,
      "amet": 842,
      "ike": 843,
      "ĠRe": 844,
      "ĠMicrosoft": 845,
      "ise": 846,
      "yp": 847,
      "onent": 848,
      "32": 849,
      "Ġprov": 850,
      "Ġsome": 851,
      "ssib": 852,
      "Ġval": 853,
      "php": 854,
      "Ġout": 855,
      "ĠĠ": 856,
      "Ġparamet": 857,
      "Ġmore": 858,
      "Ġnew": 859,
      "Ġlog": 860,
      "form": 861,
      "Ġthan": 862,
      "ond": 863,
      "..": 864,
      "ight": 865,
      "Ġpay": 866,
      "Ġtime": 867,
      "our": 868,
      "Ġcomponent": 869,
      "Ġpat": 870,
      "Ġpossib": 871,
      "Ġmay": 872,
      "ace": 873,
      "ĠSP": 874,
      "Ġanal": 875,
      "Ġmalicious": 876,
      "Ġcomput": 877,
      "Ġinto": 878,
      "Ġsc": 879,
      "wo": 880,
      "Ġhe": 881,
      "11": 882,
      "Ġwho": 883,
      "Ġnum": 884,
      "ink": 885,
      "Ġ9": 886,
      "ever": 887,
      "Ġprocess": 888,
      "Ġsame": 889,
      "Ġcomprom": 890,
      "Ġlike": 891,
      "Ġhost": 892,
      "Ġfunction": 893,
      "Ġconn": 894,
      ").": 895,
      "fter": 896,
      "hing": 897,
      "Ġwhen": 898,
      "ternet": 899,
      "ross": 900,
      "Ġrec": 901,
      "Ġdown": 902,
      "ĠCom": 903,
      "exe": 904,
      "Ġfollowing": 905,
      "Ġactiv": 906,
      "Ġmess": 907,
      "Ġkey": 908,
      "ule": 909,
      "Ġtechn": 910,
      "Ġsuch": 911,
      "ru": 912,
      "Ġinstall": 913,
      "ating": 914,
      "ces": 915,
      "Ġrun": 916,
      "Ġthem": 917,
      "Ġcontrol": 918,
      "SS": 919,
      "ance": 920,
      "Ġunspecified": 921,
      "Ġwould": 922,
      "ĠIP": 923,
      "Ġvulnerabilities": 924,
      "12": 925,
      "Ġinte": 926,
      "Ġcall": 927,
      "ree": 928,
      "entic": 929,
      "unic": 930,
      "duct": 931,
      "Ġsim": 932,
      "ĠChin": 933,
      "Ġaff": 934,
      "Ġpub": 935,
      "Ġconfig": 936,
      "urre": 937,
      "uthentic": 938,
      "ML": 939,
      "search": 940,
      "Ġtwo": 941,
      "TP": 942,
      "Ġ'": 943,
      "Ġname": 944,
      "Ġres": 945,
      "Ġorgan": 946,
      "der": 947,
      "ential": 948,
      "Ġproper": 949,
      "ok": 950,
      "Ġpriv": 951,
      "Ġfirst": 952,
      "Ġfound": 953,
      "ites": 954,
      "Ġ11": 955,
      "ont": 956,
      "ĠAn": 957,
      "str": 958,
      "Ġparameter": 959,
      "ning": 960,
      "vices": 961,
      "Ġservers": 962,
      "Ġthen": 963,
      "ultip": 964,
      "ulnerability": 965,
      "pen": 966,
      "Ġlist": 967,
      "ĠRuss": 968,
      "Ġif": 969,
      "Ġsa": 970,
      "Ġaccount": 971,
      "ucture": 972,
      "Ġset": 973,
      "Ġk": 974,
      "Ġdef": 975,
      "ffic": 976,
      "Ġpass": 977,
      "ep": 978,
      "ĠAPT": 979,
      "ption": 980,
      "Ġbu": 981,
      "ised": 982,
      "Ġtargeted": 983,
      "date": 984,
      "ftware": 985,
      "Ġnam": 986,
      "ĠWeb": 987,
      "word": 988,
      "ĠIt": 989,
      "Ġrequest": 990,
      "ultiple": 991,
      "ments": 992,
      "tt": 993,
      "Ġresp": 994,
      "ings": 995,
      "Ġencrypt": 996,
      "Ġresearch": 997,
      "Ġvari": 998,
      "Ġwork": 999,
      "Ġcor": 1000,
      "ically": 1001,
      "Ġav": 1002,
      "vern": 1003,
      "nel": 1004,
      "ĠInternet": 1005,
      "Ġcommands": 1006,
      "ĠApp": 1007,
      "ish": 1008,
      "ced": 1009,
      "Ġcer": 1010,
      "TE": 1011,
      "Ġmodule": 1012,
      "),": 1013,
      "ĠâĢĵ": 1014,
      "Ġorganiz": 1015,
      "ages": 1016,
      "2013": 1017,
      "Ġobtain": 1018,
      "ful": 1019,
      "Ġcontent": 1020,
      "In": 1021,
      "Ġdel": 1022,
      "rib": 1023,
      "Ġunknown": 1024,
      "read": 1025,
      "Ġsystems": 1026,
      "ener": 1027,
      "la": 1028,
      "Ġprev": 1029,
      "Ġsign": 1030,
      "ĠâĢĺ": 1031,
      "Ġ;": 1032,
      "ysis": 1033,
      "Ġsub": 1034,
      "Ġro": 1035,
      "This": 1036,
      "Ġdownload": 1037,
      "15": 1038,
      "Ġent": 1039,
      "LL": 1040,
      "ify": 1041,
      "QL": 1042,
      "Ġhack": 1043,
      "ger": 1044,
      "Ġonly": 1045,
      "Ġagain": 1046,
      "owever": 1047,
      "Ġj": 1048,
      "ĠWh": 1049,
      "Ġcommunic": 1050,
      "right": 1051,
      "hell": 1052,
      "ix": 1053,
      "ĠServer": 1054,
      "pr": 1055,
      "cover": 1056,
      "Ġnumber": 1057,
      "be": 1058,
      "Ġman": 1059,
      "net": 1060,
      "ccess": 1061,
      "served": 1062,
      "iew": 1063,
      "Ġabout": 1064,
      "ux": 1065,
      "urrent": 1066,
      "iqu": 1067,
      "esp": 1068,
      "uring": 1069,
      "lier": 1070,
      "velo": 1071,
      "Ġhand": 1072,
      "Ġbot": 1073,
      "Ġproperly": 1074,
      "Ġprovid": 1075,
      "ove": 1076,
      "Ġdetail": 1077,
      "ï¿": 1078,
      "Ġtyp": 1079,
      "Ġpayload": 1080,
      "hishing": 1081,
      "ï¿½": 1082,
      "ĠOr": 1083,
      "ons": 1084,
      "Ġour": 1085,
      "ears": 1086,
      "ĠPro": 1087,
      "rit": 1088,
      "Ġprot": 1089,
      "Ġ/": 1090,
      "itional": 1091,
      "Ġversion": 1092,
      "ition": 1093,
      "Ġmost": 1094,
      "Ġsec": 1095,
      "ĠHTML": 1096,
      "Ġmet": 1097,
      "roj": 1098,
      "ature": 1099,
      "igh": 1100,
      "64": 1101,
      "ational": 1102,
      "Ġadmin": 1103,
      "ĠEn": 1104,
      "loc": 1105,
      "vernment": 1106,
      "ox": 1107,
      "Ġdro": 1108,
      "Ġsoftware": 1109,
      "iss": 1110,
      "Ġne": 1111,
      "uration": 1112,
      "led": 1113,
      "Ġpers": 1114,
      "Ġloc": 1115,
      "Ġoff": 1116,
      "ustom": 1117,
      "Ġhad": 1118,
      "Ġdri": 1119,
      "Ġtools": 1120,
      "Ġsamples": 1121,
      "Ġinject": 1122,
      "Ġread": 1123,
      "18": 1124,
      "13": 1125,
      "ose": 1126,
      "gle": 1127,
      "ĠSQL": 1128,
      "Ġindic": 1129,
      "Ġuthentic": 1130,
      "ange": 1131,
      "Ġcons": 1132,
      "ĠSecurity": 1133,
      "Ġdevelo": 1134,
      "Ġwell": 1135,
      "door": 1136,
      "Ġund": 1137,
      "ffer": 1138,
      "ou": 1139,
      "Ġpassword": 1140,
      "ular": 1141,
      "Ġwithin": 1142,
      "ays": 1143,
      "ld": 1144,
      "oogle": 1145,
      "gram": 1146,
      "Ġ2014": 1147,
      "Ġtargets": 1148,
      "16": 1149,
      "ially": 1150,
      "Ġlink": 1151,
      "bed": 1152,
      "Ġcompromised": 1153,
      "Ġagainst": 1154,
      "ince": 1155,
      "ov": 1156,
      "Ġsever": 1157,
      "Ġthere": 1158,
      "based": 1159,
      "ĠUR": 1160,
      "Ġ[": 1161,
      "Ġno": 1162,
      "ater": 1163,
      "Ġavail": 1164,
      "Ġactivity": 1165,
      "een": 1166,
      "lement": 1167,
      "hod": 1168,
      "Ġgain": 1169,
      "ef": 1170,
      "ader": 1171,
      "Ġcurrent": 1172,
      "Ġmessage": 1173,
      "Ġknown": 1174,
      "rash": 1175,
      "ĠKore": 1176,
      "ues": 1177,
      "ators": 1178,
      "ï¿½ï¿½": 1179,
      "Ġcomputer": 1180,
      "Ġpublic": 1181,
      "ribut": 1182,
      "imate": 1183,
      "tructure": 1184,
      "Ġwebsite": 1185,
      "ploy": 1186,
      "ileg": 1187,
      "Ġright": 1188,
      "ative": 1189,
      "ĠHTTP": 1190,
      "Ġbec": 1191,
      "ily": 1192,
      "14": 1193,
      "ww": 1194,
      "Ġsupp": 1195,
      "ĠFor": 1196,
      "rojan": 1197,
      "Ġsend": 1198,
      "rastructure": 1199,
      "acle": 1200,
      "17": 1201,
      "ĠUnspecified": 1202,
      "other": 1203,
      "Ġocal": 1204,
      "Ġuses": 1205,
      "etween": 1206,
      "Ġanalysis": 1207,
      "Ġcustom": 1208,
      "ries": 1209,
      "Ġform": 1210,
      "Ġobserved": 1211,
      "Ġpossibly": 1212,
      "ark": 1213,
      "ample": 1214,
      "ava": 1215,
      "ĠOracle": 1216,
      "Ġmain": 1217,
      "llig": 1218,
      "Ġsaid": 1219,
      "oll": 1220,
      "Ġscripting": 1221,
      "lient": 1222,
      "dll": 1223,
      "28": 1224,
      "Ġincluding": 1225,
      "ics": 1226,
      "ilar": 1227,
      "ery": 1228,
      "ten": 1229,
      "sent": 1230,
      "Ġqu": 1231,
      "tempt": 1232,
      "ext": 1233,
      "Ġdevelop": 1234,
      "xt": 1235,
      "Ġcontains": 1236,
      "og": 1237,
      "Ġhigh": 1238,
      "Ġmethod": 1239,
      "ĠOn": 1240,
      "25": 1241,
      "Ġsuccess": 1242,
      "Ġprivileg": 1243,
      "ĠAd": 1244,
      "Ġattempt": 1245,
      "ize": 1246,
      "XSS": 1247,
      "Ġbetween": 1248,
      "Ġgener": 1249,
      "ĠGoogle": 1250,
      "Ġiss": 1251,
      "Ġvictims": 1252,
      "ally": 1253,
      "ET": 1254,
      "Ġpack": 1255,
      "ansom": 1256,
      "Ġopen": 1257,
      "Ġac": 1258,
      "ĠWe": 1259,
      "ym": 1260,
      "oded": 1261,
      "Ġste": 1262,
      "SA": 1263,
      "Ġseveral": 1264,
      "Ġcred": 1265,
      "Ġmem": 1266,
      "Ġph": 1267,
      "ob": 1268,
      "lligence": 1269,
      "Ġmon": 1270,
      "urce": 1271,
      "Ġgovernment": 1272,
      "Ġbeing": 1273,
      "Ġinfected": 1274,
      "Ġinit": 1275,
      "Ġinterest": 1276,
      "Ġcrash": 1277,
      "Ġexp": 1278,
      "Ġsent": 1279,
      "ĠSo": 1280,
      "Ġ:": 1281,
      "bers": 1282,
      "Ġconfiguration": 1283,
      "Ġoverf": 1284,
      "olog": 1285,
      "07": 1286,
      "ade": 1287,
      "ized": 1288,
      "27": 1289,
      "Ġprogram": 1290,
      "Ġstart": 1291,
      "ash": 1292,
      "ird": 1293,
      "ka": 1294,
      "igure": 1295,
      "ough": 1296,
      "Ġphishing": 1297,
      "Ġmany": 1298,
      "Ġdem": 1299,
      "rain": 1300,
      "OS": 1301,
      "itive": 1302,
      "Ġstring": 1303,
      "Ġleg": 1304,
      "24": 1305,
      "Ġme": 1306,
      "plor": 1307,
      "Ġvariant": 1308,
      "ĠPl": 1309,
      "eld": 1310,
      "Ġadministr": 1311,
      "ci": 1312,
      "ick": 1313,
      "Ġinfrastructure": 1314,
      "ĠURL": 1315,
      "Ġimpact": 1316,
      "Ġchec": 1317,
      "Ġbackdoor": 1318,
      "Ġdropp": 1319,
      "Ġconnect": 1320,
      "Ġdirectory": 1321,
      "ĠJava": 1322,
      "19": 1323,
      "Ġlikely": 1324,
      "Ġrights": 1325,
      "Ġransom": 1326,
      "Ġprevious": 1327,
      "Ġactors": 1328,
      "ĠChina": 1329,
      "OR": 1330,
      "Ġ''": 1331,
      "ĠDLL": 1332,
      "ves": 1333,
      "Ġbro": 1334,
      "ets": 1335,
      "ms": 1336,
      "Ġz": 1337,
      "put": 1338,
      "plorer": 1339,
      "Ġsimilar": 1340,
      "Ġafter": 1341,
      "Ġulnerability": 1342,
      "lish": 1343,
      "Ġext": 1344,
      "Ġarlier": 1345,
      "enc": 1346,
      "ete": 1347,
      "ĠMan": 1348,
      "Ġspecific": 1349,
      "Ġremote": 1350,
      "day": 1351,
      "als": 1352,
      "me": 1353,
      "Ġ=": 1354,
      "Ġcompany": 1355,
      "lear": 1356,
      "line": 1357,
      "Ġregistr": 1358,
      "ky": 1359,
      "Ġret": 1360,
      "ĠRussian": 1361,
      "Ġinj": 1362,
      "estig": 1363,
      "Ġsample": 1364,
      "Ġsuccessful": 1365,
      "Ġlarg": 1366,
      "Ġoperations": 1367,
      "Ġsens": 1368,
      "ie": 1369,
      "ited": 1370,
      "Ġbased": 1371,
      "king": 1372,
      "wn": 1373,
      "Th": 1374,
      "irus": 1375,
      "ĠComm": 1376,
      "Ġaffect": 1377,
      "Ġbin": 1378,
      "ently": 1379,
      "oint": 1380,
      "Ġcl": 1381,
      "ĠSh": 1382,
      "Ġdetails": 1383,
      "Ġins": 1384,
      "Ġ2013": 1385,
      "akes": 1386,
      "03": 1387,
      "ĠFire": 1388,
      "ruption": 1389,
      "Ġcap": 1390,
      "Ġyou": 1391,
      "Ġpath": 1392,
      "IN": 1393,
      "the": 1394,
      "09": 1395,
      "ator": 1396,
      "Ġaccounts": 1397,
      "Ġtra": 1398,
      "krain": 1399,
      "ared": 1400,
      "ernel": 1401,
      "ild": 1402,
      "Ġduring": 1403,
      "ored": 1404,
      "Ġport": 1405,
      "ield": 1406,
      "Ġdiscover": 1407,
      "23": 1408,
      "atch": 1409,
      "ible": 1410,
      "Ġoverflow": 1411,
      "Ġorganizations": 1412,
      "Ġint": 1413,
      "ility": 1414,
      "ran": 1415,
      "Ġaka": 1416,
      "mail": 1417,
      "eam": 1418,
      "ases": 1419,
      "Ġsecond": 1420,
      "AN": 1421,
      "Ġable": 1422,
      "Ġ2015": 1423,
      "pass": 1424,
      "Ġcase": 1425,
      "ull": 1426,
      "//": 1427,
      "ĠExplorer": 1428,
      "onse": 1429,
      "Ġadv": 1430,
      "Ġsensitive": 1431,
      "ĠOS": 1432,
      "dobe": 1433,
      "Ġi": 1434,
      "Ġdomains": 1435,
      "Ġfe": 1436,
      "Ġwebs": 1437,
      "ĠThese": 1438,
      "text": 1439,
      "Ġuthenticated": 1440,
      "asp": 1441,
      "Ġexample": 1442,
      "rigin": 1443,
      "Ġrece": 1444,
      "uke": 1445,
      "orth": 1446,
      "ower": 1447,
      "Ġresult": 1448,
      "ĠCon": 1449,
      "Ġwhere": 1450,
      "04": 1451,
      "ĠCross": 1452,
      "ique": 1453,
      "ĠLin": 1454,
      "old": 1455,
      "Ġencrypted": 1456,
      "Ġ12": 1457,
      "Ġbeh": 1458,
      "Ġdisc": 1459,
      "Ġass": 1460,
      "ps": 1461,
      "quire": 1462,
      "Ġimplement": 1463,
      "Ġcoll": 1464,
      "Ġload": 1465,
      "ĠTrojan": 1466,
      "Ġway": 1467,
      "plication": 1468,
      "Ġanother": 1469,
      "Ġidentified": 1470,
      "Ġinvol": 1471,
      "Ġstate": 1472,
      "Ġwebsites": 1473,
      "ause": 1474,
      "Ġversions": 1475,
      "ister": 1476,
      "ayer": 1477,
      "Ġvalue": 1478,
      "ice": 1479,
      "Ġmach": 1480,
      "ĠID": 1481,
      "Ġla": 1482,
      "sel": 1483,
      "Ġsee": 1484,
      "ĠUkrain": 1485,
      "ists": 1486,
      "ĠInte": 1487,
      "ĠAdobe": 1488,
      "round": 1489,
      "Ġbuffer": 1490,
      "Ġsite": 1491,
      "Ġcredential": 1492,
      "Ġcertain": 1493,
      "Ġlegit": 1494,
      "AR": 1495,
      "Ġpplication": 1496,
      "ĠMultiple": 1497,
      "ee": 1498,
      "Ġorder": 1499,
      "ually": 1500,
      "Ġboth": 1501,
      "Ġproduct": 1502,
      "ĠY": 1503,
      "Ġget": 1504,
      "soci": 1505,
      "Ġupdate": 1506,
      "ilit": 1507,
      "Ġpoint": 1508,
      "Ġsupport": 1509,
      "Ġlong": 1510,
      ".]": 1511,
      "Ġinvestig": 1512,
      "Ġassoci": 1513,
      "ĠĠĠĠ": 1514,
      "idd": 1515,
      "IS": 1516,
      "05": 1517,
      "Ġ|": 1518,
      "Ġprivileges": 1519,
      "33": 1520,
      "err": 1521,
      "med": 1522,
      "Ġpol": 1523,
      "ĠCyber": 1524,
      "06": 1525,
      "ionage": 1526,
      "[.]": 1527,
      "ĠOper": 1528,
      "Ġaddresses": 1529,
      "Ġperform": 1530,
      "Ġeff": 1531,
      "Ġclient": 1532,
      "Ġorigin": 1533,
      "igned": 1534,
      "Ġtrans": 1535,
      "Ġdecrypt": 1536,
      "Ġunder": 1537,
      "AP": 1538,
      "sh": 1539,
      "Ġlegitimate": 1540,
      "://": 1541,
      "Ġ2016": 1542,
      "Ġkernel": 1543,
      "ER": 1544,
      "Ġavailable": 1545,
      "Ġvis": 1546,
      "Ġfunctional": 1547,
      "Ġeng": 1548,
      "try": 1549,
      "Ġdist": 1550,
      "Ġnames": 1551,
      "Ġexecution": 1552,
      "ability": 1553,
      "lows": 1554,
      "ĠInd": 1555,
      "Ġexecutable": 1556,
      "ended": 1557,
      "ĠZ": 1558,
      "Ġadditional": 1559,
      "Ġrunning": 1560,
      "urn": 1561,
      "Ġinjection": 1562,
      "29": 1563,
      "Ġtargeting": 1564,
      "Ġcampaigns": 1565,
      "Ġrep": 1566,
      "Ġhard": 1567,
      "Ġseen": 1568,
      "ording": 1569,
      "000": 1570,
      "Ġexploits": 1571,
      "py": 1572,
      "Ġdocuments": 1573,
      "ĠAl": 1574,
      "ting": 1575,
      "Ġinitial": 1576,
      "ĠAr": 1577,
      "oz": 1578,
      "Ġrele": 1579,
      "Ġbypass": 1580,
      "ĠChinese": 1581,
      "lock": 1582,
      "ook": 1583,
      "Ġgroups": 1584,
      ",âĢĿ": 1585,
      "Ġ%": 1586,
      "Ġobject": 1587,
      "Ġshell": 1588,
      "Ġhow": 1589,
      "ĠAs": 1590,
      "Ġcontin": 1591,
      "ĠAnd": 1592,
      "âĢľ": 1593,
      "Ġcorruption": 1594,
      "ĠLinux": 1595,
      "ĠAct": 1596,
      "ugg": 1597,
      "onstr": 1598,
      "Ġred": 1599,
      "cept": 1600,
      "ĠRAT": 1601,
      "edia": 1602,
      "ines": 1603,
      "Ġmultiple": 1604,
      "tific": 1605,
      "Ġear": 1606,
      "Ġeach": 1607,
      "uch": 1608,
      "Ġfam": 1609,
      "eop": 1610,
      "Ġtake": 1611,
      "ero": 1612,
      "Ġ$": 1613,
      "Ġpage": 1614,
      "Ġbeli": 1615,
      "Ġanaly": 1616,
      "AC": 1617,
      "ault": 1618,
      "Ġ&": 1619,
      "Ġpossible": 1620,
      "ĠMac": 1621,
      "Ġcredentials": 1622,
      "Ġtraffic": 1623,
      "Ġreso": 1624,
      "Ġcommon": 1625,
      "Ġfin": 1626,
      "Ġpost": 1627,
      "ĠCont": 1628,
      "ĠIf": 1629,
      "agement": 1630,
      "isk": 1631,
      "pro": 1632,
      "Ġexploited": 1633,
      "Ġassociated": 1634,
      "08": 1635,
      "orld": 1636,
      "Ġcontact": 1637,
      "Ġbecause": 1638,
      "gy": 1639,
      "Ġfield": 1640,
      "ternal": 1641,
      "Ġdescri": 1642,
      "NS": 1643,
      "Ġnamed": 1644,
      "Ġpur": 1645,
      "vir": 1646,
      "Ġappears": 1647,
      "very": 1648,
      "Ġcomputers": 1649,
      "Ġquest": 1650,
      "Ġfunctionality": 1651,
      "Ġbelie": 1652,
      "Ġpartic": 1653,
      "Ġmight": 1654,
      "ĠApple": 1655,
      "iness": 1656,
      "Ġdemonstr": 1657,
      "Ġam": 1658,
      "Ġwar": 1659,
      "Ġsoc": 1660,
      "roll": 1661,
      "Ġrefer": 1662,
      "ital": 1663,
      "Ġconduct": 1664,
      "nam": 1665,
      "Ġwhat": 1666,
      "ĠUS": 1667,
      "ĠKorea": 1668,
      "Ġeven": 1669,
      "ents": 1670,
      "olut": 1671,
      "Ġtim": 1672,
      "Ġactor": 1673,
      "Ġreported": 1674,
      "ilitary": 1675,
      "Ġchar": 1676,
      "ax": 1677,
      "ology": 1678,
      "Ġend": 1679,
      "Ġaction": 1680,
      "Wh": 1681,
      "anies": 1682,
      "Ġinclude": 1683,
      "ĠNO": 1684,
      "ivid": 1685,
      "Ġhtt": 1686,
      "Ġsearch": 1687,
      "Ġesp": 1688,
      "Ġattach": 1689,
      "Ġlarge": 1690,
      "urther": 1691,
      "Ġemails": 1692,
      "Ġspecially": 1693,
      "itor": 1694,
      "tract": 1695,
      "ĠSystem": 1696,
      "ager": 1697,
      "ĠInf": 1698,
      "viron": 1699,
      "45": 1700,
      "SC": 1701,
      "Ġlook": 1702,
      "Duke": 1703,
      "ĠRussia": 1704,
      "Ġbre": 1705,
      "26": 1706,
      "Ġneed": 1707,
      "Ġ_": 1708,
      "Ġory": 1709,
      "app": 1710,
      "eople": 1711,
      "uthor": 1712,
      "vel": 1713,
      "ĠVulnerability": 1714,
      "Ġpr": 1715,
      "Ġshould": 1716,
      "St": 1717,
      "por": 1718,
      "Ġpot": 1719,
      "Ġservices": 1720,
      "Ġthird": 1721,
      "On": 1722,
      "org": 1723,
      "Ġfind": 1724,
      "Ġpatch": 1725,
      "Ġbinary": 1726,
      "ether": 1727,
      "Ġu": 1728,
      "Ġ2012": 1729,
      "bit": 1730,
      "Ġcertific": 1731,
      "Ġcompanies": 1732,
      "gin": 1733,
      "atform": 1734,
      "ugin": 1735,
      "Ġperson": 1736,
      "pe": 1737,
      "anced": 1738,
      "tes": 1739,
      "ector": 1740,
      "35": 1741,
      "Ġeas": 1742,
      "Ġdevices": 1743,
      "Ġview": 1744,
      "Ġrequire": 1745,
      "rame": 1746,
      "ted": 1747,
      "ï¬": 1748,
      "Ġaffected": 1749,
      "Ġpresent": 1750,
      "lash": 1751,
      "ffice": 1752,
      "usiness": 1753,
      "Ġ2011": 1754,
      "ules": 1755,
      "Ġpotential": 1756,
      "Ġvery": 1757,
      "idence": 1758,
      "CP": 1759,
      "ier": 1760,
      "Ġintelligence": 1761,
      "Ġregistry": 1762,
      "cial": 1763,
      "eng": 1764,
      "Ġ17": 1765,
      "Ġoperation": 1766,
      "ividual": 1767,
      "Ġcount": 1768,
      "Ġsource": 1769,
      "ik": 1770,
      "Ġthose": 1771,
      "urces": 1772,
      "Ġidentify": 1773,
      "fil": 1774,
      "uc": 1775,
      "Ġbrows": 1776,
      "aries": 1777,
      "Ġsimp": 1778,
      "LE": 1779,
      "aj": 1780,
      "con": 1781,
      "name": 1782,
      "Ġprob": 1783,
      "Ġthree": 1784,
      "isco": 1785,
      "Ġlater": 1786,
      "Ġleast": 1787,
      "Ġlast": 1788,
      "Ġincident": 1789,
      "Ġupload": 1790,
      "....": 1791,
      "Ġfeature": 1792,
      "ĠUp": 1793,
      "Ġupd": 1794,
      "ell": 1795,
      "Ġsuccessfully": 1796,
      "Ġransomware": 1797,
      "ĠNOTE": 1798,
      "Ġtrig": 1799,
      "Ġsection": 1800,
      "Ġregister": 1801,
      "aking": 1802,
      "Ġreceiv": 1803,
      "ather": 1804,
      "Ġ2008": 1805,
      "ool": 1806,
      "Ġresponse": 1807,
      "Ġdiscovered": 1808,
      "roid": 1809,
      "uggest": 1810,
      "ention": 1811,
      "ving": 1812,
      "Ġsteal": 1813,
      "ĠHowever": 1814,
      "its": 1815,
      "ured": 1816,
      "ocus": 1817,
      "Ġparticular": 1818,
      "Ġdeli": 1819,
      "CS": 1820,
      "Ġlever": 1821,
      "Ġsuggest": 1822,
      "ately": 1823,
      "oy": 1824,
      "atab": 1825,
      "Ġactive": 1826,
      "Ġindividual": 1827,
      "Ġvalid": 1828,
      "Ġreve": 1829,
      "Ġcreated": 1830,
      "self": 1831,
      "02": 1832,
      "ID": 1833,
      "loud": 1834,
      "Ġmade": 1835,
      "Ġsince": 1836,
      "file": 1837,
      "Ġnetworks": 1838,
      "Ġown": 1839,
      "Ġmilitary": 1840,
      "ersky": 1841,
      "ĠNorth": 1842,
      "ON": 1843,
      "aspersky": 1844,
      "ye": 1845,
      "Ġcreate": 1846,
      "istic": 1847,
      "oot": 1848,
      "lob": 1849,
      "ĠWin": 1850,
      "Ġcommunication": 1851,
      "Ġerr": 1852,
      "Ġ19": 1853,
      "Ġintegr": 1854,
      "Ġresearchers": 1855,
      "rome": 1856,
      "ective": 1857,
      "ĠFigure": 1858,
      "Ġextens": 1859,
      "MS": 1860,
      "ĠNetwork": 1861,
      "Ġcalled": 1862,
      "af": 1863,
      "ocol": 1864,
      "37": 1865,
      "Ġter": 1866,
      "Ġmake": 1867,
      "Ġcases": 1868,
      "Âł": 1869,
      "red": 1870,
      "âĢĿ.": 1871,
      "raph": 1872,
      "xx": 1873,
      "Ġhel": 1874,
      "Ġlocal": 1875,
      "Ġreal": 1876,
      "Ġyears": 1877,
      "ttack": 1878,
      "ĠOffice": 1879,
      "miss": 1880,
      "Ġaut": 1881,
      "ense": 1882,
      "idential": 1883,
      "34": 1884,
      "It": 1885,
      "Ġwrit": 1886,
      "abled": 1887,
      "Ġcreat": 1888,
      "Ġmessages": 1889,
      "Ġissue": 1890,
      "36": 1891,
      "ĠThreat": 1892,
      "Ġfact": 1893,
      "ures": 1894,
      "Ġccess": 1895,
      "Ġdriver": 1896,
      "Ġkn": 1897,
      "tead": 1898,
      "of": 1899,
      "usion": 1900,
      "Ġpreviously": 1901,
      "Ġant": 1902,
      "Ġappear": 1903,
      "unch": 1904,
      "Ġstill": 1905,
      "Ġwhile": 1906,
      "Ġsites": 1907,
      "Ġvar": 1908,
      "Ġexecute": 1909,
      "Ġhttp": 1910,
      "ï¿½ï¿½ï¿½ï¿½": 1911,
      "Ġmemory": 1912,
      "Ġdid": 1913,
      "ĠGroup": 1914,
      "Ġfew": 1915,
      "Ġlib": 1916,
      "Ġ15": 1917,
      "Ġyour": 1918,
      "Ġban": 1919,
      "ĠCisco": 1920,
      "ĠAndroid": 1921,
      "ES": 1922,
      "wit": 1923,
      "los": 1924,
      "ĠWord": 1925,
      "Ġitself": 1926,
      "vironment": 1927,
      "ge": 1928,
      "ij": 1929,
      "Ġemploy": 1930,
      "38": 1931,
      "ged": 1932,
      "aka": 1933,
      "prise": 1934,
      "Ġmachine": 1935,
      "work": 1936,
      "Ġengine": 1937,
      "Ġincre": 1938,
      ".âĢĿ": 1939,
      "01": 1940,
      "Ġconc": 1941,
      "ateg": 1942,
      "ĠChrome": 1943,
      "lished": 1944,
      "Ġdemonstrated": 1945,
      "Ġel": 1946,
      "Ġdesigned": 1947,
      "ï¬ģ": 1948,
      "Ġsm": 1949,
      "rite": 1950,
      "Ġhowever": 1951,
      "illa": 1952,
      "Ġcross": 1953,
      "usp": 1954,
      "par": 1955,
      "ering": 1956,
      "Ġembed": 1957,
      "Ġdevice": 1958,
      "Ġconnection": 1959,
      "Ġ14": 1960,
      "Ġchang": 1961,
      "ĠUkraine": 1962,
      "22": 1963,
      "ĠQ": 1964,
      "Ġcheck": 1965,
      "Ġwithout": 1966,
      "Ġdetection": 1967,
      "Ġmakes": 1968,
      "olen": 1969,
      "Ġbytes": 1970,
      "ĠAPI": 1971,
      "Ġdropper": 1972,
      "ts": 1973,
      "Ġexecuted": 1974,
      "Ġworld": 1975,
      "Ġfull": 1976,
      "Ġapplication": 1977,
      "atic": 1978,
      "aged": 1979,
      "Ġcompromise": 1980,
      "Ġhackers": 1981,
      "30": 1982,
      "Ġclear": 1983,
      "aging": 1984,
      "Ġplugin": 1985,
      "Ġbreach": 1986,
      "Ġcontaining": 1987,
      "Ġshow": 1988,
      "az": 1989,
      "xy": 1990,
      "Ġmin": 1991,
      "enter": 1992,
      "Ġ2010": 1993,
      "ty": 1994,
      "ĠOperation": 1995,
      "44": 1996,
      "Ġblock": 1997,
      "Ġfocus": 1998,
      "ask": 1999,
      "Ġhash": 2000,
      "Ġimport": 2001,
      "ĠDec": 2002,
      "ĠUs": 2003,
      "ĠInc": 2004,
      "ype": 2005,
      "Ġrecord": 2006,
      "Ġobtained": 2007,
      "ajor": 2008,
      "Ġimage": 2009,
      "Ġintegrity": 2010,
      "Ġdetect": 2011,
      "Ġtechnical": 2012,
      "ĠAll": 2013,
      "Ġinstalled": 2014,
      "ĠRes": 2015,
      "Ġprim": 2016,
      "Ġprovide": 2017,
      "fus": 2018,
      "ĠÂ": 2019,
      "Ġcri": 2020,
      "fox": 2021,
      "Ġteam": 2022,
      "ĠOpen": 2023,
      "Ġpersist": 2024,
      "Pro": 2025,
      "att": 2026,
      "alware": 2027,
      "Ġvarious": 2028,
      "Ġsel": 2029,
      "Ġshows": 2030,
      "Ġrout": 2031,
      "ded": 2032,
      "ĠDirect": 2033,
      "Ġoften": 2034,
      "uly": 2035,
      "Ġespionage": 2036,
      "ences": 2037,
      "Ġbelow": 2038,
      "ably": 2039,
      "Ġinfect": 2040,
      "Ġspear": 2041,
      "Ġclic": 2042,
      "rie": 2043,
      "ĠComp": 2044,
      "ĠLab": 2045,
      "Ġplatform": 2046,
      "ither": 2047,
      "Ġstolen": 2048,
      "io": 2049,
      "ĠDNS": 2050,
      "Ġlead": 2051,
      "48": 2052,
      "igital": 2053,
      "Ġerror": 2054,
      "ĠSp": 2055,
      "Ġexist": 2056,
      "Ġstage": 2057,
      "Ġrisk": 2058,
      "ĠActive": 2059,
      "Ġest": 2060,
      "Ġchange": 2061,
      "Ġcontained": 2062,
      "Ġmedia": 2063,
      "iques": 2064,
      "Ġcompl": 2065,
      "OC": 2066,
      "Ġut": 2067,
      "IP": 2068,
      "reen": 2069,
      "ĠIran": 2070,
      "Ġtype": 2071,
      "ety": 2072,
      "laim": 2073,
      "Ġdefault": 2074,
      "Ġencryption": 2075,
      "atabase": 2076,
      "Ġstored": 2077,
      "Ġorganization": 2078,
      "Ġoffic": 2079,
      "code": 2080,
      "Ġproducts": 2081,
      "Ġanalyz": 2082,
      "Ġblog": 2083,
      "Ġgiv": 2084,
      "ĠFlash": 2085,
      "lack": 2086,
      "acking": 2087,
      "Ġcountries": 2088,
      "Ġ#": 2089,
      "We": 2090,
      "Ġrespons": 2091,
      "ĠTr": 2092,
      "antec": 2093,
      "Ġshown": 2094,
      "ymantec": 2095,
      "ivers": 2096,
      "Ġattribut": 2097,
      "Ġinfection": 2098,
      "Ġaddition": 2099,
      "ĠFirefox": 2100,
      "ĠAttack": 2101,
      "Ġhandle": 2102,
      "Ġknow": 2103,
      "iddle": 2104,
      "Com": 2105,
      "ĠSe": 2106,
      "ĠUpdate": 2107,
      "Ġmonth": 2108,
      "ĠSouth": 2109,
      ",\"": 2110,
      "RE": 2111,
      "Ġconfidential": 2112,
      "ward": 2113,
      "ĠMarch": 2114,
      "Ġcomponents": 2115,
      "Ġevidence": 2116,
      "ency": 2117,
      "ozilla": 2118,
      "BM": 2119,
      "Ġonline": 2120,
      "Ġdeploy": 2121,
      "Ġprovided": 2122,
      "Ġlaunch": 2123,
      "by": 2124,
      "Ġ+": 2125,
      "lease": 2126,
      "Ġcorre": 2127,
      "39": 2128,
      "Ġmajor": 2129,
      "une": 2130,
      "vert": 2131,
      "Ġadvers": 2132,
      "ĠWhile": 2133,
      "ling": 2134,
      "Ġ*": 2135,
      "ĠPower": 2136,
      "fusc": 2137,
      "Ġindex": 2138,
      "ai": 2139,
      "rend": 2140,
      "Ġinteresting": 2141,
      "Ġlevel": 2142,
      "Ġsusp": 2143,
      "Ġunique": 2144,
      "Ġdeter": 2145,
      "Ġyear": 2146,
      "Ġstructure": 2147,
      "Ġworking": 2148,
      "Ġfix": 2149,
      "Ġconv": 2150,
      "Ġsignific": 2151,
      "Ġjust": 2152,
      "47": 2153,
      "strict": 2154,
      "NET": 2155,
      "Ġcompil": 2156,
      "Ġcoun": 2157,
      "Ġappro": 2158,
      "Ġremain": 2159,
      "mit": 2160,
      "Ġfurther": 2161,
      "row": 2162,
      "ables": 2163,
      "Ġstrings": 2164,
      "Ġtechniques": 2165,
      "ĠAg": 2166,
      "abilities": 2167,
      "HP": 2168,
      "Ġocc": 2169,
      "Ġevery": 2170,
      "Ġseem": 2171,
      "lex": 2172,
      "Ġvariants": 2173,
      "Ġclass": 2174,
      "Ġpurp": 2175,
      "Ġsocial": 2176,
      "Ġfla": 2177,
      "46": 2178,
      "lications": 2179,
      "ined": 2180,
      "ider": 2181,
      "Ġcontext": 2182,
      "ns": 2183,
      "inks": 2184,
      "Ġparty": 2185,
      "ĠMS": 2186,
      "Ġless": 2187,
      "ĠJuly": 2188,
      "Ġvalues": 2189,
      "Ġdescribed": 2190,
      "Ġintended": 2191,
      "mp": 2192,
      "Ġpa": 2193,
      "Ġdistribut": 2194,
      "ĠMay": 2195,
      "irt": 2196,
      "ands": 2197,
      "Ġhelp": 2198,
      "Ġclaim": 2199,
      "Ġrev": 2200,
      "Ġfunctions": 2201,
      "Ġlisted": 2202,
      "inf": 2203,
      "Ġincluded": 2204,
      "Ġbehind": 2205,
      "Ġembedded": 2206,
      "ramework": 2207,
      "Ġprotocol": 2208,
      "Ġtest": 2209,
      "Ġcrit": 2210,
      "Ġcapabilities": 2211,
      "Ġpolit": 2212,
      "uro": 2213,
      "Ġintr": 2214,
      "Ġexper": 2215,
      "Ġreturn": 2216,
      "earch": 2217,
      "Ġsur": 2218,
      "Ġpop": 2219,
      "Ġoperating": 2220,
      "'t": 2221,
      "ĠKorean": 2222,
      "ĠSS": 2223,
      "ĠManager": 2224,
      "inter": 2225,
      "ĠBe": 2226,
      "Ġrecent": 2227,
      "IT": 2228,
      "Ġzero": 2229,
      "Ġsignificant": 2230,
      "Ġnon": 2231,
      "Ġaround": 2232,
      "acter": 2233,
      "ĠMozilla": 2234,
      "Ġ16": 2235,
      "phistic": 2236,
      "Ġmodules": 2237,
      "Ġabove": 2238,
      "obile": 2239,
      "Ġtext": 2240,
      "Ġpacket": 2241,
      "ĠIBM": 2242,
      "Ġacross": 2243,
      "ĠControl": 2244,
      "Ġbrowser": 2245,
      "face": 2246,
      "Ġattempts": 2247,
      "Ġautom": 2248,
      "ready": 2249,
      "ued": 2250,
      "though": 2251,
      "angu": 2252,
      "Kit": 2253,
      "ĠWhen": 2254,
      "Ġimplementation": 2255,
      "Ġbusiness": 2256,
      "ancial": 2257,
      "Ġdeliver": 2258,
      "Ġheader": 2259,
      "ĠHe": 2260,
      "Ġnow": 2261,
      "Re": 2262,
      "ĠFin": 2263,
      "ization": 2264,
      "Ġroot": 2265,
      "ler": 2266,
      "49": 2267,
      "Ġrestrict": 2268,
      "Ġbelieve": 2269,
      "acy": 2270,
      "âĢĿ,": 2271,
      "56": 2272,
      "Eye": 2273,
      "Ġregistered": 2274,
      "Ġtypically": 2275,
      "na": 2276,
      "for": 2277,
      "Ġ<": 2278,
      "resent": 2279,
      "Ġdirectly": 2280,
      "Ġcustomers": 2281,
      "Ġvisit": 2282,
      "ĠFile": 2283,
      "AS": 2284,
      "Ġ18": 2285,
      "ock": 2286,
      "Ġoriginal": 2287,
      "lobal": 2288,
      "IR": 2289,
      "tings": 2290,
      "Ġmuch": 2291,
      "Ġ13": 2292,
      "ĠPlayer": 2293,
      "ĠAfter": 2294,
      "Ġlinks": 2295,
      "usted": 2296,
      "ports": 2297,
      "Ġreceived": 2298,
      "man": 2299,
      "ĠXOR": 2300,
      "Ġconfidentiality": 2301,
      "key": 2302,
      "ternational": 2303,
      "Ġresources": 2304,
      "ĠDu": 2305,
      "ĠUse": 2306,
      "Ġshare": 2307,
      "de": 2308,
      "Ġeither": 2309,
      "Ġalready": 2310,
      "Ġinvestigation": 2311,
      "ĠMin": 2312,
      "86": 2313,
      "kit": 2314,
      "âĢĶ": 2315,
      "Ġallows": 2316,
      "Ġcertificate": 2317,
      "AD": 2318,
      "Ġfirm": 2319,
      "andom": 2320,
      "21": 2321,
      "41": 2322,
      "ert": 2323,
      "ĠAdd": 2324,
      "point": 2325,
      "ath": 2326,
      "MP": 2327,
      "ĠSymantec": 2328,
      "ĠPHP": 2329,
      "ĠData": 2330,
      "Ġprocesses": 2331,
      "Ġformat": 2332,
      "Ġcontroll": 2333,
      "50": 2334,
      "set": 2335,
      "osed": 2336,
      "ĠRSA": 2337,
      "Ġmeans": 2338,
      "Ġadministrative": 2339,
      "Ġconfigured": 2340,
      "Ġauthor": 2341,
      "pplication": 2342,
      "Ġthreats": 2343,
      "59": 2344,
      "ey": 2345,
      "Ex": 2346,
      "ek": 2347,
      "Ġmust": 2348,
      "ances": 2349,
      "ĠDe": 2350,
      "ĠJan": 2351,
      "Ġincludes": 2352,
      "Ġredirect": 2353,
      "stant": 2354,
      "ĠEnter": 2355,
      "hot": 2356,
      "inc": 2357,
      "Ġresol": 2358,
      "Ġmonitor": 2359,
      "Ġdate": 2360,
      "ober": 2361,
      "Ġsize": 2362,
      "epend": 2363,
      "ĠOne": 2364,
      "uxnet": 2365,
      "ĠInformation": 2366,
      "Ġbuild": 2367,
      "ĠFeb": 2368,
      "Ġdetected": 2369,
      "www": 2370,
      "Ġhij": 2371,
      "irtual": 2372,
      "Ġsophistic": 2373,
      "ls": 2374,
      "ĠService": 2375,
      "LP": 2376,
      "ah": 2377,
      "coded": 2378,
      "Ġenvironment": 2379,
      "Ġactivities": 2380,
      "light": 2381,
      "Ġbegin": 2382,
      "echan": 2383,
      "Ġdelet": 2384,
      "Ġprograms": 2385,
      "Ġfail": 2386,
      "less": 2387,
      "mer": 2388,
      "Ġpasswords": 2389,
      "ron": 2390,
      "ĠOct": 2391,
      "Ġ2017": 2392,
      "Ġavailability": 2393,
      "Ġobfusc": 2394,
      "minal": 2395,
      "Ġlocated": 2396,
      "For": 2397,
      "ĠDef": 2398,
      "ength": 2399,
      "Ġcopy": 2400,
      "Ġarch": 2401,
      "ĠUnited": 2402,
      "Ġestab": 2403,
      "Ġwritten": 2404,
      "Ġreveal": 2405,
      "Ġfore": 2406,
      "ĠDr": 2407,
      "ĠWebKit": 2408,
      "Ġmethods": 2409,
      "Ġeffort": 2410,
      "air": 2411,
      "ynam": 2412,
      "Ġconnections": 2413,
      "Ġgu": 2414,
      "Ġprovides": 2415,
      "Ġpublicly": 2416,
      "Script": 2417,
      "Ġfake": 2418,
      "ĠCSC": 2419,
      "ustry": 2420,
      "Ġwhether": 2421,
      "Ġcommunications": 2422,
      "ME": 2423,
      "Ġenabled": 2424,
      "olution": 2425,
      "ybers": 2426,
      "md": 2427,
      "ising": 2428,
      "ember": 2429,
      "cont": 2430,
      "Ġuthentication": 2431,
      "ness": 2432,
      "ĠTechn": 2433,
      "ĠThere": 2434,
      "box": 2435,
      "Ġlim": 2436,
      "Ġlocation": 2437,
      "ml": 2438,
      "ĠTCP": 2439,
      "filtr": 2440,
      "hip": 2441,
      "ĠÐ": 2442,
      "Ġed": 2443,
      "Ġdep": 2444,
      "Ġshared": 2445,
      "Ġcharacter": 2446,
      "cl": 2447,
      "ven": 2448,
      "Ġdecoy": 2449,
      "side": 2450,
      "Ġpeople": 2451,
      "Ġnews": 2452,
      "58": 2453,
      "Ġmode": 2454,
      "Ġoperators": 2455,
      "Ġdisclos": 2456,
      "Ġrepresent": 2457,
      "uary": 2458,
      "Ġutil": 2459,
      "wh": 2460,
      "Ġ32": 2461,
      "Ġpres": 2462,
      "Ġprivate": 2463,
      "Ġimpl": 2464,
      "Ser": 2465,
      "anguage": 2466,
      "Ġnext": 2467,
      "ĠEnterprise": 2468,
      "PS": 2469,
      "ient": 2470,
      "Ġdisk": 2471,
      "Ġ2009": 2472,
      "dd": 2473,
      "Ġfolder": 2474,
      ":\\": 2475,
      "play": 2476,
      "ĠSc": 2477,
      "Ġextract": 2478,
      "ograph": 2479,
      "ĠPD": 2480,
      "Ġarg": 2481,
      "Ġcritical": 2482,
      "55": 2483,
      "Ġcomplete": 2484,
      "ior": 2485,
      "ives": 2486,
      "gor": 2487,
      "Ġfre": 2488,
      "Ġhis": 2489,
      "Ġparameters": 2490,
      "Ġsending": 2491,
      "Ġfilen": 2492,
      "Ġconfir": 2493,
      "ruary": 2494,
      "Ġapplications": 2495,
      "ĠDirectory": 2496,
      "arily": 2497,
      "Ġmark": 2498,
      "Ġspread": 2499,
      "Ġlinked": 2500,
      "ects": 2501,
      "Ġencoded": 2502,
      "EC": 2503,
      "IC": 2504,
      "Ġproxy": 2505,
      "ache": 2506,
      "Ġtrad": 2507,
      "Ġsignature": 2508,
      "Ġinternal": 2509,
      "ecure": 2510,
      "Ġstand": 2511,
      "Ġart": 2512,
      "Ġsmall": 2513,
      "Ġcar": 2514,
      "ĠIntelligence": 2515,
      "Ġfamily": 2516,
      "Ġindividuals": 2517,
      "Ġsal": 2518,
      "ification": 2519,
      "ĠRem": 2520,
      "ĠES": 2521,
      "ili": 2522,
      "Ġvulner": 2523,
      "ĠAnt": 2524,
      "Ġshort": 2525,
      "Ġ2003": 2526,
      "Ġpublished": 2527,
      "ccording": 2528,
      "Ġ30": 2529,
      "Ġdevelopment": 2530,
      "ingle": 2531,
      "Ġlogin": 2532,
      "Ġinvolving": 2533,
      "Ch": 2534,
      "icy": 2535,
      "ĠEng": 2536,
      "Ġtact": 2537,
      "ĠAnal": 2538,
      "Ġfinancial": 2539,
      "43": 2540,
      "Ġtem": 2541,
      "Ġexfiltr": 2542,
      "ĠXP": 2543,
      "Ġconnected": 2544,
      "Ġinstallation": 2545,
      "ism": 2546,
      "Ġadvanced": 2547,
      "ĠSu": 2548,
      "go": 2549,
      "ĠTeam": 2550,
      "gorith": 2551,
      "ĠBug": 2552,
      "Ġvulnerable": 2553,
      "RO": 2554,
      "ĠApr": 2555,
      "ĠStuxnet": 2556,
      "Ġdelete": 2557,
      "ĠConf": 2558,
      "Ġsimple": 2559,
      "Ġlat": 2560,
      "An": 2561,
      "Ġsess": 2562,
      "Ġevent": 2563,
      "Ġpast": 2564,
      "ĠThey": 2565,
      "Ġdownloaded": 2566,
      "ĠFebruary": 2567,
      "60": 2568,
      "88": 2569,
      "Ġver": 2570,
      "ĠÂ©": 2571,
      "Ġbug": 2572,
      "Ġtrigger": 2573,
      "ank": 2574,
      "ERT": 2575,
      "Ġec": 2576,
      "ideo": 2577,
      "Ġthread": 2578,
      "ĠJune": 2579,
      "Ġclick": 2580,
      "Ġdatabase": 2581,
      "Ġline": 2582,
      "Ġimportant": 2583,
      "Ġdue": 2584,
      "unity": 2585,
      "Ġenter": 2586,
      "Ġprotect": 2587,
      "Ġopp": 2588,
      "Ġofficial": 2589,
      "Ġmechan": 2590,
      "Ġplease": 2591,
      "ĠBy": 2592,
      "Ġens": 2593,
      "Ġreports": 2594,
      "Ġpersonal": 2595,
      "Ġfour": 2596,
      "Ġday": 2597,
      "Ġability": 2598,
      "Ġpermiss": 2599,
      "ĠFireEye": 2600,
      "ivirus": 2601,
      "ference": 2602,
      "ĠAug": 2603,
      "quently": 2604,
      "Ġretrie": 2605,
      "Ġ2007": 2606,
      "Ġattachment": 2607,
      "So": 2608,
      "Ġmaintain": 2609,
      "Ġindustry": 2610,
      "Ġrequests": 2611,
      "Ġbehav": 2612,
      "TC": 2613,
      "rike": 2614,
      "arent": 2615,
      "Ġmodify": 2616,
      "ĠĠĠĠĠĠĠĠ": 2617,
      "Ġearlier": 2618,
      "gers": 2619,
      "res": 2620,
      "Ġtop": 2621,
      "Ġmill": 2622,
      "rid": 2623,
      "comm": 2624,
      "57": 2625,
      "oard": 2626,
      "ĠAS": 2627,
      "minals": 2628,
      "Ġplace": 2629,
      "ĠManagement": 2630,
      "Ġwww": 2631,
      "Ġrange": 2632,
      "Ġdropped": 2633,
      "Ġrandom": 2634,
      "Ġ24": 2635,
      "Ġextension": 2636,
      "Ġsingle": 2637,
      "Ġbase": 2638,
      "ĠNet": 2639,
      "Ġsom": 2640,
      "urope": 2641,
      "oS": 2642,
      "ĠIs": 2643,
      "endix": 2644,
      "Ġscan": 2645,
      "Ġadversary": 2646,
      "back": 2647,
      "odes": 2648,
      "Ġwhose": 2649,
      "Ġtechnology": 2650,
      "Ġdiscuss": 2651,
      "Ġgiven": 2652,
      "ump": 2653,
      "ĠMalware": 2654,
      "ĠBlack": 2655,
      "Ġtechnique": 2656,
      "Ġinside": 2657,
      "ĠApril": 2658,
      "ĠCommand": 2659,
      "Ġauthentic": 2660,
      "Ġmatch": 2661,
      "Ġseries": 2662,
      "Ġpotentially": 2663,
      "Ġalgorith": 2664,
      "Ġaccording": 2665,
      "Ġlibrary": 2666,
      "98": 2667,
      "annel": 2668,
      "ĠTarget": 2669,
      "RAT": 2670,
      "til": 2671,
      "ison": 2672,
      "oding": 2673,
      "Ġlogs": 2674,
      "ĠNove": 2675,
      "Ġ64": 2676,
      "Ġprevent": 2677,
      "ĠSy": 2678,
      "oth": 2679,
      "Ġresponsible": 2680,
      "reens": 2681,
      "Ġcalls": 2682,
      "ĠOctober": 2683,
      "ric": 2684,
      "Ġtable": 2685,
      "ided": 2686,
      "Ġconsum": 2687,
      "96": 2688,
      "host": 2689,
      "Ġwide": 2690,
      "ĠIns": 2691,
      "artment": 2692,
      "Ġnote": 2693,
      "Ġtrack": 2694,
      "Ġprior": 2695,
      "erb": 2696,
      "Ġdiff": 2697,
      "ĠOnce": 2698,
      "ĠAt": 2699,
      "Ġcompiled": 2700,
      "Ġpolitical": 2701,
      "ĠJo": 2702,
      "Ġreas": 2703,
      "ames": 2704,
      "ĠReal": 2705,
      "Ġsigned": 2706,
      "Ġimplant": 2707,
      "OST": 2708,
      "Ġchecks": 2709,
      "ĠJanuary": 2710,
      "31": 2711,
      "ingly": 2712,
      "Ġstrateg": 2713,
      "Ġshellcode": 2714,
      "lict": 2715,
      "cel": 2716,
      "Ġcard": 2717,
      "Ġexists": 2718,
      "Ġinterface": 2719,
      "way": 2720,
      "ĠEurope": 2721,
      "ĠNe": 2722,
      "Ġkeys": 2723,
      "Ġreleased": 2724,
      "used": 2725,
      "ĠReg": 2726,
      "Ġdeveloped": 2727,
      "top": 2728,
      "aps": 2729,
      "Ġscen": 2730,
      "ĠProt": 2731,
      "Ġcreates": 2732,
      ".\"": 2733,
      "Ġï¬ģ": 2734,
      "Ġref": 2735,
      "alth": 2736,
      "Ġpower": 2737,
      "erst": 2738,
      "ĠCenter": 2739,
      "aken": 2740,
      "oof": 2741,
      "olutions": 2742,
      "nc": 2743,
      "ole": 2744,
      "Ġcountry": 2745,
      "99": 2746,
      "ises": 2747,
      "ĠStates": 2748,
      "press": 2749,
      "Ġvend": 2750,
      "rob": 2751,
      "%\\": 2752,
      "iod": 2753,
      "Ġanalyzed": 2754,
      "67": 2755,
      "Ġtakes": 2756,
      "Shell": 2757,
      "Ġinvolved": 2758,
      "attack": 2759,
      "40": 2760,
      "ĠAugust": 2761,
      "Ġstore": 2762,
      "Ġconsist": 2763,
      "Ġhighly": 2764,
      "medi": 2765,
      "alid": 2766,
      "iversity": 2767,
      "As": 2768,
      "Ġinstance": 2769,
      "ging": 2770,
      "Ġhere": 2771,
      "Ġsepar": 2772,
      "Ġearly": 2773,
      "vis": 2774,
      "aces": 2775,
      "reenshot": 2776,
      "Ġspecif": 2777,
      "Ġhijack": 2778,
      "ĠIT": 2779,
      "Ġweek": 2780,
      "ĠHP": 2781,
      "Ġstrong": 2782,
      "Ġindicates": 2783,
      "after": 2784,
      "not": 2785,
      "aced": 2786,
      "oun": 2787,
      "ĠTrend": 2788,
      "CC": 2789,
      "ĠSet": 2790,
      "Ġbyte": 2791,
      "ĠGe": 2792,
      "Ġadministrators": 2793,
      "HO": 2794,
      "ĠâĢĶ": 2795,
      "Ġnumbers": 2796,
      "Ġinstead": 2797,
      "Ġargument": 2798,
      "bin": 2799,
      "pri": 2800,
      "Ð¾": 2801,
      "Ġ)": 2802,
      "underb": 2803,
      "ĠDecember": 2804,
      "Ġflaw": 2805,
      "Ġinternet": 2806,
      "ĠMy": 2807,
      "ĠBack": 2808,
      "Ġmodified": 2809,
      "Ġid": 2810,
      "itut": 2811,
      "thers": 2812,
      "underbird": 2813,
      "long": 2814,
      "Ġmove": 2815,
      "Ġele": 2816,
      "ĠRec": 2817,
      "ĠLoc": 2818,
      "ending": 2819,
      "Ġleak": 2820,
      "Ġpointer": 2821,
      "Ġhosted": 2822,
      "Ġconsider": 2823,
      "witter": 2824,
      "Ġhacking": 2825,
      "Ġmembers": 2826,
      "IF": 2827,
      "ume": 2828,
      "Ġpos": 2829,
      "ĠKaspersky": 2830,
      "Ġproble": 2831,
      "ĠSea": 2832,
      "free": 2833,
      "lose": 2834,
      "Ġalong": 2835,
      "ĠThunderbird": 2836,
      "Ġrespond": 2837,
      "Ġmanagement": 2838,
      "stall": 2839,
      "Ġlanguage": 2840,
      "ĠGo": 2841,
      "While": 2842,
      "opy": 2843,
      "Ġhardcoded": 2844,
      "Ġscenari": 2845,
      "ĠCar": 2846,
      "Ġproject": 2847,
      "Ġtimes": 2848,
      "ned": 2849,
      "sys": 2850,
      "ĠCloud": 2851,
      "ĠDep": 2852,
      "Ġspoof": 2853,
      "Ġindust": 2854,
      "Ġintel": 2855,
      "Ġupdates": 2856,
      "aving": 2857,
      "Ġperiod": 2858,
      "Ġissues": 2859,
      "RF": 2860,
      "ories": 2861,
      "Ġfar": 2862,
      "Ġpurpose": 2863,
      "most": 2864,
      "we": 2865,
      "Ġdigital": 2866,
      "raud": 2867,
      "Ġinstr": 2868,
      "Ġamount": 2869,
      "Ġanti": 2870,
      "Ġsophisticated": 2871,
      "mb": 2872,
      "Ġresource": 2873,
      "reports": 2874,
      "Ġmobile": 2875,
      "imes": 2876,
      "ĠDark": 2877,
      "Ġdrive": 2878,
      "erous": 2879,
      "Ġforce": 2880,
      "Ġsequ": 2881,
      "ĠUkrainian": 2882,
      "Ġconvince": 2883,
      "dition": 2884,
      "lated": 2885,
      "icult": 2886,
      "Ġoperate": 2887,
      "Ġentry": 2888,
      "Ġprotection": 2889,
      "Ġeasier": 2890,
      "ĠRemote": 2891,
      "let": 2892,
      "Ġdisplay": 2893,
      "oid": 2894,
      "Ġlow": 2895,
      "Ġfree": 2896,
      "ĠSome": 2897,
      "ĠSep": 2898,
      "Ġscam": 2899,
      "erstand": 2900,
      "doc": 2901,
      "ele": 2902,
      "ĠAc": 2903,
      "ĠPL": 2904,
      "EN": 2905,
      "ĠQu": 2906,
      "52": 2907,
      "ĠMess": 2908,
      "indow": 2909,
      "Ġspecial": 2910,
      "97": 2911,
      "Ġaware": 2912,
      "Ġpopular": 2913,
      "Ġlatest": 2914,
      "Ġdifficult": 2915,
      "DA": 2916,
      "eck": 2917,
      "icrosoft": 2918,
      "istry": 2919,
      "Ġquests": 2920,
      "tember": 2921,
      "ribute": 2922,
      "53": 2923,
      "AL": 2924,
      "ĠSaf": 2925,
      "Ġprom": 2926,
      "ĠPeople": 2927,
      "sc": 2928,
      "view": 2929,
      "coin": 2930,
      "Ġexploitation": 2931,
      "Ġdays": 2932,
      "ĠPE": 2933,
      "Ġleveraging": 2934,
      "Ġalgorithm": 2935,
      "Al": 2936,
      "Ġtask": 2937,
      "Ġglobal": 2938,
      "Ġcontinue": 2939,
      "Pl": 2940,
      "wall": 2941,
      "Ġbas": 2942,
      "alt": 2943,
      "ĠCor": 2944,
      "ĠInter": 2945,
      "rupt": 2946,
      "Ġresults": 2947,
      "ĠPDF": 2948,
      "ĠTo": 2949,
      "urs": 2950,
      "ĠUser": 2951,
      "Ġcapt": 2952,
      "Ġbotnet": 2953,
      "Ġchanges": 2954,
      "list": 2955,
      "Ġruns": 2956,
      "Ġtriggers": 2957,
      "fare": 2958,
      "tle": 2959,
      "Ġaccessed": 2960,
      "Ġquick": 2961,
      "ees": 2962,
      "kaspersky": 2963,
      "Ġtry": 2964,
      "ught": 2965,
      "77": 2966,
      "Ġengineering": 2967,
      "Ġothers": 2968,
      "Ġsays": 2969,
      "Ġcop": 2970,
      "Ġstandard": 2971,
      "Ġmot": 2972,
      "Ġrest": 2973,
      "ĠFil": 2974,
      "nergy": 2975,
      "File": 2976,
      "Ġframework": 2977,
      "Ġmention": 2978,
      "Ġmac": 2979,
      "uture": 2980,
      "Ġ22": 2981,
      "ĠActiveX": 2982,
      "Ġintelreports": 2983,
      "RC": 2984,
      "Ġprofile": 2985,
      "fe": 2986,
      "irc": 2987,
      "ĠRed": 2988,
      "ĠNew": 2989,
      "Ġspecified": 2990,
      "ĠOut": 2991,
      "Ġadded": 2992,
      "trusted": 2993,
      "ĠGold": 2994,
      "ĠExcel": 2995,
      "Ġmachines": 2996,
      "idden": 2997,
      "ybersecurity": 2998,
      "ilies": 2999,
      "pper": 3000,
      "Ġloaded": 3001,
      "ï¿½ï¿½ï¿½ï¿½ï¿½ï¿½ï¿½ï¿½": 3002,
      "du": 3003,
      "Ġtaken": 3004,
      "Ġthough": 3005,
      "ĠNT": 3006,
      "ĠServices": 3007,
      "Ġaccept": 3008,
      "ĠResearch": 3009,
      "pre": 3010,
      "untime": 3011,
      "my": 3012,
      "ibet": 3013,
      "Ġevents": 3014,
      "Ġbr": 3015,
      "Ġhosting": 3016,
      "Ġphone": 3017,
      ".,": 3018,
      "mine": 3019,
      "phishing": 3020,
      "Ð°": 3021,
      "ĠPol": 3022,
      "ĠEl": 3023,
      "Ġsimply": 3024,
      "Ġwrite": 3025,
      "Ġstat": 3026,
      "Ġ25": 3027,
      "Ġcurrently": 3028,
      "100": 3029,
      "Ġexpl": 3030,
      "like": 3031,
      "Ġpract": 3032,
      "ĠSSL": 3033,
      "Ġsomet": 3034,
      "eared": 3035,
      "Ġrepl": 3036,
      "ĠTLP": 3037,
      "ĠCVEs": 3038,
      "These": 3039,
      "ĠSeptember": 3040,
      "Ġop": 3041,
      "Ġmov": 3042,
      "Ġyet": 3043,
      "Ġhead": 3044,
      "Ġgenerated": 3045,
      "Ġeffective": 3046,
      "Ġinstruct": 3047,
      "over": 3048,
      "Ġchannel": 3049,
      "Ġinteract": 3050,
      "Ġhacker": 3051,
      "89": 3052,
      "cent": 3053,
      "ne": 3054,
      "Ġ23": 3055,
      "ibility": 3056,
      "Ġtypes": 3057,
      "ependent": 3058,
      "Ġmaking": 3059,
      "2015": 3060,
      "80": 3061,
      "PN": 3062,
      "ba": 3063,
      "âĢ¬": 3064,
      "Ġhosts": 3065,
      "apt": 3066,
      "kes": 3067,
      "lis": 3068,
      "ĠPo": 3069,
      "ublic": 3070,
      "::": 3071,
      "Point": 3072,
      "irst": 3073,
      "ends": 3074,
      "51": 3075,
      "If": 3076,
      "ways": 3077,
      "etter": 3078,
      "Ġrecently": 3079,
      "Ġsends": 3080,
      "Ġfamilies": 3081,
      "Ġauth": 3082,
      "ĠMc": 3083,
      "ĠPOST": 3084,
      "Ġrather": 3085,
      "Ġsubject": 3086,
      "However": 3087,
      "SP": 3088,
      "db": 3089,
      "part": 3090,
      "Ġhist": 3091,
      "ĠSte": 3092,
      "Ġconflict": 3093,
      "Ġmonths": 3094,
      "Ġensure": 3095,
      "ĠSyri": 3096,
      "oney": 3097,
      "itionally": 3098,
      "Ġfilename": 3099,
      "Con": 3100,
      "doors": 3101,
      "ĠIndia": 3102,
      "MD": 3103,
      "Net": 3104,
      "ream": 3105,
      "Ġbelong": 3106,
      "formed": 3107,
      "Ġindicate": 3108,
      "ĠSE": 3109,
      "ĠPage": 3110,
      "ownload": 3111,
      "Ġstarted": 3112,
      "Ġscenario": 3113,
      "Ġnorm": 3114,
      "acters": 3115,
      "Ġidentif": 3116,
      "Ġcontents": 3117,
      "Ġgetting": 3118,
      "aster": 3119,
      "ĠMD": 3120,
      "Ġexport": 3121,
      "ensive": 3122,
      "get": 3123,
      "Ġnoted": 3124,
      "Ġsuggests": 3125,
      "nect": 3126,
      "ĠTibet": 3127,
      "Ġstud": 3128,
      "Ġuntil": 3129,
      "Ġimpro": 3130,
      "Ġscreenshot": 3131,
      "Ġcharacters": 3132,
      "ĠUsers": 3133,
      "Ġprimarily": 3134,
      "87": 3135,
      "Ġgather": 3136,
      "Ġbuil": 3137,
      "covered": 3138,
      "Ġindicators": 3139,
      "Ġzone": 3140,
      "lu": 3141,
      "erson": 3142,
      "system": 3143,
      "Ġue": 3144,
      "Ġlength": 3145,
      "Ġstack": 3146,
      "Ġsettings": 3147,
      "ĠAppendix": 3148,
      "All": 3149,
      "Ġfraud": 3150,
      "ĠTwitter": 3151,
      "Ġequ": 3152,
      "Ġprobably": 3153,
      "Ġrevealed": 3154,
      "OM": 3155,
      "mber": 3156,
      "Ġdeb": 3157,
      "Ġimmedi": 3158,
      "Ġunderstand": 3159,
      "Ġuffer": 3160,
      "Ġpaper": 3161,
      "Ġ?": 3162,
      "Ġsector": 3163,
      "Ġamong": 3164,
      "Ġfeatures": 3165,
      "Ġpersistence": 3166,
      "orre": 3167,
      "ĠStr": 3168,
      "65": 3169,
      "US": 3170,
      "iger": 3171,
      "change": 3172,
      "ĠBit": 3173,
      "Ġactions": 3174,
      "ĠDepartment": 3175,
      "page": 3176,
      "Ġmiss": 3177,
      "Ġvirtual": 3178,
      "Ġprof": 3179,
      "ĠRC": 3180,
      "Ġprimary": 3181,
      "ĠAnalysis": 3182,
      "Ġlocations": 3183,
      "ĠDuqu": 3184,
      "Ag": 3185,
      "orse": 3186,
      "otal": 3187,
      "aw": 3188,
      "Ġdetailed": 3189,
      "Ġdecrypted": 3190,
      "Ġ]": 3191,
      "Ġmail": 3192,
      "Ġloader": 3193,
      "Ġresearcher": 3194,
      "aff": 3195,
      "ones": 3196,
      "ĠResp": 3197,
      "Ġcompress": 3198,
      "ĠNot": 3199,
      "Ġactually": 3200,
      "Ġoutput": 3201,
      "Ġcybercri": 3202,
      "look": 3203,
      "rial": 3204,
      "ĠMiddle": 3205,
      "Ġmillion": 3206,
      "uman": 3207,
      "Ġavoid": 3208,
      "Ġprivilege": 3209,
      "orage": 3210,
      "Ġword": 3211,
      "Ġappeared": 3212,
      "apan": 3213,
      "Ġallowed": 3214,
      "Ġsecure": 3215,
      "Ġfl": 3216,
      "Ġvideo": 3217,
      "There": 3218,
      "Ġbinaries": 3219,
      "iet": 3220,
      "ecess": 3221,
      "Ġ21": 3222,
      "ĠReport": 3223,
      "Ġtactics": 3224,
      "df": 3225,
      "Ġinput": 3226,
      "ĠCopy": 3227,
      "Ġlit": 3228,
      "Ġmechanism": 3229,
      "Ġusually": 3230,
      "Ġspy": 3231,
      "HS": 3232,
      "ista": 3233,
      "Ġadvert": 3234,
      "ĠNational": 3235,
      "Ġadvant": 3236,
      "Ġelect": 3237,
      "Ġdeployed": 3238,
      "Ġtrojan": 3239,
      "atically": 3240,
      "Ġphys": 3241,
      "ĠNetworks": 3242,
      "Ġrecords": 3243,
      "Ġdetermine": 3244,
      "ĠInstead": 3245,
      "61": 3246,
      "EX": 3247,
      "sing": 3248,
      "Ġturn": 3249,
      "ĠCode": 3250,
      "Ġ29": 3251,
      "ĠGener": 3252,
      "Ġdefense": 3253,
      "Ġlimited": 3254,
      "Ġexternal": 3255,
      "Ġoverw": 3256,
      "ynamic": 3257,
      "Ġsession": 3258,
      "fact": 3259,
      "Ġpages": 3260,
      "ices": 3261,
      "ĠSoftware": 3262,
      "ĠNovember": 3263,
      "Ġwant": 3264,
      "icle": 3265,
      "aring": 3266,
      "spond": 3267,
      "Ġpattern": 3268,
      "63": 3269,
      "ktop": 3270,
      "rc": 3271,
      "onym": 3272,
      "ched": 3273,
      "emon": 3274,
      "Ġbackdoors": 3275,
      "Ġentities": 3276,
      "When": 3277,
      "entr": 3278,
      "Ġcollect": 3279,
      "Ġcertificates": 3280,
      "Ġdeleted": 3281,
      "Ġbehavior": 3282,
      ",,": 3283,
      "DP": 3284,
      "].": 3285,
      "Ðµ": 3286,
      "Ġhour": 3287,
      "Ġnever": 3288,
      "pped": 3289,
      "ĠJapan": 3290,
      "Ġkeep": 3291,
      "Ġspecifically": 3292,
      "ĠGeorg": 3293,
      "42": 3294,
      "ats": 3295,
      "ustr": 3296,
      "Ġlack": 3297,
      "Ġimpacted": 3298,
      "ray": 3299,
      "tp": 3300,
      "Ġenco": 3301,
      "ĠJavaScript": 3302,
      "71": 3303,
      "bot": 3304,
      "board": 3305,
      "onom": 3306,
      "ĠUTC": 3307,
      "APT": 3308,
      "Ġinternational": 3309,
      "user": 3310,
      "ĠPri": 3311,
      "ĠVista": 3312,
      "Ġinstitut": 3313,
      "Ġgreat": 3314,
      "One": 3315,
      "Ġpermissions": 3316,
      "App": 3317,
      "ren": 3318,
      "Ġbest": 3319,
      "Ġreserved": 3320,
      "Ġnet": 3321,
      "Ġnational": 3322,
      "ĠIm": 3323,
      "ĠFrom": 3324,
      "Ġvariety": 3325,
      "ledge": 3326,
      "Ġmonitoring": 3327,
      "aemon": 3328,
      "oved": 3329,
      "Ġvol": 3330,
      "ĠDD": 3331,
      "peration": 3332,
      "Ġ28": 3333,
      "Ġseems": 3334,
      "Ġcrypt": 3335,
      "ĠTur": 3336,
      "ody": 3337,
      "Ġmalformed": 3338,
      "udio": 3339,
      "Ġmacro": 3340,
      "arus": 3341,
      "ĠAss": 3342,
      "Ġ33": 3343,
      "ĠUniversity": 3344,
      "Ġalmost": 3345,
      "cription": 3346,
      "rowd": 3347,
      "Microsoft": 3348,
      "Ġfuture": 3349,
      "Ġapparent": 3350,
      "Ġcorrespond": 3351,
      "BC": 3352,
      "ebook": 3353,
      "ologies": 3354,
      "Ġconducted": 3355,
      "Ġrequired": 3356,
      "force": 3357,
      "78": 3358,
      "val": 3359,
      "Ġsum": 3360,
      "Ġstrategic": 3361,
      "enger": 3362,
      "Ġms": 3363,
      "Ġapproach": 3364,
      "Ġclose": 3365,
      "Ġwin": 3366,
      "ĠDes": 3367,
      "Ġemployees": 3368,
      "ersion": 3369,
      "ĠTool": 3370,
      "Ġreveals": 3371,
      "Mon": 3372,
      "estamp": 3373,
      "ĠLe": 3374,
      "ĠVis": 3375,
      "Ġantivirus": 3376,
      "Af": 3377,
      "LS": 3378,
      "Windows": 3379,
      "etr": 3380,
      "Ġmentioned": 3381,
      "Ġadvantage": 3382,
      "HE": 3383,
      "PU": 3384,
      "Ġ\\": 3385,
      "Ġdot": 3386,
      "Ġbegan": 3387,
      "Ġspace": 3388,
      "ĠAPP": 3389,
      "dot": 3390,
      "itiz": 3391,
      "Ġfr": 3392,
      "Ġmoney": 3393,
      "Ġpayment": 3394,
      "Ġreceive": 3395,
      "Ġdelivered": 3396,
      "Ġauthentication": 3397,
      "68": 3398,
      "mode": 3399,
      "Ġoption": 3400,
      "istics": 3401,
      "ĠGen": 3402,
      "Ġoperational": 3403,
      "Ġrelease": 3404,
      "Ġself": 3405,
      "IG": 3406,
      "gu": 3407,
      "nal": 3408,
      "acebook": 3409,
      "2014": 3410,
      "agon": 3411,
      "ĠKey": 3412,
      "comp": 3413,
      "=\"": 3414,
      "iec": 3415,
      "nC": 3416,
      "Ġdam": 3417,
      "ĠXML": 3418,
      "Ġremov": 3419,
      "Ġconsumption": 3420,
      "ĠResponse": 3421,
      "Afee": 3422,
      "Ġrelations": 3423,
      "Ġassess": 3424,
      "ĠIndian": 3425,
      "ait": 3426,
      "Ġobser": 3427,
      "Ġexecutes": 3428,
      "Ġrecon": 3429,
      "ĠIranian": 3430,
      "related": 3431,
      "ively": 3432,
      "ĠVirus": 3433,
      "Ġauthors": 3434,
      "Ġ{": 3435,
      "Ġstarts": 3436,
      "Ġdistributed": 3437,
      "Ġproblem": 3438,
      "Un": 3439,
      "oks": 3440,
      "Ġ27": 3441,
      "Ġcour": 3442,
      "Ġtrick": 3443,
      "Ġcollected": 3444,
      "Ġobjects": 3445,
      "ĠTechnology": 3446,
      "AE": 3447,
      "acon": 3448,
      "Ġonce": 3449,
      "Ġenough": 3450,
      "Ġ01": 3451,
      "Ġleft": 3452,
      "Ġroutine": 3453,
      "mitted": 3454,
      "54": 3455,
      "time": 3456,
      "ĠShell": 3457,
      "Ġnature": 3458,
      "Ġcommunity": 3459,
      "Ġbank": 3460,
      "going": 3461,
      "ceed": 3462,
      "see": 3463,
      "IE": 3464,
      "ortun": 3465,
      "Ġscreen": 3466,
      "Ġlaw": 3467,
      "Ġconcer": 3468,
      "ram": 3469,
      "Ġpiec": 3470,
      "count": 3471,
      "ĠApplication": 3472,
      "Ġmotiv": 3473,
      "ta": 3474,
      "Ġalways": 3475,
      "ĠBut": 3476,
      "Ġ45": 3477,
      "Ġscripts": 3478,
      "ĠSystems": 3479,
      "land": 3480,
      "Ġfac": 3481,
      "ĠGET": 3482,
      "amples": 3483,
      "Ġcook": 3484,
      "umer": 3485,
      "wan": 3486,
      "ĠReader": 3487,
      "TER": 3488,
      "Ġreason": 3489,
      "Agent": 3490,
      "()": 3491,
      "Ġsk": 3492,
      "Ġsay": 3493,
      "ĠWith": 3494,
      "Ġapps": 3495,
      "ORD": 3496,
      "witch": 3497,
      "ĠSafari": 3498,
      "bound": 3499,
      "Ġcare": 3500,
      "Ġhapp": 3501,
      "ĠInteger": 3502,
      "After": 3503,
      "PC": 3504,
      "Up": 3505,
      "Ġnecess": 3506,
      "ĠPal": 3507,
      "Ġactual": 3508,
      "ĠLocal": 3509,
      "wise": 3510,
      "Ð¸": 3511,
      "Ġweap": 3512,
      "verse": 3513,
      "Ġregime": 3514,
      "70": 3515,
      "AM": 3516,
      "Rat": 3517,
      "Ġcirc": 3518,
      "Ġopt": 3519,
      "Ġfire": 3520,
      "ides": 3521,
      "Ġbecome": 3522,
      "ĠGovernment": 3523,
      "ked": 3524,
      "itig": 3525,
      "Ġbl": 3526,
      "Ġreach": 3527,
      "ried": 3528,
      "Ġpackets": 3529,
      "Ġtimestamp": 3530,
      "Ġincidents": 3531,
      "Ġimmediately": 3532,
      "Data": 3533,
      "ÑĢ": 3534,
      "Ġoverl": 3535,
      "oses": 3536,
      "ournal": 3537,
      "encies": 3538,
      "Ġpersistent": 3539,
      "Ġseparate": 3540,
      "data": 3541,
      "Ġmult": 3542,
      "ĠSun": 3543,
      "Ġcomplex": 3544,
      "ĠNAT": 3545,
      "Ġexplain": 3546,
      "mar": 3547,
      "uster": 3548,
      "ading": 3549,
      "Ġoutside": 3550,
      "Ġcorpor": 3551,
      "puter": 3552,
      "Ġwarfare": 3553,
      "69": 3554,
      "ecom": 3555,
      "Ġoffer": 3556,
      "omla": 3557,
      "Ġgovern": 3558,
      "Ġentire": 3559,
      "Ġplugins": 3560,
      "Cry": 3561,
      "FF": 3562,
      "TR": 3563,
      "enced": 3564,
      "istan": 3565,
      "Once": 3566,
      "Ġfocused": 3567,
      "ĠRT": 3568,
      "Ġupon": 3569,
      "ource": 3570,
      "issance": 3571,
      "Ġquery": 3572,
      "TI": 3573,
      "Ġnation": 3574,
      "olar": 3575,
      "ĠPlug": 3576,
      "Ġcover": 3577,
      "Ġcreating": 3578,
      "naissance": 3579,
      "Ġlittle": 3580,
      "HT": 3581,
      "ood": 3582,
      "Ġcapability": 3583,
      "ĠiOS": 3584,
      "ozy": 3585,
      "Ġcloud": 3586,
      "itions": 3587,
      "ĠCl": 3588,
      "ĠAccess": 3589,
      "Ġ31": 3590,
      "Ġstep": 3591,
      "Ġdetermin": 3592,
      "info": 3593,
      "DE": 3594,
      "ĠSed": 3595,
      "ĠPort": 3596,
      "Ġsources": 3597,
      "Ġfollows": 3598,
      "ĠCommunic": 3599,
      "79": 3600,
      "MB": 3601,
      "ĠScript": 3602,
      "Ġuns": 3603,
      "Ġchain": 3604,
      "html": 3605,
      "Ġfollowed": 3606,
      "ĠAdmin": 3607,
      "Ġclaims": 3608,
      "ĠFree": 3609,
      "Ġlogged": 3610,
      "Ġattribution": 3611,
      "ĠBackdoor": 3612,
      "Ð½": 3613,
      "Ġhar": 3614,
      "ĠSeaMon": 3615,
      "ĠSeaMonkey": 3616,
      "Ġes": 3617,
      "Ġspe": 3618,
      "Ġdownloader": 3619,
      "Ġintrusion": 3620,
      "Ġforeign": 3621,
      "ĠJoomla": 3622,
      "ĠCre": 3623,
      "ĠDuring": 3624,
      "ĠEst": 3625,
      "Ġdesign": 3626,
      "iews": 3627,
      "Ġtransfer": 3628,
      "90": 3629,
      "Ġtag": 3630,
      "Ġdone": 3631,
      "Ġhorse": 3632,
      "ĠAut": 3633,
      "sts": 3634,
      "essional": 3635,
      "Ġoperator": 3636,
      "Ġallowing": 3637,
      "Ġdevelopers": 3638,
      "Ġattachments": 3639,
      "emory": 3640,
      "Ġdrivers": 3641,
      "According": 3642,
      "Ġvector": 3643,
      "ĠâĢ«": 3644,
      "ĠStack": 3645,
      "Ġvariable": 3646,
      "ĠURLs": 3647,
      "conf": 3648,
      "UR": 3649,
      "lib": 3650,
      "link": 3651,
      "rant": 3652,
      "Ġold": 3653,
      "Ġfive": 3654,
      "ĠSim": 3655,
      "chie": 3656,
      "Ġlooking": 3657,
      "Strike": 3658,
      "Ġcontroller": 3659,
      "WORD": 3660,
      "bu": 3661,
      "Ġann": 3662,
      "upal": 3663,
      "ĠOver": 3664,
      "Ġpatched": 3665,
      "Ġquickly": 3666,
      "ĠMcAfee": 3667,
      "Type": 3668,
      "ĠClient": 3669,
      "ĠBase": 3670,
      "Ġdrives": 3671,
      "Ġpresence": 3672,
      "YS": 3673,
      "ĠAp": 3674,
      "Ġexam": 3675,
      "Ġforum": 3676,
      "ĠFacebook": 3677,
      "ĠURI": 3678,
      "ĠESR": 3679,
      "rowdStrike": 3680,
      "66": 3681,
      "Ġachie": 3682,
      "ĠCozy": 3683,
      "ĠInv": 3684,
      "ĠGu": 3685,
      "Ġregard": 3686,
      "imately": 3687,
      "Ġfewer": 3688,
      "Ġconfirmed": 3689,
      "vious": 3690,
      "Ġet": 3691,
      "Ġmitig": 3692,
      "ĠWar": 3693,
      "Ġtrust": 3694,
      "gery": 3695,
      "Ġeasily": 3696,
      "Ġmajority": 3697,
      "aiwan": 3698,
      "ĠAPPLE": 3699,
      "ĠDis": 3700,
      "unction": 3701,
      "Ġcommunicate": 3702,
      "Ġpayloads": 3703,
      "ĠTun": 3704,
      "ĠTim": 3705,
      "ĠUnit": 3706,
      "Ġpolicy": 3707,
      "Ġcriminal": 3708,
      "ken": 3709,
      "Ġ>": 3710,
      "ret": 3711,
      "ision": 3712,
      "ulation": 3713,
      "Ġcome": 3714,
      "Ġpercent": 3715,
      "Ġuploaded": 3716,
      "ĠDrupal": 3717,
      "AB": 3718,
      "SQL": 3719,
      "middle": 3720,
      "ĠSn": 3721,
      "Ġforgery": 3722,
      "rael": 3723,
      "ĠVPN": 3724,
      "Ġusername": 3725,
      "CSRF": 3726,
      "YP": 3727,
      "Ġtook": 3728,
      "ĠMod": 3729,
      "ĠPh": 3730,
      "ĠGet": 3731,
      "ĠLib": 3732,
      "ĠVM": 3733,
      "selves": 3734,
      "Ġoccurre": 3735,
      "Ġtempor": 3736,
      "ĠTibetan": 3737,
      "Ġoil": 3738,
      "Ġdemand": 3739,
      "Ġfinal": 3740,
      "Ġupdated": 3741,
      "gether": 3742,
      "vent": 3743,
      "Ġsn": 3744,
      "sole": 3745,
      "ipe": 3746,
      "ĠAgent": 3747,
      "Ġdon": 3748,
      "lean": 3749,
      "Ġelement": 3750,
      "ĠOb": 3751,
      "Ġimplemented": 3752,
      "Ġvalidate": 3753,
      "azarus": 3754,
      "Soft": 3755,
      "orrect": 3756,
      "XX": 3757,
      "Ġcal": 3758,
      "anc": 3759,
      "ĠGreen": 3760,
      "Ġreporting": 3761,
      "Ġmean": 3762,
      "Figure": 3763,
      "Ġwater": 3764,
      "truct": 3765,
      "Ġstates": 3766,
      "ranch": 3767,
      "Ġclients": 3768,
      "Ġchanged": 3769,
      "ium": 3770,
      "Ġwild": 3771,
      "Ġtold": 3772,
      "ecially": 3773,
      "Ġnear": 3774,
      "Ġ65": 3775,
      "Ġinvalid": 3776,
      "Ġquite": 3777,
      "Ġbuilt": 3778,
      "75": 3779,
      "SO": 3780,
      "Ġwindow": 3781,
      "ĠCnC": 3782,
      "uble": 3783,
      "Ġcommonly": 3784,
      "Ġdisclosed": 3785,
      "Add": 3786,
      "td": 3787,
      "Ġtheft": 3788,
      "Ġcomes": 3789,
      "iguration": 3790,
      "otus": 3791,
      "Ġlate": 3792,
      "ĠRuntime": 3793,
      "ĠLazarus": 3794,
      "ĠExecut": 3795,
      "Ġcredit": 3796,
      "Ġexposed": 3797,
      "Energy": 3798,
      "admin": 3799,
      "Ġissued": 3800,
      "ĠSpec": 3801,
      "ĠAttacks": 3802,
      "ĠMessenger": 3803,
      "ULL": 3804,
      "Ġhuman": 3805,
      "Ġcannot": 3806,
      "...": 3807,
      "Ġcapable": 3808,
      "Ad": 3809,
      "En": 3810,
      "To": 3811,
      "inct": 3812,
      "Ġff": 3813,
      "roy": 3814,
      "ĠTiger": 3815,
      "Ġcomment": 3816,
      "andbox": 3817,
      "izes": 3818,
      "tmp": 3819,
      "Ġ26": 3820,
      "Ġ06": 3821,
      "Ġinstances": 3822,
      "Ġtas": 3823,
      "Ġsit": 3824,
      "Ġmy": 3825,
      "Ġrecomm": 3826,
      "ĠForm": 3827,
      "Ġgeneral": 3828,
      "ACK": 3829,
      "ĠDefense": 3830,
      "Ġ??": 3831,
      ");": 3832,
      "Log": 3833,
      "alf": 3834,
      "hem": 3835,
      "ĠPer": 3836,
      "pping": 3837,
      "ĠBE": 3838,
      "Ġthemselves": 3839,
      "struct": 3840,
      "Ġefforts": 3841,
      "lder": 3842,
      "ners": 3843,
      "vant": 3844,
      "ĠRet": 3845,
      "Ġproviding": 3846,
      "Player": 3847,
      "Ġâ": 3848,
      "Ġexecuting": 3849,
      "Ġproperty": 3850,
      "Ġadministrator": 3851,
      "Ġautomatically": 3852,
      "robat": 3853,
      "Press": 3854,
      "iation": 3855,
      "ming": 3856,
      "ĠMon": 3857,
      "ĠVB": 3858,
      "atively": 3859,
      "Ġflag": 3860,
      "76": 3861,
      "ience": 3862,
      "Ġwr": 3863,
      "ĠTaiwan": 3864,
      "Ġregular": 3865,
      "Ġkind": 3866,
      "Ġincrease": 3867,
      "ĠAnti": 3868,
      "ĠNATO": 3869,
      "vanced": 3870,
      "Ġinqu": 3871,
      "Ġput": 3872,
      "ĠSuite": 3873,
      "72": 3874,
      "ĠDigital": 3875,
      "Ġgoing": 3876,
      "Ġgood": 3877,
      "Ġlaunched": 3878,
      "Ġsurve": 3879,
      "Ġarchive": 3880,
      "ĠAcrobat": 3881,
      "Ġreconnaissance": 3882,
      "ony": 3883,
      "Ġhide": 3884,
      "Ġplan": 3885,
      "Ġreference": 3886,
      "Ġplatforms": 3887,
      "Ġhours": 3888,
      "Ġ@": 3889,
      "eder": 3890,
      "Ġbloc": 3891,
      "Ġexact": 3892,
      "Ġinfections": 3893,
      "Ġeconom": 3894,
      "dat": 3895,
      "iper": 3896,
      "ĠTable": 3897,
      "semb": 3898,
      "Ġrootkit": 3899,
      "entral": 3900,
      "Ġgovernments": 3901,
      "ĠApache": 3902,
      "Ġalthough": 3903,
      "Ġexisting": 3904,
      "byte": 3905,
      "84": 3906,
      "95": 3907,
      "ora": 3908,
      "Ġwhy": 3909,
      "sequ": 3910,
      "Ġregion": 3911,
      "ĠGeneral": 3912,
      "93": 3913,
      "Ġprop": 3914,
      "Ġalle": 3915,
      "Ġuna": 3916,
      "FS": 3917,
      "ĠSecure": 3918,
      "Ġ==": 3919,
      "ĠCopyright": 3920,
      "91": 3921,
      "ground": 3922,
      "ination": 3923,
      "reme": 3924,
      "ĠPar": 3925,
      "ĠPAN": 3926,
      "ĠNHS": 3927,
      "Ġnumerous": 3928,
      "Ġstatement": 3929,
      "Ġincreas": 3930,
      "ĠPowerShell": 3931,
      "Ġoccurred": 3932,
      "IA": 3933,
      "Tr": 3934,
      "View": 3935,
      "ton": 3936,
      "Ġhome": 3937,
      "ĠFramework": 3938,
      "Ġreading": 3939,
      "Ġdecryption": 3940,
      "Ġdistinct": 3941,
      "83": 3942,
      "unter": 3943,
      "ĠDri": 3944,
      "ĠList": 3945,
      "ĠRegin": 3946,
      "Ġfirmware": 3947,
      "Ġtogether": 3948,
      "ĠWork": 3949,
      "pport": 3950,
      "Ġlooks": 3951,
      "183": 3952,
      "Ġpurposes": 3953,
      "Ġestablish": 3954,
      "Ġmarket": 3955,
      "Ġverify": 3956,
      "OW": 3957,
      "Ġdest": 3958,
      "Ġattribute": 3959,
      "ĠDo": 3960,
      "ĠLog": 3961,
      "Ġ72": 3962,
      "Ġstrict": 3963,
      "Ġdefend": 3964,
      "Ġprovider": 3965,
      "Ġcustomer": 3966,
      "Ġespecially": 3967,
      "Ġrequires": 3968,
      "Ġparticularly": 3969,
      "ĠPANDA": 3970,
      "85": 3971,
      "HA": 3972,
      "Ġolder": 3973,
      "Ġpict": 3974,
      "ĠPart": 3975,
      "âĢĻ,": 3976,
      "ired": 3977,
      "Ġ--": 3978,
      "Ġorganis": 3979,
      "Ġknowledge": 3980,
      "Comm": 3981,
      "Ġbeginning": 3982,
      "ÑĤ": 3983,
      "ĠSm": 3984,
      "ĠCrowdStrike": 3985,
      "ĠPa": 3986,
      "ĠPack": 3987,
      "Ġener": 3988,
      "print": 3989,
      "Ġdistribution": 3990,
      "Ġfirewall": 3991,
      "ins": 3992,
      "Ġtot": 3993,
      "Ġhaving": 3994,
      "agic": 3995,
      "Ġattention": 3996,
      "Ġloop": 3997,
      "Ġopening": 3998,
      "Ġpoints": 3999,
      "Ġprint": 4000,
      "Ġfrequently": 4001,
      "Ġrelationship": 4002,
      "Ġcourse": 4003,
      "ĠPlugX": 4004,
      "iries": 4005,
      "lied": 4006,
      "ĠEast": 4007,
      "âĢĻ.": 4008,
      "Ġmodel": 4009,
      "Ġenergy": 4010,
      "Name": 4011,
      "Ġtit": 4012,
      "using": 4013,
      "ivity": 4014,
      "Ġincorrect": 4015,
      "ography": 4016,
      "Ġtraditional": 4017,
      "ĠIsrael": 4018,
      "ĠCarb": 4019,
      "Ġprompt": 4020,
      "Sh": 4021,
      "ening": 4022,
      "Ġdw": 4023,
      "0000": 4024,
      "Ġ80": 4025,
      "Ġhighlight": 4026,
      "Ġofficials": 4027,
      "Ġsequence": 4028,
      "ĠOutlook": 4029,
      "onymous": 4030,
      "olaris": 4031,
      "gn": 4032,
      "anel": 4033,
      "ĠHack": 4034,
      "Ġenable": 4035,
      "Ġemer": 4036,
      "Ġformer": 4037,
      "Ġopened": 4038,
      "ACE": 4039,
      "Ġwriting": 4040,
      "DB": 4041,
      "Ġur": 4042,
      "Ġcore": 4043,
      "Ġongoing": 4044,
      "isted": 4045,
      "ĠInternational": 4046,
      "Ġdocumented": 4047,
      "Ġflaws": 4048,
      "Server": 4049,
      "92": 4050,
      "ring": 4051,
      "Ġtaking": 4052,
      "Ġsym": 4053,
      "Ġhit": 4054,
      "ception": 4055,
      "ĠComputer": 4056,
      "Ġdownloads": 4057,
      "Ġsitu": 4058,
      "bs": 4059,
      "Ġpackage": 4060,
      "ĠWordPress": 4061,
      "wards": 4062,
      "Ġexperts": 4063,
      "Ġinquiries": 4064,
      "BI": 4065,
      "ĠMet": 4066,
      "ĠDro": 4067,
      "ĠBased": 4068,
      "cale": 4069,
      "Ġcollection": 4070,
      "Ġbelieved": 4071,
      "ĠCo": 4072,
      "ouse": 4073,
      "Ġmeas": 4074,
      "ĠCSCt": 4075,
      "OT": 4076,
      "oice": 4077,
      "Ġfall": 4078,
      "abor": 4079,
      "ĠICS": 4080,
      "Ġweak": 4081,
      "ĠOur": 4082,
      "Ġcreation": 4083,
      "osition": 4084,
      "espionage": 4085,
      "Ġregistration": 4086,
      "bitrary": 4087,
      "But": 4088,
      "ush": 4089,
      "ĠAccording": 4090,
      "thing": 4091,
      "ived": 4092,
      "otel": 4093,
      "Ġcontinued": 4094,
      "Ġleading": 4095,
      "Total": 4096,
      "],": 4097,
      "cf": 4098,
      "cp": 4099,
      "vy": 4100,
      "ecting": 4101,
      "Ġagencies": 4102,
      "airs": 4103,
      "62": 4104,
      "Ġmis": 4105,
      "Ġbeacon": 4106,
      "ĠPC": 4107,
      "Ġrecip": 4108,
      "ĠHeap": 4109,
      "ened": 4110,
      "ĠPub": 4111,
      "thon": 4112,
      "ĠArab": 4113,
      "Ġstealing": 4114,
      "gress": 4115,
      "ĠDel": 4116,
      "ĠFTP": 4117,
      "Ġinfo": 4118,
      "Ġidentity": 4119,
      "Ġentity": 4120,
      "Ġhandling": 4121,
      "ĠUSB": 4122,
      "Ġresolves": 4123,
      "ĠTunes": 4124,
      "ĠCT": 4125,
      "ĠCMS": 4126,
      "ĠDet": 4127,
      "elecom": 4128,
      "ĠName": 4129,
      "server": 4130,
      "ĠEuropean": 4131,
      "ca": 4132,
      "Ġvirus": 4133,
      "add": 4134,
      "Ġproced": 4135,
      "ĠEd": 4136,
      "Ġcommer": 4137,
      "onsored": 4138,
      "Ġcorrect": 4139,
      "Ġvendor": 4140,
      "ĠSyrian": 4141,
      "Ġinstitutions": 4142,
      "ĠEston": 4143,
      "\".": 4144,
      "UM": 4145,
      "def": 4146,
      "Ġ56": 4147,
      "Ġsetting": 4148,
      "Ġmanaged": 4149,
      "Ġhandler": 4150,
      "Ġperformed": 4151,
      "ĠAsia": 4152,
      "Ġfixed": 4153,
      "ĠMinistry": 4154,
      "Ð¾Ð": 4155,
      "yle": 4156,
      "Ġdynamic": 4157,
      "ĠPres": 4158,
      "Ġ74": 4159,
      "rojans": 4160,
      "Ġestablished": 4161,
      "Ġindustrial": 4162,
      "ĠCozyDuke": 4163,
      "DK": 4164,
      "LR": 4165,
      "System": 4166,
      "Ġcame": 4167,
      "Ġdig": 4168,
      "Ġdump": 4169,
      "Ġhidden": 4170,
      "ĠCampaign": 4171,
      "ĠIR": 4172,
      "ĠDocument": 4173,
      "eline": 4174,
      "Ġdestruct": 4175,
      "Ġprotected": 4176,
      "Ġhashes": 4177,
      "ĠBlackEnergy": 4178,
      "Ġbasic": 4179,
      "--": 4180,
      "oon": 4181,
      "security": 4182,
      "Ñģ": 4183,
      "ern": 4184,
      "Ġthink": 4185,
      "atter": 4186,
      "ĠSam": 4187,
      "imal": 4188,
      "Ġshut": 4189,
      "Ġsharing": 4190,
      "Ġdiss": 4191,
      "Ġdoesn": 4192,
      "ronic": 4193,
      "Ġobfuscation": 4194,
      "alse": 4195,
      "ĠMal": 4196,
      "ategy": 4197,
      "Ġalloc": 4198,
      "Ġstaff": 4199,
      "izing": 4200,
      "Ġthroughout": 4201,
      "ĠProduct": 4202,
      "Ġoffset": 4203,
      "Ġlonger": 4204,
      "ĠConfiguration": 4205,
      "Ġpractices": 4206,
      "Ġdebug": 4207,
      "Ġcorporate": 4208,
      "74": 4209,
      "IX": 4210,
      "cap": 4211,
      "mod": 4212,
      "ĠType": 4213,
      "ĠSO": 4214,
      "ully": 4215,
      "ĠCrypt": 4216,
      "stations": 4217,
      "Ġinjected": 4218,
      "Ġremains": 4219,
      "pace": 4220,
      "ython": 4221,
      "Ġpen": 4222,
      "Ġmass": 4223,
      "Ġalert": 4224,
      "Ġstop": 4225,
      "ipher": 4226,
      "CL": 4227,
      "Time": 4228,
      "Win": 4229,
      "osp": 4230,
      "Ġaim": 4231,
      "Ġthous": 4232,
      "reg": 4233,
      "ĠCri": 4234,
      "Ġstorage": 4235,
      "Ġenforce": 4236,
      "Ġheap": 4237,
      "Ġdrop": 4238,
      "prov": 4239,
      "ĠAdditionally": 4240,
      "Ġdiscussed": 4241,
      "Ġdamage": 4242,
      "Ġben": 4243,
      "Ġhold": 4244,
      "ĠPre": 4245,
      "Ġcompile": 4246,
      "Ġbackup": 4247,
      "Ġdeveloper": 4248,
      "ĠDDoS": 4249,
      "Ġtemporary": 4250,
      "Ġtotal": 4251,
      "acing": 4252,
      "âĢĵ": 4253,
      "2018": 4254,
      "Ġincom": 4255,
      "Ġsupported": 4256,
      "Ġcontinues": 4257,
      "ĠPeopleSoft": 4258,
      "Ġill": 4259,
      "ĠMedia": 4260,
      "ĠInstant": 4261,
      "ĠGer": 4262,
      "Ġmember": 4263,
      "Ġobfuscated": 4264,
      "82": 4265,
      "txt": 4266,
      "index": 4267,
      "undred": 4268,
      "Ġ02": 4269,
      "Ġsaved": 4270,
      "Ġproviders": 4271,
      "ĠEnvironment": 4272,
      "Ġsuspicious": 4273,
      "met": 4274,
      "Ġboot": 4275,
      "rows": 4276,
      "lying": 4277,
      "ereference": 4278,
      "aves": 4279,
      "ĠLabs": 4280,
      "Ġbody": 4281,
      "anna": 4282,
      "ulate": 4283,
      "ĠDownload": 4284,
      "ĠFurther": 4285,
      "Ġserious": 4286,
      "Ġ50": 4287,
      "Ġaccessing": 4288,
      "IM": 4289,
      "ION": 4290,
      "public": 4291,
      "ua": 4292,
      "vation": 4293,
      "Ġbig": 4294,
      "ĠSolaris": 4295,
      "Ġcomb": 4296,
      "Ġ55": 4297,
      "rypted": 4298,
      "Ġhealth": 4299,
      "Ġphysical": 4300,
      "su": 4301,
      "Ħ¢": 4302,
      "ĠAff": 4303,
      "idel": 4304,
      "ĠFirst": 4305,
      "Ġdecoded": 4306,
      "Service": 4307,
      "ĠNews": 4308,
      "vc": 4309,
      "orn": 4310,
      "unnel": 4311,
      "ĠIN": 4312,
      "Ġcontrols": 4313,
      "Ġdiscovery": 4314,
      "ĠAlthough": 4315,
      "Ġcounter": 4316,
      "Ġwidely": 4317,
      "aid": 4318,
      "iant": 4319,
      "arks": 4320,
      "iled": 4321,
      "ĠSC": 4322,
      "Ġ100": 4323,
      "Ġstatic": 4324,
      "Ġlot": 4325,
      "ipl": 4326,
      "ĠExploit": 4327,
      "Ġvendors": 4328,
      "Ġadvertise": 4329,
      "73": 4330,
      "Ġsix": 4331,
      "Ġworm": 4332,
      "Ġhop": 4333,
      "Ġusage": 4334,
      "ĠMost": 4335,
      "Ġlure": 4336,
      "Ġunc": 4337,
      "action": 4338,
      "Ġarbitrary": 4339,
      "Ġfields": 4340,
      "........": 4341,
      "Ġhistory": 4342,
      "Ġprofessional": 4343,
      "ufact": 4344,
      "Ġhook": 4345,
      "ĠOther": 4346,
      "ĠLo": 4347,
      "udi": 4348,
      "Ġsteps": 4349,
      "Ġcrime": 4350,
      "ĠRealPlayer": 4351,
      "OP": 4352,
      "wave": 4353,
      "estern": 4354,
      "rief": 4355,
      "ĠBusiness": 4356,
      "Ġdescription": 4357,
      "Ġquestion": 4358,
      "Ġincreased": 4359,
      "Ġvolume": 4360,
      "cat": 4361,
      "Ġsolutions": 4362,
      "itial": 4363,
      "icon": 4364,
      "ars": 4365,
      "ĠDomain": 4366,
      "ĠHere": 4367,
      "ĠBlog": 4368,
      "Ġlear": 4369,
      "Ġremove": 4370,
      "ĠShad": 4371,
      "ĠAlto": 4372,
      "Ġnormal": 4373,
      "Ġcompressed": 4374,
      "He": 4375,
      "ino": 4376,
      "Ġdereference": 4377,
      "ĠFore": 4378,
      "Ġinitially": 4379,
      "Ġattributed": 4380,
      "Ġretrieve": 4381,
      "Ġnecessary": 4382,
      "Ġtasks": 4383,
      "ĠCan": 4384,
      "Ġinstaller": 4385,
      "Ġmanip": 4386,
      "Ġenterprise": 4387,
      "sec": 4388,
      "Ġfully": 4389,
      "Ġconstruct": 4390,
      "Ġled": 4391,
      "Ġforward": 4392,
      "ĠKong": 4393,
      "Ġexecutables": 4394,
      "Ġjournal": 4395,
      "Ġloading": 4396,
      "lisher": 4397,
      "81": 4398,
      "94": 4399,
      "fs": 4400,
      "gi": 4401,
      "They": 4402,
      "illance": 4403,
      "akistan": 4404,
      "Ġremoved": 4405,
      "Ġposted": 4406,
      "Ġbanks": 4407,
      "PE": 4408,
      "map": 4409,
      "yn": 4410,
      "âĦ¢": 4411,
      "Ġtoo": 4412,
      "ĠAIR": 4413,
      "ĠBoth": 4414,
      "Ġenumer": 4415,
      "Ġ35": 4416,
      "ĠWhite": 4417,
      "ĠIncident": 4418,
      "DLL": 4419,
      "wide": 4420,
      "ï»": 4421,
      "Ġsectors": 4422,
      "Ġhundred": 4423,
      "ĠSi": 4424,
      "Ġgive": 4425,
      "ĠHong": 4426,
      "Ġunus": 4427,
      "http": 4428,
      "Ġdisabled": 4429,
      "Ġcluster": 4430,
      "Some": 4431,
      "Spy": 4432,
      "Ġsandbox": 4433,
      "Ġ69": 4434,
      "Ġkeylog": 4435,
      "Ġdrops": 4436,
      "Ġchecking": 4437,
      "ĠIntel": 4438,
      "Ġdescrib": 4439,
      "Ġpresented": 4440,
      "meric": 4441,
      "ĠMySQL": 4442,
      "Be": 4443,
      "Sc": 4444,
      "amer": 4445,
      "ĠNote": 4446,
      "Ġdelivery": 4447,
      "Ġleveraged": 4448,
      "ĠEnglish": 4449,
      "duced": 4450,
      "yc": 4451,
      "Ġdi": 4452,
      "Ġuntrusted": 4453,
      "Ġwebpage": 4454,
      "Inf": 4455,
      "controll": 4456,
      "Ġarticle": 4457,
      "Ġoverwrite": 4458,
      "Ġetc": 4459,
      "Cont": 4460,
      "eed": 4461,
      "Ġtoday": 4462,
      "ĠBu": 4463,
      "ĠGhost": 4464,
      "Ġidentical": 4465,
      "Ġinterests": 4466,
      "Ġsimilarities": 4467,
      "ĠAddress": 4468,
      "Ġelements": 4469,
      "Ġsomething": 4470,
      "Ġescal": 4471,
      "bc": 4472,
      "ane": 4473,
      "ĠSub": 4474,
      "ulated": 4475,
      "Ġcondition": 4476,
      "ĠLink": 4477,
      "Ġ08": 4478,
      "Ġconsistent": 4479,
      "ĠPoison": 4480,
      "chedul": 4481,
      "Ġoverlap": 4482,
      "provided": 4483,
      "annaCry": 4484,
      "MC": 4485,
      "Operation": 4486,
      "With": 4487,
      "boot": 4488,
      "haps": 4489,
      "Ġbetter": 4490,
      "Ġdang": 4491,
      "ĠCPU": 4492,
      "ĠAES": 4493,
      "Ġcombin": 4494,
      "ulnerabilities": 4495,
      "ights": 4496,
      "Ġheav": 4497,
      "Ġsafe": 4498,
      "ĠShare": 4499,
      "Ġshowing": 4500,
      "ĠDukes": 4501,
      "Ġheaders": 4502,
      "AG": 4503,
      "FI": 4504,
      "Run": 4505,
      "ients": 4506,
      "more": 4507,
      "level": 4508,
      "ĠSince": 4509,
      "Ġ04": 4510,
      "Ġfindings": 4511,
      "Ġtermin": 4512,
      "Ġreview": 4513,
      "Ġcateg": 4514,
      "itect": 4515,
      "Ġreverse": 4516,
      "Ġgame": 4517,
      "Ġprox": 4518,
      "space": 4519,
      "alleng": 4520,
      "ĠView": 4521,
      "Ġ//": 4522,
      "ĠAdministr": 4523,
      "Res": 4524,
      "Ġrecover": 4525,
      "sequently": 4526,
      "anda": 4527,
      "ĠEv": 4528,
      "Ġplay": 4529,
      "Ġlists": 4530,
      "Ġexpected": 4531,
      "Ġbanking": 4532,
      "By": 4533,
      "iDuke": 4534,
      "nit": 4535,
      "run": 4536,
      "Ġcybersecurity": 4537,
      "Ġfalse": 4538,
      "ĠSolutions": 4539,
      "ĠPakistan": 4540,
      "Ġattacked": 4541,
      "Ġdirectories": 4542,
      "Ġhacked": 4543,
      "ahoo": 4544,
      "Ġstatus": 4545,
      "Ġstrictions": 4546,
      "Ġcommercial": 4547,
      "DAT": 4548,
      "ITE": 4549,
      "hn": 4550,
      "pack": 4551,
      "Ġreco": 4552,
      "ĠSee": 4553,
      "Ġarea": 4554,
      "Ġbusinesses": 4555,
      "Ġsignatures": 4556,
      "Ġcopied": 4557,
      "Ġcircum": 4558,
      "ina": 4559,
      "ĠSec": 4560,
      "ĠMail": 4561,
      "uper": 4562,
      "utex": 4563,
      "Ġstrategy": 4564,
      "ĠThat": 4565,
      "Ġmanufact": 4566,
      "Ġcarry": 4567,
      "Ġstores": 4568,
      "Ġencounter": 4569,
      "Ġskill": 4570,
      "\",": 4571,
      "NC": 4572,
      "dependent": 4573,
      "han": 4574,
      "js": 4575,
      "Ġways": 4576,
      "Ġasp": 4577,
      "Ġinform": 4578,
      "Ġdeal": 4579,
      "Ġ42": 4580,
      "Ġcalling": 4581,
      "Ġresulting": 4582,
      "domain": 4583,
      "Ġcr": 4584,
      "Ġside": 4585,
      "Ġrend": 4586,
      "ung": 4587,
      "Ġconstant": 4588,
      "Ġbroad": 4589,
      "class": 4590,
      "Ġdisclosure": 4591,
      "Ġadvertisements": 4592,
      "raries": 4593,
      "ĠDatabase": 4594,
      "Ġprocessing": 4595,
      "Ġconsists": 4596,
      "iki": 4597,
      "Ġresolved": 4598,
      "Ġleaked": 4599,
      "itizen": 4600,
      "):": 4601,
      "atible": 4602,
      "Ġfigure": 4603,
      "ĠPoint": 4604,
      "liance": 4605,
      "assisted": 4606,
      "ĠExpress": 4607,
      "ĠState": 4608,
      "Ġprivately": 4609,
      "Ġsets": 4610,
      "Ġpassed": 4611,
      "Ġlarger": 4612,
      "Ġpatches": 4613,
      "Ġblocked": 4614,
      "Ġadversaries": 4615,
      "Ġguest": 4616,
      "Ġapparently": 4617,
      "User": 4618,
      "iting": 4619,
      "Ġpress": 4620,
      "pth": 4621,
      "Ġrespective": 4622,
      "ĠAdvanced": 4623,
      "Ġrelevant": 4624,
      "ĠContent": 4625,
      "Ġactively": 4626,
      "ĠSSH": 4627,
      "Ġcapture": 4628,
      "Ġcybercriminals": 4629,
      "Ġalleged": 4630,
      "Ġcol": 4631,
      "ĠWannaCry": 4632,
      "hish": 4633,
      "Ġ40": 4634,
      "Ġevol": 4635,
      "Ġoverflows": 4636,
      "Ġneeded": 4637,
      "Ġeasy": 4638,
      "Ġappropri": 4639,
      "Ġcopies": 4640,
      "Ġthousands": 4641,
      "Ġccount": 4642,
      "Ġclean": 4643,
      "Ġsure": 4644,
      "ĠSW": 4645,
      "heme": 4646,
      "ĠAV": 4647,
      "ĠAmeric": 4648,
      "ĠPost": 4649,
      "sport": 4650,
      "Ġsole": 4651,
      "ĠExchange": 4652,
      "Ġworks": 4653,
      "Ġtoolset": 4654,
      "Ġports": 4655,
      "Ġanalysts": 4656,
      "Ġwarning": 4657,
      "files": 4658,
      "De": 4659,
      "ift": 4660,
      "Ġstream": 4661,
      "Ġexploiting": 4662,
      "Ġtrue": 4663,
      "Ġrole": 4664,
      "Ġiniti": 4665,
      "Ġloads": 4666,
      "elling": 4667,
      "Ġcriminals": 4668,
      "Ġforens": 4669,
      "Ġsurveillance": 4670,
      "**": 4671,
      "Ġbill": 4672,
      "ĠMemory": 4673,
      "Ġlet": 4674,
      "Ġlab": 4675,
      "source": 4676,
      "Ġlogging": 4677,
      "Ġhostname": 4678,
      "Ġconnects": 4679,
      "Ġterminal": 4680,
      "Ġindustries": 4681,
      "ĠFiles": 4682,
      "Ġidentifier": 4683,
      "Ġcookie": 4684,
      "ĠVMware": 4685,
      "Ġcalc": 4686,
      "Web": 4687,
      "bor": 4688,
      "inite": 4689,
      "Ġcity": 4690,
      "Ġinser": 4691,
      "ĠClear": 4692,
      "Ġloss": 4693,
      "Ġrules": 4694,
      "Ġdisgu": 4695,
      "Ġinteger": 4696,
      "ĠProcess": 4697,
      "Ġattempted": 4698,
      "ĠAlso": 4699,
      "Ġidentifying": 4700,
      "ĠBitcoin": 4701,
      "ĠRetrie": 4702,
      "Ġillustr": 4703,
      "iplom": 4704,
      "down": 4705,
      "sw": 4706,
      "ĠFound": 4707,
      "spionage": 4708,
      "Ġ61": 4709,
      "Ġdisrupt": 4710,
      "Ġparts": 4711,
      "Ġphp": 4712,
      "Ġredu": 4713,
      "ĠInfrastructure": 4714,
      "ortunately": 4715,
      "ket": 4716,
      "Ġair": 4717,
      "install": 4718,
      "ĠCA": 4719,
      "ĠCore": 4720,
      "Ġonto": 4721,
      "Ġexamples": 4722,
      "ĠPr": 4723,
      "ĠHK": 4724,
      "iven": 4725,
      "Ġcallback": 4726,
      "Ġjob": 4727,
      "Ġstarting": 4728,
      "Ġremotely": 4729,
      "ĠVirusTotal": 4730,
      "ĠPublisher": 4731,
      "++": 4732,
      ":\"": 4733,
      "LO": 4734,
      "patch": 4735,
      "Ġge": 4736,
      "ĠWire": 4737,
      "trict": 4738,
      "ĠVirtual": 4739,
      "Ġprep": 4740,
      "Ġfirms": 4741,
      "ĠIPs": 4742,
      "ĠEnc": 4743,
      "ĠPlatform": 4744,
      "Ġutilized": 4745,
      "Ġconfirm": 4746,
      "ĠĠĠĠĠĠĠĠĠĠĠĠĠĠĠĠ": 4747,
      "news": 4748,
      "ĠGeorgia": 4749,
      "nk": 4750,
      "Ġpe": 4751,
      "Ġcontract": 4752,
      "ĠMobile": 4753,
      "Ġchalleng": 4754,
      "Ġ66": 4755,
      "urrenc": 4756,
      "Ġintro": 4757,
      "ullet": 4758,
      "Ġelse": 4759,
      "Ġreturned": 4760,
      "ĠEngine": 4761,
      "ĠTargeted": 4762,
      "Box": 4763,
      "NT": 4764,
      "blog": 4765,
      "sk": 4766,
      "ĠTor": 4767,
      "ateway": 4768,
      "chool": 4769,
      "ĠFeder": 4770,
      "ĠNov": 4771,
      "Ġtrusted": 4772,
      "Ġencoding": 4773,
      "Ġsupports": 4774,
      "Ġneeds": 4775,
      "ĠTimer": 4776,
      "Ġorganisations": 4777,
      "Ġide": 4778,
      "stage": 4779,
      "ĠMore": 4780,
      "Ġcompet": 4781,
      "ocr": 4782,
      "Ġrelatively": 4783,
      "Ġgoal": 4784,
      "Ġendpoint": 4785,
      "ĠUsing": 4786,
      "At": 4787,
      "atory": 4788,
      "itute": 4789,
      "ilities": 4790,
      "estingly": 4791,
      "ĠEspionage": 4792,
      "Ġotherwise": 4793,
      "Ġlegal": 4794,
      "Ġconnecting": 4795,
      "names": 4796,
      "Ġdisplayed": 4797,
      "ĠPalo": 4798,
      "Ġrecogn": 4799,
      "flow": 4800,
      "ma": 4801,
      "Ġnode": 4802,
      "Ġspam": 4803,
      "plete": 4804,
      "Ġsubs": 4805,
      "Ġpaths": 4806,
      "Ġadvis": 4807,
      "Ġterms": 4808,
      "Ġshares": 4809,
      "UT": 4810,
      "ters": 4811,
      "ale": 4812,
      "anet": 4813,
      "ifact": 4814,
      "ivil": 4815,
      "Ġpaid": 4816,
      "ĠQuick": 4817,
      "virus": 4818,
      "erc": 4819,
      "leg": 4820,
      "ĠSMB": 4821,
      "ĠGh": 4822,
      "Ġbitcoin": 4823,
      "ordin": 4824,
      "Ġmanually": 4825,
      "Ġdidn": 4826,
      "pa": 4827,
      "agent": 4828,
      "ĠPython": 4829,
      "ĠEas": 4830,
      "umb": 4831,
      "ĠUntrusted": 4832,
      "Ġtypical": 4833,
      "Ġrepresents": 4834,
      "Ġexfiltration": 4835,
      "Ġopposition": 4836,
      "Ġannoun": 4837,
      "ĠCrime": 4838,
      "II": 4839,
      "vest": 4840,
      "~~": 4841,
      "Ġded": 4842,
      "202": 4843,
      "ĠFl": 4844,
      "update": 4845,
      "Ġrang": 4846,
      "Ġtrain": 4847,
      "fully": 4848,
      "Ġmanage": 4849,
      "Ġcontinu": 4850,
      "ĠProtection": 4851,
      "Ġmovement": 4852,
      "Ġconsidered": 4853,
      "Ġtrying": 4854,
      "Ġwrites": 4855,
      "DD": 4856,
      "ST": 4857,
      "ties": 4858,
      "Ġtele": 4859,
      "Ġthus": 4860,
      "Ġfont": 4861,
      "ĠCybersecurity": 4862,
      "imum": 4863,
      "ches": 4864,
      "Ġtracking": 4865,
      "Ġnewly": 4866,
      "Ġintent": 4867,
      "ĠYou": 4868,
      "Ġperforms": 4869,
      "Ġrefl": 4870,
      "Ġweapon": 4871,
      "Ġswitch": 4872,
      "itty": 4873,
      "itness": 4874,
      "iced": 4875,
      "ĠIE": 4876,
      "ĠStart": 4877,
      "ĠRev": 4878,
      "Ġbecom": 4879,
      "Ġconcl": 4880,
      "ĠSettings": 4881,
      "Ġblocks": 4882,
      "idelis": 4883,
      "AME": 4884,
      "Dri": 4885,
      "ĠTele": 4886,
      "state": 4887,
      "ĠHel": 4888,
      "Ġunable": 4889,
      "Ġagency": 4890,
      "Ġgenerate": 4891,
      "Ġgenerally": 4892,
      "Ġinvolve": 4893,
      "Ġhttps": 4894,
      "Ġextracted": 4895,
      "Ġcarried": 4896,
      "Ġopens": 4897,
      "party": 4898,
      "Ġachieve": 4899,
      "ĠExecution": 4900,
      "crash": 4901,
      "Ġcodes": 4902,
      "enu": 4903,
      "Ġfund": 4904,
      "ĠST": 4905,
      "ĠSV": 4906,
      "ĠLtd": 4907,
      "raw": 4908,
      "Ġ03": 4909,
      "Ġfilter": 4910,
      "ĠAnother": 4911,
      "Ġkit": 4912,
      "Ġlargest": 4913,
      "Ġemployed": 4914,
      "attacks": 4915,
      "ĠPolicy": 4916,
      "Ġinstructions": 4917,
      "Ġcorresponding": 4918,
      "ĠScripting": 4919,
      "Command": 4920,
      "fly": 4921,
      "iny": 4922,
      "Ġsco": 4923,
      "ĠAir": 4924,
      "âĢĿ)": 4925,
      "phere": 4926,
      "Ġplain": 4927,
      "Ġscheme": 4928,
      "Ġtherefore": 4929,
      "msg": 4930,
      "Process": 4931,
      "Ġbegins": 4932,
      "Ġmatches": 4933,
      "Ġï¬ģle": 4934,
      "ĠVisual": 4935,
      "cmd": 4936,
      "Ġulnerabilities": 4937,
      "omp": 4938,
      "urora": 4939,
      "ĠIS": 4940,
      "ĠPass": 4941,
      "Ġenviron": 4942,
      "Ġ44": 4943,
      "Ġ2006": 4944,
      "Ġsomeone": 4945,
      "MI": 4946,
      "lation": 4947,
      "opt": 4948,
      "rv": 4949,
      "Ġmid": 4950,
      "unk": 4951,
      "ĠEach": 4952,
      "Ġdownloading": 4953,
      "Ġneg": 4954,
      "Ġindicating": 4955,
      "Ġfailure": 4956,
      "clus": 4957,
      "ï¿½ï¿½ï¿½ï¿½ï¿½ï¿½ï¿½ï¿½ï¿½ï¿½ï¿½ï¿½ï¿½ï¿½ï¿½ï¿½": 4958,
      "ĠSharePoint": 4959,
      "hanced": 4960,
      "ĠTime": 4961,
      "Ġgraph": 4962,
      "Ġcost": 4963,
      "everal": 4964,
      "Ġtravers": 4965,
      "Ġreferences": 4966,
      "Ġreturns": 4967,
      "au": 4968,
      "Ġer": 4969,
      "leep": 4970,
      "hel": 4971,
      "Ġgrow": 4972,
      "ĠEX": 4973,
      "ĠLong": 4974,
      "Ġsoon": 4975,
      "Ġparties": 4976,
      "fficient": 4977,
      "Ġphot": 4978,
      "Ġupdating": 4979,
      "ĠTrans": 4980,
      "ĠMSIE": 4981,
      "ĠSpecial": 4982,
      "Document": 4983,
      "IV": 4984,
      "aa": 4985,
      "dec": 4986,
      "ought": 4987,
      "vch": 4988,
      "Ġult": 4989,
      "rew": 4990,
      "Ġhalf": 4991,
      "2016": 4992,
      "ĠRE": 4993,
      "ĠRun": 4994,
      "ĠLotus": 4995,
      "ĠOperations": 4996,
      "Ġautomatic": 4997,
      "arter": 4998,
      "2009": 4999,
      "adata": 5000,
      "ĠFidelis": 5001,
      "ĠNo": 5002,
      "Ġoutl": 5003,
      "Ġattached": 5004,
      "atabases": 5005,
      "Ġextensive": 5006,
      "Ġclearly": 5007,
      "Ġshowed": 5008,
      "ĠCorpor": 5009,
      "Ġdetermined": 5010,
      "ĠCreate": 5011,
      "During": 5012,
      "junction": 5013,
      "Ġcmd": 5014,
      "Ġdom": 5015,
      "ĠIOC": 5016,
      "Ġforces": 5017,
      "ĠInstall": 5018,
      "ĠVersion": 5019,
      "ĠCheck": 5020,
      "Ġinstalls": 5021,
      "Ġartifact": 5022,
      "Ġmotivated": 5023,
      "ada": 5024,
      "ĠFr": 5025,
      "ĠInst": 5026,
      "Ġ2018": 5027,
      "Ġimages": 5028,
      "Ġ07": 5029,
      "Ġtran": 5030,
      "ifications": 5031,
      "Ġanyone": 5032,
      "ATH": 5033,
      "ĠiP": 5034,
      "Ġextensions": 5035,
      "ĠProtocol": 5036,
      "Ġarguments": 5037,
      "Ġpiece": 5038,
      "BT": 5039,
      "CT": 5040,
      "\\\\": 5041,
      "lass": 5042,
      "rd": 5043,
      "yd": 5044,
      "ĠCS": 5045,
      "ĠIOS": 5046,
      "Ġunlike": 5047,
      "Ġobvious": 5048,
      "ĠStage": 5049,
      "Ġadministration": 5050,
      "ĠArmy": 5051,
      "Ġdescribe": 5052,
      "Ġstudy": 5053,
      "ĠPresident": 5054,
      "Set": 5055,
      "UG": 5056,
      "aly": 5057,
      "Ġdr": 5058,
      "inger": 5059,
      "usions": 5060,
      "Ġever": 5061,
      "ĠSa": 5062,
      "ulas": 5063,
      "ĠIvy": 5064,
      "Ġlay": 5065,
      "Ġproceed": 5066,
      "chang": 5067,
      "ĠHost": 5068,
      "Ġrelies": 5069,
      "Ġdesktop": 5070,
      "Ġconfigur": 5071,
      "Ġsaw": 5072,
      "uclear": 5073,
      "Ġlibraries": 5074,
      "Ġsessions": 5075,
      "ĠCommunications": 5076,
      "Ġregarding": 5077,
      "Ġpropag": 5078,
      "ĠForeign": 5079,
      "Ġappropriate": 5080,
      "Ġenvironments": 5081,
      "509": 5082,
      "CU": 5083,
      "GO": 5084,
      "JRE": 5085,
      "Sp": 5086,
      "Work": 5087,
      "Ġbrief": 5088,
      "ĠMar": 5089,
      "ĠEnd": 5090,
      "ission": 5091,
      "Ġsometimes": 5092,
      "lishing": 5093,
      "Sky": 5094,
      "Ġdates": 5095,
      "Ġdatabases": 5096,
      "ĠFBI": 5097,
      "Ġrate": 5098,
      "ants": 5099,
      "Ġ70": 5100,
      "Ġparser": 5101,
      "Ġattempting": 5102,
      "Ġreferred": 5103,
      "Ġbreak": 5104,
      "Ġarchitect": 5105,
      "controlled": 5106,
      "bd": 5107,
      "cgi": 5108,
      "fl": 5109,
      "iï¬ģ": 5110,
      "pc": 5111,
      "ĠMany": 5112,
      "ĠUK": 5113,
      "ails": 5114,
      "osen": 5115,
      "Ġintercept": 5116,
      "Ġextreme": 5117,
      "ockwave": 5118,
      "control": 5119,
      "ĠAntivirus": 5120,
      "Ġimproper": 5121,
      "Ġwatering": 5122,
      "Ġeconomic": 5123,
      "Ġhundreds": 5124,
      "yond": 5125,
      "Ðº": 5126,
      "anak": 5127,
      "Ġconjunction": 5128,
      "Ġpred": 5129,
      "Ġagent": 5130,
      "ĠStorm": 5131,
      "Ġinvest": 5132,
      "Ġselected": 5133,
      "Ġtesting": 5134,
      "Ġdepending": 5135,
      "ĠScan": 5136,
      "Ġbelonging": 5137,
      "urrency": 5138,
      "\";": 5139,
      "uses": 5140,
      "Ġhxx": 5141,
      "ĠDWORD": 5142,
      "this": 5143,
      "ĠBl": 5144,
      "Ġra": 5145,
      "undle": 5146,
      "active": 5147,
      "osm": 5148,
      "ĠRATs": 5149,
      "Ġleverage": 5150,
      "Ġtradem": 5151,
      "ĠSednit": 5152,
      "Ġunclear": 5153,
      "Ġsolely": 5154,
      "NULL": 5155,
      "Us": 5156,
      "cpp": 5157,
      "dent": 5158,
      "Ġinsp": 5159,
      "Ġmutex": 5160,
      "Ġarray": 5161,
      "Ġoriginally": 5162,
      "Ġuploading": 5163,
      "Ġrestrictions": 5164,
      "ĠDragon": 5165,
      "ographic": 5166,
      "Ġpermission": 5167,
      "Ġspyware": 5168,
      "bounds": 5169,
      "Ġenforcement": 5170,
      "Ġcombination": 5171,
      "DR": 5172,
      "Russ": 5173,
      "path": 5174,
      "aming": 5175,
      "ster": 5176,
      "stro": 5177,
      "Ġ36": 5178,
      "Ġtechnologies": 5179,
      "Ġassist": 5180,
      "Ġbrowsing": 5181,
      "Ġmeaning": 5182,
      "ĠAffairs": 5183,
      "ulletin": 5184,
      "Current": 5185,
      "Fire": 5186,
      "Ob": 5187,
      "iom": 5188,
      "off": 5189,
      "Ġtax": 5190,
      "200": 5191,
      "ĠAx": 5192,
      "Ġexcept": 5193,
      "ollow": 5194,
      "ĠFri": 5195,
      "Ġstated": 5196,
      "Ġ38": 5197,
      "Ġdisable": 5198,
      "Ġindependent": 5199,
      "Ġuseful": 5200,
      "ĠHTTPS": 5201,
      "Ġexpress": 5202,
      "ADA": 5203,
      "Ġfilenames": 5204,
      "Ġelectronic": 5205,
      "Ġmeasures": 5206,
      "ĠProducts": 5207,
      "iety": 5208,
      "Ġtelecom": 5209,
      "orpor": 5210,
      "alent": 5211,
      "Ġmagic": 5212,
      "ĠEmail": 5213,
      "etworks": 5214,
      "ĠKe": 5215,
      "ĠProject": 5216,
      "ĠElect": 5217,
      "Ġunauthor": 5218,
      "ĠDriver": 5219,
      "MT": 5220,
      "eks": 5221,
      "icated": 5222,
      "ĠAm": 5223,
      "ades": 5224,
      "ĠFake": 5225,
      "Ġbecame": 5226,
      "Ġinterested": 5227,
      "Ġemployee": 5228,
      "Ġattributes": 5229,
      "Ġoccur": 5230,
      "ĠFinally": 5231,
      "Ġcontrolled": 5232,
      "visory": 5233,
      "Ġdestructive": 5234,
      "vchost": 5235,
      "mary": 5236,
      "oss": 5237,
      "Ġdaemon": 5238,
      "Ġwhite": 5239,
      "tra": 5240,
      "ĠEm": 5241,
      "Ġgoes": 5242,
      "Ġlogic": 5243,
      "158": 5244,
      "Ġentries": 5245,
      "ĠOrgan": 5246,
      "Ġfailed": 5247,
      "compatible": 5248,
      "ĠFormat": 5249,
      "Lab": 5250,
      "ao": 5251,
      "Ġsold": 5252,
      "Ġworth": 5253,
      "ĠCR": 5254,
      "ĠCob": 5255,
      "iff": 5256,
      "ĠOce": 5257,
      "Ġ60": 5258,
      "service": 5259,
      "peg": 5260,
      "Ġexpert": 5261,
      "Ġsequences": 5262,
      "ĠInvestig": 5263,
      "ĠSnake": 5264,
      "Ġunusual": 5265,
      "And": 5266,
      "bi": 5267,
      "daemon": 5268,
      "iber": 5269,
      "web": 5270,
      "ĠCy": 5271,
      "ĠCLR": 5272,
      "utes": 5273,
      "ĠMond": 5274,
      "Ġkeystro": 5275,
      "Ġassigned": 5276,
      "Ġrepe": 5277,
      "Ġreceives": 5278,
      "Ġsophistication": 5279,
      "Ġremovable": 5280,
      "Update": 5281,
      "Ġoptions": 5282,
      "ĠEstonia": 5283,
      "rowser": 5284,
      "Ġpush": 5285,
      "Ġtoken": 5286,
      "ĠAurora": 5287,
      "Ġexclus": 5288,
      "ĠDE": 5289,
      "ĠRace": 5290,
      "Ġuncovered": 5291,
      "Ġoverall": 5292,
      "Ġnewer": 5293,
      "Ġcompilation": 5294,
      "ĠAgency": 5295,
      "Ġredirected": 5296,
      "Ġlimit": 5297,
      "Ġscanning": 5298,
      "Ġunderstanding": 5299,
      "Ġclosely": 5300,
      "Ġmulti": 5301,
      "Ġpenetr": 5302,
      "iers": 5303,
      "uable": 5304,
      "ĉĉ": 5305,
      "Ġwid": 5306,
      "Ġder": 5307,
      "Ġmed": 5308,
      "Ġrely": 5309,
      "Ġreboot": 5310,
      "Ġhole": 5311,
      "ĠSample": 5312,
      "ĠCERT": 5313,
      "Ġlif": 5314,
      "Ġgr": 5315,
      "Ġ34": 5316,
      "Ġchosen": 5317,
      "ubbed": 5318,
      "Ġdecided": 5319,
      "ATION": 5320,
      "Ġmanner": 5321,
      "Ġsuggesting": 5322,
      "Ġsuspect": 5323,
      "where": 5324,
      "ĠPLC": 5325,
      "ranchulas": 5326,
      "ĠRetrieved": 5327,
      "Ġtraversal": 5328,
      "BE": 5329,
      "FX": 5330,
      "Ġblack": 5331,
      "ĠPatch": 5332,
      "ĠFal": 5333,
      "Ġstages": 5334,
      "ously": 5335,
      "umber": 5336,
      "apid": 5337,
      "Ġhandled": 5338,
      "Ġreportedly": 5339,
      "Ġsuspected": 5340,
      "Ġstrongly": 5341,
      "Ġscreenshots": 5342,
      "ĠTools": 5343,
      ",âĢĻ": 5344,
      "bb": 5345,
      "cyber": 5346,
      "ief": 5347,
      "pdf": 5348,
      "eting": 5349,
      "ĠTrojans": 5350,
      "ĠWorld": 5351,
      "ĠDB": 5352,
      "Ġweeks": 5353,
      "upload": 5354,
      "ĠWebS": 5355,
      "Ġstartup": 5356,
      "Ġreferenced": 5357,
      "Ġpersonnel": 5358,
      "ĠCompiled": 5359,
      "ĠJapanese": 5360,
      "DI": 5361,
      "Version": 5362,
      "hib": 5363,
      "anks": 5364,
      "nti": 5365,
      "Ġdifference": 5366,
      "Ġdecode": 5367,
      "Ġhandles": 5368,
      "ĠSof": 5369,
      "Ġuint": 5370,
      "Ġintranet": 5371,
      "Ġcharacteristics": 5372,
      "Ġeffectively": 5373,
      "Ġgathering": 5374,
      "rench": 5375,
      "Ġbenef": 5376,
      "))": 5377,
      "UI": 5378,
      "hole": 5379,
      "ining": 5380,
      "isher": 5381,
      "alk": 5382,
      "Ġnotice": 5383,
      "ĠGmail": 5384,
      "oose": 5385,
      "Ġperhaps": 5386,
      "Ġ2004": 5387,
      "Ġoffice": 5388,
      "Ġsecondary": 5389,
      "ooth": 5390,
      "Ġbreaches": 5391,
      "ĠAgain": 5392,
      "Ġbugs": 5393,
      "ĠPriv": 5394,
      "Ġpicture": 5395,
      "PL": 5396,
      "ror": 5397,
      "Ġ~": 5398,
      "Ġcent": 5399,
      "Ġreli": 5400,
      "ĠSign": 5401,
      "Ġones": 5402,
      "Ġanonymous": 5403,
      "ĠPay": 5404,
      "ĠRel": 5405,
      "ĠGlobal": 5406,
      "Ġcaused": 5407,
      "apter": 5408,
      "ĠIts": 5409,
      "Ġgeneric": 5410,
      "Ġmonit": 5411,
      "Ġowners": 5412,
      "Ġminutes": 5413,
      "device": 5414,
      "ĠImage": 5415,
      "Ġnearly": 5416,
      "Ġextremely": 5417,
      "Ġblob": 5418,
      "Ġmapp": 5419,
      "ections": 5420,
      "ĠWed": 5421,
      "ĠFF": 5422,
      "Ġserve": 5423,
      "ĠHacking": 5424,
      "Ġmostly": 5425,
      "Ġdecrypts": 5426,
      "Ġhistor": 5427,
      "Admin": 5428,
      "ĠSofacy": 5429,
      "Based": 5430,
      "fortunately": 5431,
      "Í¾": 5432,
      "inet": 5433,
      "isms": 5434,
      "Ġdiplom": 5435,
      "Ġhoo": 5436,
      "âĢĺ": 5437,
      "ifies": 5438,
      "Ġitem": 5439,
      "Ġconfidence": 5440,
      "Ġpartners": 5441,
      "espite": 5442,
      "which": 5443,
      "iliar": 5444,
      "Ġposition": 5445,
      "Connect": 5446,
      "Ġdescribes": 5447,
      "Attack": 5448,
      "BS": 5449,
      "Dr": 5450,
      "no": 5451,
      "alysis": 5452,
      "ĠTV": 5453,
      "Ġnuclear": 5454,
      "ĠHigh": 5455,
      "liest": 5456,
      "Ġactivists": 5457,
      "Ġgained": 5458,
      "ĠMiniDuke": 5459,
      "Ġreasons": 5460,
      "Ġwords": 5461,
      "ospital": 5462,
      "ĠEastern": 5463,
      "Im": 5464,
      "ha": 5465,
      "lance": 5466,
      "Ġviews": 5467,
      "ĠSoc": 5468,
      "ĠAv": 5469,
      "ĠPers": 5470,
      "ĠFusion": 5471,
      "Ġ43": 5472,
      "ĠStrike": 5473,
      "Ġinstalling": 5474,
      "TED": 5475,
      "TEM": 5476,
      "Ġcommunicates": 5477,
      "ĠOpera": 5478,
      "Ġclaimed": 5479,
      "Ġcompletely": 5480,
      "Get": 5481,
      "ders": 5482,
      "mon": 5483,
      "oor": 5484,
      "ered": 5485,
      "rest": 5486,
      "amoon": 5487,
      "Ġisn": 5488,
      "ĠPitty": 5489,
      "ĠUN": 5490,
      "anding": 5491,
      "ĠThen": 5492,
      "Ġago": 5493,
      "Ġpossibility": 5494,
      "ĠCommon": 5495,
      "ĠIDs": 5496,
      "FC": 5497,
      "call": 5498,
      "ple": 5499,
      "Ġtrend": 5500,
      "eries": 5501,
      "Ġenables": 5502,
      "Ġmodern": 5503,
      "Ġ75": 5504,
      "Ġproven": 5505,
      "111": 5506,
      "TPs": 5507,
      "Ġsubmitted": 5508,
      "Ġsupply": 5509,
      "Ġexpos": 5510,
      "Ġpointed": 5511,
      "Ġeduc": 5512,
      "Rec": 5513,
      "Ġslight": 5514,
      "Ġreload": 5515,
      "tee": 5516,
      "imic": 5517,
      "ĠWestern": 5518,
      "ĠFP": 5519,
      "Ġinflu": 5520,
      "Ġnotable": 5521,
      "raq": 5522,
      "ĠKn": 5523,
      "aterial": 5524,
      "Ġfeed": 5525,
      "Ġvisibility": 5526,
      "Comp": 5527,
      "ĠPowerPoint": 5528,
      "Ġvisitors": 5529,
      "Ġhijacking": 5530,
      "yberspace": 5531,
      "Ġbehavi": 5532,
      "Documents": 5533,
      "Ar": 5534,
      "DS": 5535,
      "FO": 5536,
      "UN": 5537,
      "fc": 5538,
      "mark": 5539,
      "pg": 5540,
      "uk": 5541,
      "Ġq": 5542,
      "Ġtunnel": 5543,
      "aler": 5544,
      "etary": 5545,
      "ĠHat": 5546,
      "ĠHang": 5547,
      "Ġ46": 5548,
      "Ġpublication": 5549,
      "Ġsaf": 5550,
      "ĠWhat": 5551,
      "Ġoffers": 5552,
      "Ġseconds": 5553,
      "Ġeffect": 5554,
      "ĠDefence": 5555,
      "Ġharvest": 5556,
      "ĠFoundation": 5557,
      "Cyber": 5558,
      "HITE": 5559,
      "Man": 5560,
      "aver": 5561,
      "ng": 5562,
      "new": 5563,
      "Ø§": 5564,
      "inder": 5565,
      "Ġprivacy": 5566,
      "ĠShockwave": 5567,
      "xxxx": 5568,
      "Ġhelps": 5569,
      "Ġutility": 5570,
      "Ġfrequ": 5571,
      "Ġexfiltrate": 5572,
      "ĠAtl": 5573,
      "ĠPLA": 5574,
      "ĠRTF": 5575,
      "Ġheavily": 5576,
      "Ġscope": 5577,
      "From": 5578,
      "Se": 5579,
      "Sy": 5580,
      "Str": 5581,
      "munic": 5582,
      "Ġpipe": 5583,
      "Ġdial": 5584,
      "urage": 5585,
      "Ġlight": 5586,
      "oli": 5587,
      "ĠNa": 5588,
      "Ġris": 5589,
      "ĠLast": 5590,
      "Ġspok": 5591,
      "Ġ09": 5592,
      "168": 5593,
      "oviet": 5594,
      "uesday": 5595,
      "error": 5596,
      "Ġquestions": 5597,
      "Ġtested": 5598,
      "Ġimplants": 5599,
      "ietnam": 5600,
      "ycle": 5601,
      "415": 5602,
      "Security": 5603,
      "cut": 5604,
      "des": 5605,
      "mers": 5606,
      "ny": 5607,
      "post": 5608,
      "Ġschedul": 5609,
      "Ġing": 5610,
      "alle": 5611,
      "ioned": 5612,
      "rote": 5613,
      "Ġhim": 5614,
      "Ġadapt": 5615,
      "ĠVPS": 5616,
      "ĠServers": 5617,
      "Ġmetadata": 5618,
      "Ġreceiving": 5619,
      "Ġstealth": 5620,
      "Read": 5621,
      "Ġmechanisms": 5622,
      "Ġdedicated": 5623,
      "Ġartifacts": 5624,
      "ïº": 5625,
      "Ġaud": 5626,
      "Ġcc": 5627,
      "atur": 5628,
      "Ġwip": 5629,
      "ecause": 5630,
      "ĠCustom": 5631,
      "abling": 5632,
      "Ġserved": 5633,
      "istent": 5634,
      "Ġadding": 5635,
      "Ġemb": 5636,
      "order": 5637,
      "Ġ53": 5638,
      "Ġ89": 5639,
      "Ġimperson": 5640,
      "Ġvaluable": 5641,
      "Ġreads": 5642,
      "Ġinvestigations": 5643,
      "shake": 5644,
      "ools": 5645,
      "atsApp": 5646,
      "Ġreduce": 5647,
      "EY": 5648,
      "Ġcivil": 5649,
      "ĠTranchulas": 5650,
      "agram": 5651,
      "ĠFA": 5652,
      "002": 5653,
      "115": 5654,
      "ĠEnhanced": 5655,
      "Ġgeneration": 5656,
      "Ġinsight": 5657,
      "Ġtimeline": 5658,
      "ynamics": 5659,
      "ankba": 5660,
      "ĠCorruption": 5661,
      "SPACE": 5662,
      "ACKSPACE": 5663,
      "sequent": 5664,
      "hai": 5665,
      "lit": 5666,
      "Ġmaterial": 5667,
      "ĠCoun": 5668,
      "Ġbeyond": 5669,
      "ectual": 5670,
      "ctl": 5671,
      "Ġcompar": 5672,
      "ĠOf": 5673,
      "avel": 5674,
      "Ġaccur": 5675,
      "ĠVietnam": 5676,
      "Ġ47": 5677,
      "Ġdouble": 5678,
      "ĠChr": 5679,
      "Ġ73": 5680,
      "ĠRepublic": 5681,
      "Ġmanager": 5682,
      "Ġgenerates": 5683,
      "afe": 5684,
      "mission": 5685,
      "Ġworldwide": 5686,
      "Ġteams": 5687,
      "Ġgives": 5688,
      "Ġsignificantly": 5689,
      "Ġretrieved": 5690,
      "Ġawareness": 5691,
      "Ġequip": 5692,
      "ĠMonday": 5693,
      "\"\"": 5694,
      "Fisher": 5695,
      "LM": 5696,
      "var": 5697,
      "Ġclos": 5698,
      "ĠTimes": 5699,
      "ĠSHA": 5700,
      "ĠCN": 5701,
      "llectual": 5702,
      "Ġnothing": 5703,
      "ender": 5704,
      "lip": 5705,
      "phone": 5706,
      "Ġ48": 5707,
      "plate": 5708,
      "lude": 5709,
      "Ġaccessible": 5710,
      "ĠRequest": 5711,
      "Ġworkstations": 5712,
      "erospace": 5713,
      "Ġbelieves": 5714,
      "Ġexfiltrated": 5715,
      "vision": 5716,
      "ĠLibrary": 5717,
      "Ġtitle": 5718,
      "ĠAxiom": 5719,
      "Bu": 5720,
      "many": 5721,
      "Ġscale": 5722,
      "oring": 5723,
      "Ġwiper": 5724,
      "arm": 5725,
      "iltr": 5726,
      "ĠTwo": 5727,
      "ĠTuesday": 5728,
      "ĠSDK": 5729,
      "âĢ¦": 5730,
      "olid": 5731,
      "Ġaler": 5732,
      "Ġdoing": 5733,
      "Ġcompromises": 5734,
      "Ġaffili": 5735,
      "Ġlisting": 5736,
      "Ġkill": 5737,
      "ĠAdvisory": 5738,
      "ĠShamoon": 5739,
      "ING": 5740,
      "Ġfamiliar": 5741,
      "ĠFinSpy": 5742,
      "Ġmacros": 5743,
      "ĠPortal": 5744,
      "YSTEM": 5745,
      "chestr": 5746,
      "Ġunauthorized": 5747,
      "List": 5748,
      "Our": 5749,
      "ini": 5750,
      "ename": 5751,
      "Ġbatch": 5752,
      "Ġfair": 5753,
      "ompress": 5754,
      "ĠSk": 5755,
      "ĠCE": 5756,
      "ĠCentral": 5757,
      "igher": 5758,
      "Ġgas": 5759,
      "Ġapply": 5760,
      "ĠUnified": 5761,
      "Ġ2005": 5762,
      "Ġproperties": 5763,
      "Ġperforming": 5764,
      "shark": 5765,
      "Ġreplaced": 5766,
      "Ġinteraction": 5767,
      "Ġgreater": 5768,
      "Ġpieces": 5769,
      "Ġincreasingly": 5770,
      "ĠSmart": 5771,
      "Ġsituation": 5772,
      "Ġdigit": 5773,
      "ĠCobalt": 5774,
      "Ġsafety": 5775,
      ".)": 5776,
      "xC": 5777,
      "zip": 5778,
      "Ġï¿½": 5779,
      "Ġfinger": 5780,
      "ĠMos": 5781,
      "Ġgets": 5782,
      "ĠDynamics": 5783,
      "Ġinfiltr": 5784,
      "Ġagree": 5785,
      "Ġcorrupt": 5786,
      "Ġjournalists": 5787,
      "Ġdangerous": 5788,
      "Ġforensic": 5789,
      "OD": 5790,
      "cd": 5791,
      "oke": 5792,
      "Ġess": 5793,
      "Ġtries": 5794,
      "Ġinquire": 5795,
      "ĠTiv": 5796,
      "Ġ37": 5797,
      "Ġprec": 5798,
      "ops": 5799,
      "Ġtheme": 5800,
      "ĠIPv": 5801,
      "Ġexpect": 5802,
      "Ġassum": 5803,
      "ĠRestrict": 5804,
      "Ġinfecting": 5805,
      "ĠBelow": 5806,
      "ĠAuto": 5807,
      "BR": 5808,
      "Virus": 5809,
      "base": 5810,
      "bour": 5811,
      "Ġbad": 5812,
      "asc": 5813,
      "ĠAN": 5814,
      "ĠEven": 5815,
      "phos": 5816,
      "ĠAny": 5817,
      "ĠArbor": 5818,
      "Key": 5819,
      "NK": 5820,
      "care": 5821,
      "Ġcipher": 5822,
      "Ġdubbed": 5823,
      "ĠAT": 5824,
      "ĠFIN": 5825,
      "ĠBel": 5826,
      "Ġshot": 5827,
      "Inter": 5828,
      "velop": 5829,
      "Ġacquire": 5830,
      "Ġphase": 5831,
      "Ġlargely": 5832,
      "Ġcleartext": 5833,
      "ĠSyria": 5834,
      "Ġmassive": 5835,
      "Ġadvisory": 5836,
      "ĠISIS": 5837,
      "CH": 5838,
      "Dec": 5839,
      "Ġ}": 5840,
      "research": 5841,
      "Ġsl": 5842,
      "Ġsys": 5843,
      "Ġwait": 5844,
      "Ġwrote": 5845,
      "Ġnodes": 5846,
      "Ġ(âĢľ": 5847,
      "Ġcoming": 5848,
      "Ġareas": 5849,
      "Ġseg": 5850,
      "Ġwhole": 5851,
      "Ġintellectual": 5852,
      "uck": 5853,
      "Ġsmart": 5854,
      "Ġrouter": 5855,
      "Ġ**": 5856,
      "ĠFinFisher": 5857,
      "ROJ": 5858,
      "Ġrecipient": 5859,
      "ĠWireshark": 5860,
      "ĠSaudi": 5861,
      "ĠWebSphere": 5862,
      "ĠTivoli": 5863,
      "507": 5864,
      "AK": 5865,
      "zz": 5866,
      "Ġshe": 5867,
      "Ġmist": 5868,
      "ĠAb": 5869,
      "Ġ(.": 5870,
      "Ġconsole": 5871,
      "ols": 5872,
      "Ġnotification": 5873,
      "Ġrare": 5874,
      "emocr": 5875,
      "Ġ57": 5876,
      "Ġdecl": 5877,
      "Ġsocket": 5878,
      "Ġterm": 5879,
      "xxx": 5880,
      "Ġanalyze": 5881,
      "Ġfails": 5882,
      "Ġtimestamps": 5883,
      "Ġdefenders": 5884,
      "/.": 5885,
      "DN": 5886,
      "sa": 5887,
      "Ġtwe": 5888,
      "Ġvary": 5889,
      "ament": 5890,
      "ĠAuthor": 5891,
      "oder": 5892,
      "atell": 5893,
      "Ġrule": 5894,
      "Ġcoordin": 5895,
      "ionally": 5896,
      "Ġplaced": 5897,
      "ĠProf": 5898,
      "Ġoffensive": 5899,
      "Ġsevere": 5900,
      "prot": 5901,
      "Ġcontacted": 5902,
      "Ġpurch": 5903,
      "ikit": 5904,
      "missary": 5905,
      "Another": 5906,
      "ĠNovell": 5907,
      "ĠGeorgian": 5908,
      "ĠCorporation": 5909,
      "Ġtrademarks": 5910,
      "ollowing": 5911,
      "'re": 5912,
      "Ber": 5913,
      "reet": 5914,
      "Ġmap": 5915,
      "ĠSMS": 5916,
      "ĠSoviet": 5917,
      "ĠAtt": 5918,
      "ĠIdent": 5919,
      "ĠEnergy": 5920,
      "Ġstay": 5921,
      "ĠStore": 5922,
      "Ġdefined": 5923,
      "ribution": 5924,
      "Ġparticip": 5925,
      "ESHE": 5926,
      "ĠRegistr": 5927,
      "Ġexplained": 5928,
      "oodle": 5929,
      "Ġconfigurations": 5930,
      "ĠEndpoint": 5931,
      "Ġequipment": 5932,
      "332": 5933,
      "ae": 5934,
      "Ġthought": 5935,
      "Ġflow": 5936,
      "Ġrecovered": 5937,
      "Ġexit": 5938,
      "Ġcompared": 5939,
      "ĠNext": 5940,
      "ĠGateway": 5941,
      "Ġ41": 5942,
      "Ġtoolkit": 5943,
      "Ġdefence": 5944,
      "Ġhandshake": 5945,
      "Ġsecret": 5946,
      "Ġpolice": 5947,
      "Program": 5948,
      "Ġautomated": 5949,
      "ĠTurla": 5950,
      "ĠPawn": 5951,
      "Ġkeylogger": 5952,
      "Ġescalation": 5953,
      "Ġultimately": 5954,
      "</": 5955,
      "AA": 5956,
      "BB": 5957,
      "Fin": 5958,
      "SM": 5959,
      "cow": 5960,
      "nes": 5961,
      "ĠCer": 5962,
      "ĠCent": 5963,
      "Ġansw": 5964,
      "olit": 5965,
      "ession": 5966,
      "ĠDoc": 5967,
      "andiant": 5968,
      "Ġdifferences": 5969,
      "TEMP": 5970,
      "Ġsubsequent": 5971,
      "ifying": 5972,
      "Ġindicator": 5973,
      "Ġregistrant": 5974,
      "ĠAsian": 5975,
      "Ġconducting": 5976,
      "Ġclicks": 5977,
      "Ġchannels": 5978,
      "ĠMiddleware": 5979,
      "Ġspeak": 5980,
      "ĠModule": 5981,
      "ĠCarbanak": 5982,
      "GET": 5983,
      "ximately": 5984,
      "enior": 5985,
      "Ġhigher": 5986,
      "Ġnations": 5987,
      "ĠUAE": 5988,
      "That": 5989,
      "Ġsearches": 5990,
      "Ġlateral": 5991,
      "Ġbuilding": 5992,
      "Ġreplace": 5993,
      "ĠLoad": 5994,
      "Ġunlikely": 5995,
      "DC": 5996,
      "Ġaudio": 5997,
      "Ġthings": 5998,
      "isc": 5999,
      "Ġmicro": 6000,
      "eter": 6001,
      "ĠCal": 6002,
      "ĠCons": 6003,
      "ĠColl": 6004,
      "ĠCosm": 6005,
      "ama": 6006,
      "ĠMe": 6007,
      "pty": 6008,
      "ĠWi": 6009,
      "andard": 6010,
      "ĠEmissary": 6011,
      "ocx": 6012,
      "exp": 6013,
      "ĠVictim": 6014,
      "Ġlocally": 6015,
      "ĠAPIs": 6016,
      "Although": 6017,
      "ĠSimilar": 6018,
      "cape": 6019,
      "Fi": 6020,
      "LC": 6021,
      "Secure": 6022,
      "fix": 6023,
      "hotel": 6024,
      "ians": 6025,
      "Ġicon": 6026,
      "ĠSil": 6027,
      "Ġcond": 6028,
      "Ġconvers": 6029,
      "Ġexchange": 6030,
      "Ġstri": 6031,
      "Ġlost": 6032,
      "undll": 6033,
      "actions": 6034,
      "Ġdoz": 6035,
      "anghai": 6036,
      "Ġ88": 6037,
      "Ġpars": 6038,
      "ĠZero": 6039,
      "Ġedit": 6040,
      "ĠRecord": 6041,
      "Ġtraining": 6042,
      "364": 6043,
      "Over": 6044,
      "Pass": 6045,
      "rop": 6046,
      "Ġmatter": 6047,
      "Ġnor": 6048,
      "ĠMo": 6049,
      "Ġstory": 6050,
      "ĠLD": 6051,
      "ĠLike": 6052,
      "ips": 6053,
      "Ġ443": 6054,
      "Ġevade": 6055,
      "Ġindicated": 6056,
      "Ġmeant": 6057,
      "Ġleverages": 6058,
      "ijing": 6059,
      "Ġleads": 6060,
      "uros": 6061,
      "Ġimprove": 6062,
      "ĠMonitor": 6063,
      "Ġprocedures": 6064,
      ".âĢĻ": 6065,
      "OL": 6066,
      "gency": 6067,
      "with": 6068,
      "Ġvi": 6069,
      "Ġreally": 6070,
      "ĠTR": 6071,
      "ĠCitizen": 6072,
      "utin": 6073,
      "ĠEdition": 6074,
      "uge": 6075,
      "temp": 6076,
      "Ġnoticed": 6077,
      "ĠBACKSPACE": 6078,
      "ĠLux": 6079,
      "Ġspot": 6080,
      "ude": 6081,
      "ported": 6082,
      "Ġdecompress": 6083,
      "127": 6084,
      "ĠWhatsApp": 6085,
      "Ġqueries": 6086,
      "Ġerrors": 6087,
      "prietary": 6088,
      "Ġarchitecture": 6089,
      "500": 6090,
      "IL": 6091,
      "NE": 6092,
      "dc": 6093,
      "nection": 6094,
      "Ġtro": 6095,
      "erus": 6096,
      "Ġsave": 6097,
      "Ġbar": 6098,
      "Ġpip": 6099,
      "oman": 6100,
      "abar": 6101,
      "2017": 6102,
      "Ġaltern": 6103,
      "Ġapplied": 6104,
      "know": 6105,
      "102": 6106,
      "Ġoutage": 6107,
      "ĠPlay": 6108,
      "Ġhardware": 6109,
      "Ġleaders": 6110,
      "HOIS": 6111,
      "Ġforums": 6112,
      "1000": 6113,
      "TL": 6114,
      "hone": 6115,
      "Ġthing": 6116,
      "ams": 6117,
      "uron": 6118,
      "Ġexception": 6119,
      "Ġorchestr": 6120,
      "ĠPanel": 6121,
      "lick": 6122,
      "ryption": 6123,
      "Ġoverview": 6124,
      "ĠUnic": 6125,
      "ĠStudio": 6126,
      "Ġworked": 6127,
      "ART": 6128,
      "Ġowned": 6129,
      "Ġstructures": 6130,
      "Ġfixes": 6131,
      "Ġauthorities": 6132,
      "Ġtactic": 6133,
      "Ġrandomly": 6134,
      "Ġprojects": 6135,
      "ĠDarkhotel": 6136,
      "Ġscams": 6137,
      "DATA": 6138,
      "''": 6139,
      "Ind": 6140,
      "Not": 6141,
      "sl": 6142,
      "Ġtied": 6143,
      "rec": 6144,
      "reh": 6145,
      "Ġhex": 6146,
      "ĠCall": 6147,
      "iding": 6148,
      "adem": 6149,
      "ĠPublic": 6150,
      "ĠRAR": 6151,
      "ĠFrench": 6152,
      "ureau": 6153,
      "ĠBas": 6154,
      "Ġlogon": 6155,
      "conom": 6156,
      "ĠWinnti": 6157,
      "Ġpolitically": 6158,
      "Ġdeletes": 6159,
      "ĠAnaly": 6160,
      "Ġcybercrime": 6161,
      "config": 6162,
      "Ġrecommend": 6163,
      "ĠLuxem": 6164,
      "da": 6165,
      "fr": 6166,
      "pos": 6167,
      "Ġcyberspace": 6168,
      "Ġsuper": 6169,
      "asploit": 6170,
      "ĠTYP": 6171,
      "ĠSource": 6172,
      "Ġisol": 6173,
      "ĠUP": 6174,
      "ĠOP": 6175,
      "Ġ68": 6176,
      "Ġfolders": 6177,
      "Ġcommunicating": 6178,
      "process": 6179,
      "Ġexistence": 6180,
      "Reg": 6181,
      "Ġspreads": 6182,
      "Other": 6183,
      "bug": 6184,
      "Ġaway": 6185,
      "inary": 6186,
      "Ġsort": 6187,
      "Ġwindows": 6188,
      "ĠSearch": 6189,
      "ĠCC": 6190,
      "iring": 6191,
      "ĠEconom": 6192,
      "Ġ63": 6193,
      "Ġindepend": 6194,
      "Ġparsing": 6195,
      "Ġinterpre": 6196,
      "Ġdroppers": 6197,
      "mails": 6198,
      "ĠArt": 6199,
      "ikon": 6200,
      "Ġdeployment": 6201,
      "ĠESET": 6202,
      "Ġrestart": 6203,
      "Ġhope": 6204,
      "Ġinvolvement": 6205,
      "Ġtransport": 6206,
      "ĠAgainst": 6207,
      "Ġrisks": 6208,
      "Ġfingerprint": 6209,
      "erusbi": 6210,
      "RT": 6211,
      "Ġbound": 6212,
      "Ġdll": 6213,
      "ĠTask": 6214,
      "Ġlines": 6215,
      "licit": 6216,
      "anted": 6217,
      "endar": 6218,
      "Ġdecoding": 6219,
      "Ġsetup": 6220,
      "ĠWho": 6221,
      "Ġmainly": 6222,
      "256": 6223,
      "ĠYahoo": 6224,
      "Ġinvestigating": 6225,
      "Ġresponses": 6226,
      "Ġexperience": 6227,
      "Ġtracked": 6228,
      "Ġfraudul": 6229,
      "ĠDesktop": 6230,
      "ĠCarbon": 6231,
      "ĠGermany": 6232,
      "ĠLinked": 6233,
      "FILE": 6234,
      "Ġdialog": 6235,
      "EB": 6236,
      "OON": 6237,
      "Ġtw": 6238,
      "Ġcenter": 6239,
      "Ġcamer": 6240,
      "also": 6241,
      "ara": 6242,
      "ĠMoodle": 6243,
      "ĠWHOIS": 6244,
      "Ġserves": 6245,
      "ĠBear": 6246,
      "ploys": 6247,
      "ĠKill": 6248,
      "ube": 6249,
      "Ġupgr": 6250,
      "Ġ2000": 6251,
      "ĠUnion": 6252,
      "api": 6253,
      "Ġremed": 6254,
      "Ġindication": 6255,
      "Ġforms": 6256,
      "encrypted": 6257,
      "ĠShim": 6258,
      "ĠShanghai": 6259,
      "IND": 6260,
      "Ġspearphishing": 6261,
      "ĠTechnologies": 6262,
      "ĠInterestingly": 6263,
      "Ġpatterns": 6264,
      "Ġexactly": 6265,
      "ĠGhostNet": 6266,
      "Ġderived": 6267,
      "bourg": 6268,
      "ĠLuxembourg": 6269,
      "Main": 6270,
      "Sec": 6271,
      "bus": 6272,
      "Ġmount": 6273,
      "lements": 6274,
      "uts": 6275,
      "Ġgot": 6276,
      "aily": 6277,
      "pload": 6278,
      "ension": 6279,
      "tracting": 6280,
      "depth": 6281,
      "Ġamounts": 6282,
      "Ġkeystrokes": 6283,
      "ĠRestricted": 6284,
      "Back": 6285,
      "mes": 6286,
      "Ġptr": 6287,
      "Ġ()": 6288,
      "Ġconver": 6289,
      "Ġlayer": 6290,
      "Ġnotes": 6291,
      "Ġ05": 6292,
      "Ġdoor": 6293,
      "Ġ2002": 6294,
      "ATE": 6295,
      "114": 6296,
      "Ġbuy": 6297,
      "Ġrepos": 6298,
      "Ġinitialization": 6299,
      "Ġrestricted": 6300,
      "IRT": 6301,
      "Ġmillions": 6302,
      "ĠNetW": 6303,
      "Ġproblems": 6304,
      "Ġphysically": 6305,
      "Ġweapons": 6306,
      "Ġencountered": 6307,
      "Ġdomest": 6308,
      "ĠMoscow": 6309,
      "Note": 6310,
      "Or": 6311,
      "Sim": 6312,
      "itel": 6313,
      "Ġware": 6314,
      "icles": 6315,
      "Ġmax": 6316,
      "Ġher": 6317,
      "ĠTer": 6318,
      "ĠSony": 6319,
      "Ġgrant": 6320,
      "Ġsponsored": 6321,
      "Ġseven": 6322,
      "ĠJun": 6323,
      "Ġplaces": 6324,
      "Ġ->": 6325,
      "Ġ90": 6326,
      "Ġ99": 6327,
      "What": 6328,
      "Ġpresents": 6329,
      "Ġminor": 6330,
      "Ġrouters": 6331,
      "Ġcomplet": 6332,
      "Ġoccurs": 6333,
      "Ġintrusions": 6334,
      "content": 6335,
      "ĠObject": 6336,
      "ĠAdministration": 6337,
      "Ġlabel": 6338,
      "ĠTYPO": 6339,
      "Both": 6340,
      "Fil": 6341,
      "Mail": 6342,
      "Rem": 6343,
      "core": 6344,
      "fa": 6345,
      "from": 6346,
      "Ġsolution": 6347,
      "iling": 6348,
      "ented": 6349,
      "ĠTLS": 6350,
      "heap": 6351,
      "station": 6352,
      "Ġasking": 6353,
      "ĠRDP": 6354,
      "Ġrad": 6355,
      "sponsored": 6356,
      "Ġ67": 6357,
      "Ġcyberespionage": 6358,
      "Ġbackground": 6359,
      "Ġdesp": 6360,
      "Ġcompromising": 6361,
      "prising": 6362,
      "ĠOnline": 6363,
      "Ġcollects": 6364,
      "Ġcollabor": 6365,
      "ĠYork": 6366,
      "Ġbrowsers": 6367,
      "Ġanalyzing": 6368,
      "Ġtriggered": 6369,
      "roburos": 6370,
      "Ġincreasing": 6371,
      "CERT": 6372,
      "Le": 6373,
      "Ġcache": 6374,
      "Ġsan": 6375,
      "eta": 6376,
      "ĠTel": 6377,
      "Ġlive": 6378,
      "older": 6379,
      "Ġiter": 6380,
      "ĠEye": 6381,
      "Ġrapid": 6382,
      "Ġcoinc": 6383,
      "Ġmodular": 6384,
      "Ġevolution": 6385,
      "Ġpaying": 6386,
      "123": 6387,
      "Ġdeveloping": 6388,
      "ological": 6389,
      "aspx": 6390,
      "Ġvisible": 6391,
      ".......": 6392,
      "stantial": 6393,
      "Ġspoofed": 6394,
      "Ġtrusts": 6395,
      "ancy": 6396,
      "paper": 6397,
      "Ġfairly": 6398,
      "DF": 6399,
      "Malware": 6400,
      "NG": 6401,
      "Since": 6402,
      "UP": 6403,
      "gov": 6404,
      "win": 6405,
      "Ð»": 6406,
      "Ġtail": 6407,
      "Ġow": 6408,
      "Ġinn": 6409,
      "Ġbox": 6410,
      "ula": 6411,
      "ĠUDP": 6412,
      "ĠHikit": 6413,
      "ĠNGO": 6414,
      "Ġincl": 6415,
      "ĠJS": 6416,
      "plays": 6417,
      "Ġ83": 6418,
      "Ġclassified": 6419,
      "Ġopportun": 6420,
      "Ġmaintains": 6421,
      "IFT": 6422,
      "Ġbrute": 6423,
      "Ġfront": 6424,
      "Ġcombined": 6425,
      "Ġdespite": 6426,
      "Last": 6427,
      "Tools": 6428,
      "oper": 6429,
      "ossib": 6430,
      "Ġties": 6431,
      "ality": 6432,
      "Ġtowards": 6433,
      "ĠSIS": 6434,
      "Ġalter": 6435,
      "ĠEMC": 6436,
      "ĠHave": 6437,
      "Ġ39": 6438,
      "Ġempty": 6439,
      "pha": 6440,
      "ĠKernel": 6441,
      "Ġtraces": 6442,
      "Ġaccesses": 6443,
      "ansomware": 6444,
      "Ġfinding": 6445,
      "Ġprotocols": 6446,
      "ĠBeijing": 6447,
      "itizens": 6448,
      "Drive": 6449,
      "orporated": 6450,
      "Ġrepeated": 6451,
      "AV": 6452,
      "ck": 6453,
      "late": 6454,
      "oul": 6455,
      "reate": 6456,
      "head": 6457,
      "ĠDist": 6458,
      "Ġcoup": 6459,
      "Ġdisco": 6460,
      "Ġreset": 6461,
      "Ġsupposed": 6462,
      "Ġelection": 6463,
      "Ġchanging": 6464,
      "Ġselect": 6465,
      "Ġvisiting": 6466,
      "Ġelevation": 6467,
      "ĠIsraeli": 6468,
      "Ġsymlink": 6469,
      "ĠCrimea": 6470,
      "ĠHangover": 6471,
      "munications": 6472,
      "See": 6473,
      "cs": 6474,
      "fd": 6475,
      "hand": 6476,
      "main": 6477,
      "Ġtcp": 6478,
      "Ġsink": 6479,
      "amb": 6480,
      "ĠAuthentic": 6481,
      "Ġasked": 6482,
      "ĠThrough": 6483,
      "Ġanalys": 6484,
      "Ġkeyboard": 6485,
      "Ġnaming": 6486,
      "Ġrequested": 6487,
      "ĠForce": 6488,
      "Ġaffects": 6489,
      "Ġdistribute": 6490,
      "Ġsociety": 6491,
      "ĠPDB": 6492,
      "Ġmodifying": 6493,
      "ĠStep": 6494,
      "Ġtags": 6495,
      "pported": 6496,
      "ĠCanada": 6497,
      "ĠBuild": 6498,
      "ĠNaikon": 6499,
      "My": 6500,
      "WS": 6501,
      "duc": 6502,
      "sen": 6503,
      "Ġtion": 6504,
      "Ġwent": 6505,
      "ĠTC": 6506,
      "ĠTom": 6507,
      "ĠTroy": 6508,
      "heast": 6509,
      "url": 6510,
      "owers": 6511,
      "ailable": 6512,
      "ĠBud": 6513,
      "umably": 6514,
      "emens": 6515,
      "Ġcausing": 6516,
      "usters": 6517,
      "string": 6518,
      "ĠSophos": 6519,
      "Ġcertainly": 6520,
      "Ġinvestigated": 6521,
      "Ġclicking": 6522,
      "Ġbasis": 6523,
      "EXE": 6524,
      "Ġobserve": 6525,
      "Ġincoming": 6526,
      "ĠInstitute": 6527,
      "Ġslightly": 6528,
      "Ġscheduled": 6529,
      "rehensive": 6530,
      "PRO": 6531,
      "group": 6532,
      "xml": 6533,
      "Ġmind": 6534,
      "ĠShe": 6535,
      "util": 6536,
      "ĠMark": 6537,
      "Ġserial": 6538,
      "Ġruntime": 6539,
      "idents": 6540,
      "ĠChar": 6541,
      "Ġnetworking": 6542,
      "ĠRead": 6543,
      "1398": 6544,
      "INFO": 6545,
      "Ġinitialize": 6546,
      "SCII": 6547,
      "ĠUpon": 6548,
      "Ġdetections": 6549,
      "Ġlevels": 6550,
      "Ġcryptoc": 6551,
      "ĠGuard": 6552,
      "Ġdestination": 6553,
      "Ġrespectively": 6554,
      "ĠCEO": 6555,
      "ASA": 6556,
      "Bot": 6557,
      "DO": 6558,
      "Is": 6559,
      "WHITE": 6560,
      "client": 6561,
      "rb": 6562,
      "isions": 6563,
      "ĠCO": 6564,
      "Ġalign": 6565,
      "ppet": 6566,
      "Ġads": 6567,
      "ccount": 6568,
      "ĠLook": 6569,
      "ĠKit": 6570,
      "otels": 6571,
      "107": 6572,
      "Ġprotest": 6573,
      "ĠFirewall": 6574,
      "ĠConsole": 6575,
      "ĠDirector": 6576,
      "ĠComprom": 6577,
      "Ġapproximately": 6578,
      "ocket": 6579,
      "ĠDeploy": 6580,
      "Additionally": 6581,
      "Ġaspects": 6582,
      "Ġrendering": 6583,
      "Ġhxxp": 6584,
      "ĠShimRat": 6585,
      "Core": 6586,
      "First": 6587,
      "LF": 6588,
      "Ġï": 6589,
      "Ġil": 6590,
      "enk": 6591,
      "asing": 6592,
      "rix": 6593,
      "ĠUroburos": 6594,
      "ĠBureau": 6595,
      "Ġadds": 6596,
      "Ġappl": 6597,
      "Ġ49": 6598,
      "enses": 6599,
      "Ġarmed": 6600,
      "Ġdirected": 6601,
      "Ġdirector": 6602,
      "Ġthemes": 6603,
      "prises": 6604,
      "Ġpackages": 6605,
      "ĠDLLs": 6606,
      "Ġportion": 6607,
      "ĠConnect": 6608,
      "Ġwarrant": 6609,
      "Ġ192": 6610,
      "ĠCompany": 6611,
      "Ġeverything": 6612,
      "ĠTargets": 6613,
      "ĠAssoc": 6614,
      "Ġregularly": 6615,
      "ĠSams": 6616,
      "Ġmanufactur": 6617,
      "Ġannounced": 6618,
      "ĠFriday": 6619,
      "ĠAtlant": 6620,
      "Ġessential": 6621,
      "CE": 6622,
      "Lib": 6623,
      "center": 6624,
      "ev": 6625,
      "hat": 6626,
      "jax": 6627,
      "ql": 6628,
      "Ĥ¬": 6629,
      "ĪĴ": 6630,
      "Ġtell": 6631,
      "Ġsell": 6632,
      "Ġwave": 6633,
      "ason": 6634,
      "ashing": 6635,
      "Ġhang": 6636,
      "ĠSeveral": 6637,
      "ĠMach": 6638,
      "Ġletter": 6639,
      "ĠPanda": 6640,
      "ĠRPC": 6641,
      "ĠUSA": 6642,
      "ĠEC": 6643,
      "Ġunw": 6644,
      "ternally": 6645,
      "Ġmodifications": 6646,
      "login": 6647,
      "Ġplug": 6648,
      "Ġoffline": 6649,
      "Ġthreads": 6650,
      "Ġprocedure": 6651,
      "Ġhealthcare": 6652,
      "Users": 6653,
      "ĠNetWitness": 6654,
      "Act": 6655,
      "BAN": 6656,
      "BUG": 6657,
      "More": 6658,
      "gif": 6659,
      "ze": 6660,
      "Ġcitizens": 6661,
      "Ġflo": 6662,
      "Ġfri": 6663,
      "Ġframe": 6664,
      "Ġmoved": 6665,
      "access": 6666,
      "loss": 6667,
      "Ġheld": 6668,
      "ĠSame": 6669,
      "amily": 6670,
      "ĠIRC": 6671,
      "stances": 6672,
      "Ġcomments": 6673,
      "oting": 6674,
      "ĠDuke": 6675,
      "spec": 6676,
      "ĠKing": 6677,
      "OCK": 6678,
      "Ġremaining": 6679,
      "Ġconsistently": 6680,
      "Ġcookies": 6681,
      "HTTP": 6682,
      "PEG": 6683,
      "ĠSiemens": 6684,
      "IVY": 6685,
      "ĠSocial": 6686,
      "Ġdomestic": 6687,
      "217": 6688,
      "Id": 6689,
      "lim": 6690,
      "Ġaerospace": 6691,
      "Ġcat": 6692,
      "Ġsections": 6693,
      "Ġsenior": 6694,
      "ĠAf": 6695,
      "ĠPS": 6696,
      "ĠRights": 6697,
      "ĠBabar": 6698,
      "Ġdeg": 6699,
      "assy": 6700,
      "Ġdisables": 6701,
      "Ġdisplays": 6702,
      "Ġabuse": 6703,
      "ideos": 6704,
      "101": 6705,
      "Thread": 6706,
      "Ġresulted": 6707,
      "Ġearliest": 6708,
      "Ġcontrollers": 6709,
      "Ġcards": 6710,
      "ĠCloudDuke": 6711,
      "Ġallegedly": 6712,
      "Ġranges": 6713,
      "ĠFakeM": 6714,
      "Labs": 6715,
      "Ġinfluence": 6716,
      "VM": 6717,
      "can": 6718,
      "cast": 6719,
      "sy": 6720,
      "Ġsatell": 6721,
      "alo": 6722,
      "ĠTue": 6723,
      "heet": 6724,
      "Ġconsequ": 6725,
      "Ġexerc": 6726,
      "Ġprofiles": 6727,
      "ĠPe": 6728,
      "Ġsto": 6729,
      "Ġdev": 6730,
      "Ġsuffer": 6731,
      "Ġposs": 6732,
      "Ġprefer": 6733,
      "uby": 6734,
      "Ġmodification": 6735,
      "Ġarri": 6736,
      "Ġlocate": 6737,
      "icket": 6738,
      "Ġexported": 6739,
      "Control": 6740,
      "Ġdisguised": 6741,
      "Russian": 6742,
      "Ġfraudulent": 6743,
      "Form": 6744,
      "North": 6745,
      "PR": 6746,
      "Path": 6747,
      "cb": 6748,
      "Ġmaster": 6749,
      "odec": 6750,
      "Ġproof": 6751,
      "ĠEar": 6752,
      "Ġcontribut": 6753,
      "ĠNET": 6754,
      "Ġunre": 6755,
      "Ġunit": 6756,
      "Ġchoice": 6757,
      "ĠKim": 6758,
      "Ġ52": 6759,
      "Ġ500": 6760,
      "oop": 6761,
      "Ġgoals": 6762,
      "ished": 6763,
      "Ġacqu": 6764,
      "Ġproduction": 6765,
      "ĠYet": 6766,
      "ĠCyberattack": 6767,
      "Ġtransactions": 6768,
      "Ġposts": 6769,
      "Start": 6770,
      "Ġremained": 6771,
      "includ": 6772,
      "ĠRegistry": 6773,
      "ursday": 6774,
      "Ġmission": 6775,
      "Ġbillion": 6776,
      "ĠiPhone": 6777,
      "SyS": 6778,
      "ĠFAQ": 6779,
      "AF": 6780,
      "Disk": 6781,
      "QU": 6782,
      "fb": 6783,
      "have": 6784,
      "Ġcur": 6785,
      "Ġflex": 6786,
      "Ġmas": 6787,
      "etta": 6788,
      "ĠPCC": 6789,
      "ĠDest": 6790,
      "Ġcommit": 6791,
      "liances": 6792,
      "Ġappended": 6793,
      "Ġ79": 6794,
      "255": 6795,
      "Ġassume": 6796,
      "Ġunderground": 6797,
      "ĠIndust": 6798,
      "profile": 6799,
      "gypt": 6800,
      "roller": 6801,
      "Ġlookup": 6802,
      "Ġgiving": 6803,
      "incip": 6804,
      "duce": 6805,
      "Ġpractice": 6806,
      "Ġmissing": 6807,
      "Ġcollecting": 6808,
      "Ġentirely": 6809,
      "build": 6810,
      "Ġrecipients": 6811,
      "ĠSecond": 6812,
      "Ġconditions": 6813,
      "Cloud": 6814,
      "SB": 6815,
      "dr": 6816,
      "malware": 6817,
      "Ñĥ": 6818,
      "Ġ!": 6819,
      "Ġri": 6820,
      "Ġten": 6821,
      "Ġcentral": 6822,
      "Ġpanel": 6823,
      "etected": 6824,
      "Ġhy": 6825,
      "Ġconcept": 6826,
      "stan": 6827,
      "ĠWater": 6828,
      "Ġalone": 6829,
      "Ġmalvert": 6830,
      "ĠHidden": 6831,
      "rapper": 6832,
      "Ġseed": 6833,
      "Ġcharg": 6834,
      "ĠJust": 6835,
      "Ġ51": 6836,
      "Ġfilesystem": 6837,
      "Ġinstant": 6838,
      "outheast": 6839,
      "ĠXt": 6840,
      "Ġinstallations": 6841,
      "Ġcustomized": 6842,
      "Ġpolic": 6843,
      "ĠSupp": 6844,
      "Ġoffered": 6845,
      "Ġincomplete": 6846,
      "Ġproxies": 6847,
      "ĠAmerican": 6848,
      "Ġgrowing": 6849,
      "Ġexclusively": 6850,
      "Ġreliable": 6851,
      "nesday": 6852,
      "ĠCentre": 6853,
      "0158": 6854,
      "Me": 6855,
      "Most": 6856,
      "aus": 6857,
      "cr": 6858,
      "tl": 6859,
      "Ġtain": 6860,
      "Ġsleep": 6861,
      "ĠTTPs": 6862,
      "ĠSize": 6863,
      "ĠCOM": 6864,
      "oday": 6865,
      "ĠMain": 6866,
      "ĠMandiant": 6867,
      "Ġaren": 6868,
      "Ġnotified": 6869,
      "ĠNULL": 6870,
      "licate": 6871,
      "Ġpoor": 6872,
      "aked": 6873,
      "ĠThursday": 6874,
      "Ġimplements": 6875,
      "Ġplans": 6876,
      "Ġaddressed": 6877,
      "Ġperp": 6878,
      "648": 6879,
      "Ġsender": 6880,
      "Ġexpand": 6881,
      "Ġassets": 6882,
      "ARBAN": 6883,
      "Ġsupporting": 6884,
      "named": 6885,
      "Ġrequirements": 6886,
      "Ġexperi": 6887,
      "ĠScar": 6888,
      "Ġmovie": 6889,
      "Ġ>>": 6890,
      "ĠBlue": 6891,
      "ARBANAK": 6892,
      "400": 6893,
      "CN": 6894,
      "Lotus": 6895,
      "Mod": 6896,
      "operation": 6897,
      "Ġschool": 6898,
      "asion": 6899,
      "ĠTop": 6900,
      "ĠSIP": 6901,
      "ĠASCII": 6902,
      "stat": 6903,
      "Ġattr": 6904,
      "ĠPIVY": 6905,
      "Ġcomprehensive": 6906,
      "ĠEqu": 6907,
      "ĠEgypt": 6908,
      "ĠBan": 6909,
      "Ġdecision": 6910,
      "ritical": 6911,
      "Ġque": 6912,
      "ĠCommit": 6913,
      "ĠCommission": 6914,
      "Ġfinally": 6915,
      "Ġchecked": 6916,
      "Ġeventually": 6917,
      "Ġbotnets": 6918,
      "ĠAutom": 6919,
      "Ġcommented": 6920,
      "ĠCryptography": 6921,
      "ĠQuickTime": 6922,
      "Ġlife": 6923,
      "Ġinclusion": 6924,
      "ĠSamsung": 6925,
      "Fig": 6926,
      "Here": 6927,
      "MM": 6928,
      "Tem": 6929,
      "target": 6930,
      "Ã©": 6931,
      "Ġtried": 6932,
      "Ġce": 6933,
      "Ġwire": 6934,
      "veiling": 6935,
      "Ġcontr": 6936,
      "otes": 6937,
      "oles": 6938,
      "VER": 6939,
      "mentioned": 6940,
      "ĠGMT": 6941,
      "Ġchild": 6942,
      "Ġchief": 6943,
      "Ġcaut": 6944,
      "Ġoperates": 6945,
      "ĠChain": 6946,
      "avig": 6947,
      "Ġanything": 6948,
      "Ġsigning": 6949,
      "Ġsubdomain": 6950,
      "Ġprogramming": 6951,
      "encoded": 6952,
      "Ġclusters": 6953,
      "Ġengaged": 6954,
      "Ġcontacts": 6955,
      "Ġvalidation": 6956,
      "Ġfactors": 6957,
      "Ġbreached": 6958,
      "Software": 6959,
      "Ġstrategies": 6960,
      "Ġbuilder": 6961,
      "Ġcompression": 6962,
      "Ratankba": 6963,
      "ĠBEAR": 6964,
      "ĠViewer": 6965,
      "Ġviol": 6966,
      "==": 6967,
      "Ukrain": 6968,
      "master": 6969,
      "rar": 6970,
      "ĠSoutheast": 6971,
      "Ġnc": 6972,
      "amed": 6973,
      "verage": 6974,
      "start": 6975,
      "Ġask": 6976,
      "ĠBah": 6977,
      "Ġ61398": 6978,
      "ĠVer": 6979,
      "ĠVideo": 6980,
      "Ġabs": 6981,
      "Ġregional": 6982,
      "Ġorganized": 6983,
      "Ġhighest": 6984,
      "IDE": 6985,
      "Ġrecorded": 6986,
      "ĠSpace": 6987,
      "ITTER": 6988,
      "ĠDevice": 6989,
      "Ġsomew": 6990,
      "Ġrefers": 6991,
      "Ġcaptured": 6992,
      "Ġturned": 6993,
      "Ġcarefully": 6994,
      "Ġprofessionals": 6995,
      "ĠWednesday": 6996,
      "Ġdiplomatic": 6997,
      "Ġprovenance": 6998,
      "Ġindependently": 6999,
      "senal": 7000,
      "218": 7001,
      "CO": 7002,
      "SE": 7003,
      "TO": 7004,
      "direct": 7005,
      "jpg": 7006,
      "kut": 7007,
      "Ġip": 7008,
      "Ġsw": 7009,
      "aling": 7010,
      "Ġmom": 7011,
      "acot": 7012,
      "Ġvideos": 7013,
      "Ġhp": 7014,
      "ĠWindow": 7015,
      "ĠDon": 7016,
      "ĠGiven": 7017,
      "Ġcauses": 7018,
      "come": 7019,
      "ensions": 7020,
      "ĠThus": 7021,
      "ĠUnveiling": 7022,
      "apest": 7023,
      "Ġimpress": 7024,
      "Ġeval": 7025,
      "ĠStorage": 7026,
      "Ġsimpl": 7027,
      "Ġencrypts": 7028,
      "Ġconsult": 7029,
      "ĠAdapt": 7030,
      "erracot": 7031,
      "shop": 7032,
      "CPU": 7033,
      "ĠTrue": 7034,
      "Ġmarked": 7035,
      "Ġtemplate": 7036,
      "USER": 7037,
      "Info": 7038,
      "Research": 7039,
      "ĠClearSky": 7040,
      "Ġbecomes": 7041,
      "ydraq": 7042,
      "ĠCosmic": 7043,
      "erracotta": 7044,
      "Further": 7045,
      "iy": 7046,
      "sm": 7047,
      "script": 7048,
      "Ġdb": 7049,
      "anLotus": 7050,
      "âĢ«": 7051,
      "Ġconference": 7052,
      "idering": 7053,
      "ĠRo": 7054,
      "raz": 7055,
      "oked": 7056,
      "Ġaffecting": 7057,
      "Ġinvolves": 7058,
      "Ġinvestigate": 7059,
      "Ġobjectives": 7060,
      "Ġtiming": 7061,
      "Ġpatching": 7062,
      "Ġroutines": 7063,
      "ĠFilter": 7064,
      "ĠSCADA": 7065,
      "Ġlearn": 7066,
      "Ġintroduced": 7067,
      "ĠFalcon": 7068,
      "Manager": 7069,
      "FR": 7070,
      "Qu": 7071,
      "br": 7072,
      "vention": 7073,
      "ä¸": 7074,
      "Ġsvchost": 7075,
      "itle": 7076,
      "Ġbook": 7077,
      "Ġpan": 7078,
      "Ġpse": 7079,
      "Ġdiv": 7080,
      "ĠSM": 7081,
      "ĠMax": 7082,
      "ĠDAT": 7083,
      "ĠDynamic": 7084,
      "ĠBank": 7085,
      "ĠGrid": 7086,
      "ached": 7087,
      "Ġaggress": 7088,
      "Ġacknow": 7089,
      "Ġestim": 7090,
      "Ġsmaller": 7091,
      "ilipp": 7092,
      "Ġinstruction": 7093,
      "ĠCommunication": 7094,
      "ĠPaper": 7095,
      "Ġrelationships": 7096,
      "Ġcircumstances": 7097,
      "ĠFederation": 7098,
      "ĠRegistrant": 7099,
      "ĠBasic": 7100,
      "ossible": 7101,
      "ĠBudapest": 7102,
      "lossom": 7103,
      "CM": 7104,
      "Lo": 7105,
      "bl": 7106,
      "book": 7107,
      "gener": 7108,
      "jsp": 7109,
      "lers": 7110,
      "initial": 7111,
      "rem": 7112,
      "Ġresemb": 7113,
      "ĠSAP": 7114,
      "âĢ¢": 7115,
      "urp": 7116,
      "Ġconsequently": 7117,
      "Ġgang": 7118,
      "ĠWest": 7119,
      "ĠOrigin": 7120,
      "ĠLive": 7121,
      "plore": 7122,
      "udo": 7123,
      "place": 7124,
      "Ġidentification": 7125,
      "Ġresolution": 7126,
      "Ġdefin": 7127,
      "Ġdeface": 7128,
      "ĠFinancial": 7129,
      "ASE": 7130,
      "Ġdepend": 7131,
      "Ġenterprises": 7132,
      "common": 7133,
      "sembly": 7134,
      "Ġaimed": 7135,
      "ĠFurthermore": 7136,
      "ĠShadows": 7137,
      "ĠNovetta": 7138,
      "FireEye": 7139,
      "Ġcryptocurrency": 7140,
      "300": 7141,
      "HK": 7142,
      "awn": 7143,
      "jRAT": 7144,
      "pages": 7145,
      "ste": 7146,
      "sub": 7147,
      "Ġslow": 7148,
      "itory": 7149,
      "Ġeight": 7150,
      "ĠCARBANAK": 7151,
      "ained": 7152,
      "Ġexports": 7153,
      "agn": 7154,
      "Ġsuc": 7155,
      "allery": 7156,
      "Ġdisruption": 7157,
      "Ġdece": 7158,
      "Ġpayments": 7159,
      "Ġkits": 7160,
      "Ġmethodology": 7161,
      "Ġtransmitted": 7162,
      "Ġdetects": 7163,
      "ĠPowerRatankba": 7164,
      "Ġclasses": 7165,
      "Ġdestroy": 7166,
      "Ġskills": 7167,
      "oothold": 7168,
      "Ġhooks": 7169,
      "Ġowner": 7170,
      "Dis": 7171,
      "Hub": 7172,
      "how": 7173,
      "opper": 7174,
      "ÙĦ": 7175,
      "Ġoop": 7176,
      "Ġwon": 7177,
      "Ġvast": 7178,
      "Ġhospital": 7179,
      "ĠSum": 7180,
      "riv": 7181,
      "agos": 7182,
      "ĠDemocr": 7183,
      "ortunity": 7184,
      "ĠGit": 7185,
      "ĠJB": 7186,
      "Ġinterf": 7187,
      "Ġvariables": 7188,
      "ĠProv": 7189,
      "ĠProxy": 7190,
      "Ġpersp": 7191,
      "Ġpacked": 7192,
      "Ġobjective": 7193,
      "Ġdemonstrates": 7194,
      "ĠTherefore": 7195,
      "Ġspreading": 7196,
      "Ġopportunity": 7197,
      "ĠASP": 7198,
      "ĠASERT": 7199,
      "Ġobserv": 7200,
      "ĠMetasploit": 7201,
      "Works": 7202,
      "Ġdegree": 7203,
      "215": 7204,
      "CA": 7205,
      "GE": 7206,
      "Loc": 7207,
      "bol": 7208,
      "field": 7209,
      "worth": 7210,
      "zer": 7211,
      "Ġsense": 7212,
      "Ġment": 7213,
      "omb": 7214,
      "ĠSci": 7215,
      "abot": 7216,
      "ĠDC": 7217,
      "Ġrundll": 7218,
      "Ġacts": 7219,
      "Ġdoub": 7220,
      "Ġ54": 7221,
      "Ġsubsystem": 7222,
      "Ġextort": 7223,
      "Ġextended": 7224,
      "Ġimplementations": 7225,
      "Ġwarned": 7226,
      "Ġclaiming": 7227,
      "Ġrevious": 7228,
      "Ġshortcut": 7229,
      "Ġfacilit": 7230,
      "Ġharm": 7231,
      "Ġexposure": 7232,
      "Ġfrequency": 7233,
      "Google": 7234,
      "Networks": 7235,
      "dig": 7236,
      "rror": 7237,
      "tiv": 7238,
      "war": 7239,
      "Ġtend": 7240,
      "Ġaverage": 7241,
      "Ġface": 7242,
      "Ġdup": 7243,
      "arr": 7244,
      "ĠCol": 7245,
      "ĠCred": 7246,
      "stitut": 7247,
      "ĠMong": 7248,
      "ĠMilitary": 7249,
      "ĠPATH": 7250,
      "plos": 7251,
      "Ġdisput": 7252,
      "version": 7253,
      "Ġrelay": 7254,
      "Ġarrest": 7255,
      "Ġarsenal": 7256,
      "Ġoutbound": 7257,
      "icked": 7258,
      "ofang": 7259,
      "ĠOpenSS": 7260,
      "ĠTracking": 7261,
      "Comet": 7262,
      "Analysis": 7263,
      "ĠTargeting": 7264,
      "ĠRealNetworks": 7265,
      "value": 7266,
      "Ġconcerns": 7267,
      "ĠLocalService": 7268,
      "Ġexamined": 7269,
      "ĠPhilipp": 7270,
      "ĠGerman": 7271,
      "ĠFrance": 7272,
      "ĠEconomics": 7273,
      "ĠTCIRT": 7274,
      "120": 7275,
      "506": 7276,
      "hack": 7277,
      "uan": 7278,
      "atz": 7279,
      "ene": 7280,
      "Ġfill": 7281,
      "ionDuke": 7282,
      "ingu": 7283,
      "omet": 7284,
      "ascript": 7285,
      "ĠMO": 7286,
      "Ġgaming": 7287,
      "Ġattacking": 7288,
      "ĠDeb": 7289,
      "ĠFort": 7290,
      "ĠIntr": 7291,
      "ĠNumber": 7292,
      "acted": 7293,
      "Ġpret": 7294,
      "128": 7295,
      "ttp": 7296,
      "Ġsubsequently": 7297,
      "ĠProgram": 7298,
      "Ġpointing": 7299,
      "Ġvisited": 7300,
      "ĠActivity": 7301,
      "ĠIncorporated": 7302,
      "Ġestablishing": 7303,
      "Ġpresumably": 7304,
      "Ġstatistics": 7305,
      "Ġgathered": 7306,
      "ĠCTU": 7307,
      "ĠHelp": 7308,
      "ĠAuthentication": 7309,
      "Hel": 7310,
      "shell": 7311,
      "such": 7312,
      "Ġap": 7313,
      "Ġapt": 7314,
      "Ġbranch": 7315,
      "Ġwor": 7316,
      "Ġparent": 7317,
      "lobe": 7318,
      "ĠTerracotta": 7319,
      "addition": 7320,
      "ĠMP": 7321,
      "ĠMofang": 7322,
      "Ġexhib": 7323,
      "ĠâĢĿ": 7324,
      "Ġrates": 7325,
      "Ġenabling": 7326,
      "Ġbits": 7327,
      "Ġaccom": 7328,
      "Ġchat": 7329,
      "Ġleaving": 7330,
      "akh": 7331,
      "Ġprepar": 7332,
      "ĠZIP": 7333,
      "lexity": 7334,
      "ĠSupport": 7335,
      "Ġlower": 7336,
      "ĠMessage": 7337,
      "Ġtransferred": 7338,
      "Ġhighlighted": 7339,
      "Ġweakness": 7340,
      "Spec": 7341,
      "Ġcomparison": 7342,
      "olitical": 7343,
      "Ġpipes": 7344,
      "Ġmoment": 7345,
      "GI": 7346,
      "WIND": 7347,
      "lands": 7348,
      "length": 7349,
      "Ġsil": 7350,
      "road": 7351,
      "ĠCIR": 7352,
      "idance": 7353,
      "Ġwhitel": 7354,
      "Ġproduced": 7355,
      "ĠTheir": 7356,
      "ĠRuby": 7357,
      "ĠBot": 7358,
      "ĠBrowser": 7359,
      "liament": 7360,
      "Ġshif": 7361,
      "aker": 7362,
      "Ġusernames": 7363,
      "Ġindeed": 7364,
      "ooking": 7365,
      "Ġtrade": 7366,
      "avascript": 7367,
      "Ġmessaging": 7368,
      "Ġdemands": 7369,
      "Ġzones": 7370,
      "Ġextent": 7371,
      "Ġdetecting": 7372,
      "ĠLabor": 7373,
      "ĠHealth": 7374,
      "Ġtopics": 7375,
      "ĠDarkComet": 7376,
      "Ġbring": 7377,
      "ĠTurkey": 7378,
      "CrySyS": 7379,
      "Ġidea": 7380,
      "Ġmonitored": 7381,
      "50727": 7382,
      "Finally": 7383,
      "Ġperpetr": 7384,
      "ITTERBUG": 7385,
      "Ġsucceed": 7386,
      "ĠCIRCL": 7387,
      "Dll": 7388,
      "NOC": 7389,
      "del": 7390,
      "lines": 7391,
      "nected": 7392,
      "Ġtab": 7393,
      "inte": 7394,
      "Ġfoothold": 7395,
      "icators": 7396,
      "Ġhuge": 7397,
      "ĠTotal": 7398,
      "ĠTiny": 7399,
      "ĠCount": 7400,
      "iffer": 7401,
      "Ġlures": 7402,
      "ĠPID": 7403,
      "ayload": 7404,
      "Ġadopt": 7405,
      "aks": 7406,
      "Ġoperated": 7407,
      "163": 7408,
      "Ġfeel": 7409,
      "APP": 7410,
      "ĠAction": 7411,
      "Ġminimum": 7412,
      "Ġresponsibility": 7413,
      "Ġlaunching": 7414,
      "Ġresolve": 7415,
      "Ġextracts": 7416,
      "Ġbelongs": 7417,
      "ĠStruts": 7418,
      "----": 7419,
      "ĠMalicious": 7420,
      "ĠSWIFT": 7421,
      "ĠEXE": 7422,
      "ĠDeployment": 7423,
      "Ġunwanted": 7424,
      "ĠBahrain": 7425,
      ".[": 7426,
      "Cs": 7427,
      "CMS": 7428,
      "Des": 7429,
      "FT": 7430,
      "mal": 7431,
      "uint": 7432,
      "xls": 7433,
      "orter": 7434,
      "Ġfav": 7435,
      "Ġflash": 7436,
      "arb": 7437,
      "ĠSuch": 7438,
      "Ġ($": 7439,
      "ĠMir": 7440,
      "ĠMAC": 7441,
      "Ġforced": 7442,
      "cell": 7443,
      "ĠUpload": 7444,
      "quer": 7445,
      "Ġ256": 7446,
      "ĠLa": 7447,
      "izations": 7448,
      "ĠChange": 7449,
      "Ġscr": 7450,
      "126": 7451,
      "Ġphones": 7452,
      "password": 7453,
      "Ġsuspic": 7454,
      "ĠBefore": 7455,
      "Ġarchives": 7456,
      "Ġutilize": 7457,
      "ICK": 7458,
      "Ġlatter": 7459,
      "Ġhappened": 7460,
      "Ġrecommends": 7461,
      "ĠVBScript": 7462,
      "Scan": 7463,
      "Ġcategory": 7464,
      "patched": 7465,
      "Ġproceeds": 7466,
      "Object": 7467,
      "Ġtelecommunications": 7468,
      "ĠSkype": 7469,
      "Ġpolicies": 7470,
      "110": 7471,
      "BL": 7472,
      "IO": 7473,
      "Port": 7474,
      "TLP": 7475,
      "frame": 7476,
      "mi": 7477,
      "mm": 7478,
      "rst": 7479,
      "ĠÃ": 7480,
      "rets": 7481,
      "Ġcoded": 7482,
      "alue": 7483,
      "Ġdual": 7484,
      "Ġdraw": 7485,
      "root": 7486,
      "etch": 7487,
      "Ġhotel": 7488,
      "urning": 7489,
      "imik": 7490,
      "term": 7491,
      "ĠUnd": 7492,
      "Ġstyle": 7493,
      "ĠHow": 7494,
      "ĠHIG": 7495,
      "echo": 7496,
      "luded": 7497,
      "Ġdocumentation": 7498,
      "format": 7499,
      "espread": 7500,
      "location": 7501,
      "encing": 7502,
      "Ġengage": 7503,
      "ridge": 7504,
      "Ġresponded": 7505,
      "Ġexplan": 7506,
      "Ġnormally": 7507,
      "Ġsniff": 7508,
      "Ġphotos": 7509,
      "ĠIOCs": 7510,
      "Ġitems": 7511,
      "String": 7512,
      "Ġorchestrator": 7513,
      "ĠCommittee": 7514,
      "ĠAdaptive": 7515,
      "Application": 7516,
      "Business": 7517,
      "Boy": 7518,
      "DT": 7519,
      "Def": 7520,
      "DIS": 7521,
      "Table": 7522,
      "auth": 7523,
      "bre": 7524,
      "iate": 7525,
      "lam": 7526,
      "layer": 7527,
      "scale": 7528,
      "tom": 7529,
      "reed": 7530,
      "Ġcycle": 7531,
      "atives": 7532,
      "Ġwatch": 7533,
      "anuary": 7534,
      "ĠCurrent": 7535,
      "Ġnative": 7536,
      "image": 7537,
      "ifically": 7538,
      "ĠHash": 7539,
      "aveler": 7540,
      "Ġ\"\"": 7541,
      "Ġspecify": 7542,
      "ĠExt": 7543,
      "wood": 7544,
      "Ġ95": 7545,
      "tty": 7546,
      "Ġretail": 7547,
      "ARE": 7548,
      "Ġsearching": 7549,
      "Ġuploads": 7550,
      "ĠJohn": 7551,
      "ĠStealth": 7552,
      "Ġidentifies": 7553,
      "ĠPerform": 7554,
      "ĠDouble": 7555,
      "ĠSOAP": 7556,
      "Ġenumerate": 7557,
      "Ġplaintext": 7558,
      "iï¬ģc": 7559,
      "ĠSilver": 7560,
      "initialized": 7561,
      "abotage": 7562,
      "imikatz": 7563,
      "IOC": 7564,
      "fire": 7565,
      "iable": 7566,
      "nb": 7567,
      "rt": 7568,
      "rum": 7569,
      "xShell": 7570,
      "rea": 7571,
      "Ġdat": 7572,
      "Ġmix": 7573,
      "aste": 7574,
      "ĠAccount": 7575,
      "ĠDino": 7576,
      "check": 7577,
      "Ġraw": 7578,
      "âĢĿ;": 7579,
      "phas": 7580,
      "ĠStud": 7581,
      "ATIN": 7582,
      "Ġcommunicated": 7583,
      "Ġlocked": 7584,
      "Ġinjects": 7585,
      "Ġconnectivity": 7586,
      "ARA": 7587,
      "Ġsuggested": 7588,
      "ĠWinCC": 7589,
      "ĠAttackers": 7590,
      "China": 7591,
      "Ġpowerful": 7592,
      "Ġfrag": 7593,
      "Ġreached": 7594,
      "ĠHackers": 7595,
      "CurrentVersion": 7596,
      "ĠOceanLotus": 7597,
      "Ġbehaviour": 7598,
      "ĠATM": 7599,
      "ĠCertific": 7600,
      "ĠïĤ": 7601,
      "Ġpossess": 7602,
      "ĠCosmicDuke": 7603,
      "Ġperspective": 7604,
      "worthy": 7605,
      "'ve": 7606,
      "><": 7607,
      "DWORD": 7608,
      "MA": 7609,
      "pm": 7610,
      "ĠSys": 7611,
      "ĠCH": 7612,
      "2008": 7613,
      "urced": 7614,
      "ĠMr": 7615,
      "ĠMode": 7616,
      "Ġglobe": 7617,
      "ĠFox": 7618,
      "istries": 7619,
      "ĠInitial": 7620,
      "ĠBundle": 7621,
      "Ġdeep": 7622,
      "ĠGaz": 7623,
      "Ġcovert": 7624,
      "ĠLAN": 7625,
      "lix": 7626,
      "Ġsha": 7627,
      "Ġregions": 7628,
      "osystem": 7629,
      "Ġschem": 7630,
      "125": 7631,
      "Ġacadem": 7632,
      "ategic": 7633,
      "ĠUsed": 7634,
      "andscape": 7635,
      "Ġrevent": 7636,
      "anguages": 7637,
      "Ġclicked": 7638,
      "IFF": 7639,
      "scr": 7640,
      "ĠDrop": 7641,
      "ĠShadow": 7642,
      "Ġexpertise": 7643,
      "ĠCompromise": 7644,
      "ashington": 7645,
      "Each": 7646,
      "Out": 7647,
      "Target": 7648,
      "WP": 7649,
      "lnk": 7650,
      "pad": 7651,
      "zone": 7652,
      "Ġbind": 7653,
      "Ġpiv": 7654,
      "Ġdoll": 7655,
      "Ġhot": 7656,
      "ĠSan": 7657,
      "ĠIss": 7658,
      "star": 7659,
      "ĠHouse": 7660,
      "Ġsplit": 7661,
      "Ġshift": 7662,
      "Ġ59": 7663,
      "Ġtravel": 7664,
      "osh": 7665,
      "ypoth": 7666,
      "Ġpatients": 7667,
      "Ġdefenses": 7668,
      "Ġbehalf": 7669,
      "Ġconvinc": 7670,
      "Ġseemingly": 7671,
      "information": 7672,
      "Ġecosystem": 7673,
      "Ġelev": 7674,
      "Ġscammers": 7675,
      "Conf": 7676,
      "packet": 7677,
      "Ġwidespread": 7678,
      "Image": 7679,
      "Ġtailored": 7680,
      "Many": 7681,
      "New": 7682,
      "Source": 7683,
      "TS": 7684,
      "around": 7685,
      "bat": 7686,
      "cer": 7687,
      "cing": 7688,
      "ham": 7689,
      "here": 7690,
      "kov": 7691,
      "pdb": 7692,
      "rab": 7693,
      "test": 7694,
      "ui": 7695,
      "Ð²": 7696,
      "Ġcell": 7697,
      "Ġinternally": 7698,
      "isis": 7699,
      "Ġwa": 7700,
      "Ġdword": 7701,
      "ĠTrid": 7702,
      "agh": 7703,
      "ĠDate": 7704,
      "001": 7705,
      "isters": 7706,
      "Ġuniversity": 7707,
      "ĠKaz": 7708,
      "Ġcontainer": 7709,
      "Ġscans": 7710,
      "Ġjava": 7711,
      "Ġgaining": 7712,
      "ĠConver": 7713,
      "Ġprincip": 7714,
      "connect": 7715,
      "ĠWarfare": 7716,
      "Ġbecoming": 7717,
      "Ġlayout": 7718,
      "Ġtweet": 7719,
      "Ġstopped": 7720,
      "BA": 7721,
      "Code": 7722,
      "Tube": 7723,
      "olexity": 7724,
      "scal": 7725,
      "Ġclo": 7726,
      "Ġsaves": 7727,
      "ulations": 7728,
      "otao": 7729,
      "Ġpromin": 7730,
      "essage": 7731,
      "ĠDen": 7732,
      "Ġcompr": 7733,
      "ĠBecause": 7734,
      "ĠNon": 7735,
      "Ġran": 7736,
      "plates": 7737,
      "Ġimpossible": 7738,
      "Ġjump": 7739,
      "lligent": 7740,
      "ĠOnionDuke": 7741,
      "Ġportal": 7742,
      "ISIS": 7743,
      "Ġinitialized": 7744,
      "Ġupported": 7745,
      "Ġsurprising": 7746,
      "Ġentered": 7747,
      "Ġrestore": 7748,
      "Ġdemanded": 7749,
      "Logix": 7750,
      "Ġurl": 7751,
      "Ġcategories": 7752,
      "ĠElectric": 7753,
      "lipboard": 7754,
      "Ġdiscourage": 7755,
      "ĠIndustrial": 7756,
      "132": 7757,
      "Det": 7758,
      "NAME": 7759,
      "Of": 7760,
      "Techn": 7761,
      "Trojan": 7762,
      "dis": 7763,
      "download": 7764,
      "eh": 7765,
      "google": 7766,
      "hood": 7767,
      "lab": 7768,
      "mits": 7769,
      "worm": 7770,
      "world": 7771,
      "ync": 7772,
      "Ġign": 7773,
      "icks": 7774,
      "arian": 7775,
      "omel": 7776,
      "ĠTls": 7777,
      "ĠSH": 7778,
      "ĠCold": 7779,
      "Ġexplorer": 7780,
      "Ġgames": 7781,
      "ĠDespite": 7782,
      "ĠFL": 7783,
      "ĠXen": 7784,
      "ĠExample": 7785,
      "ĠStandard": 7786,
      "Ġdescript": 7787,
      "Ġbutton": 7788,
      "117": 7789,
      "Ġhandlers": 7790,
      "ĠManso": 7791,
      "theless": 7792,
      "ĠArch": 7793,
      "ugging": 7794,
      "Proc": 7795,
      "Ġintrud": 7796,
      "while": 7797,
      "Ġconsumers": 7798,
      "Ġherein": 7799,
      "ĠAsset": 7800,
      "Ġsummary": 7801,
      "Ġpictures": 7802,
      "Ġdissector": 7803,
      "Ġinsert": 7804,
      "Ġprepared": 7805,
      "Ġcontractors": 7806,
      "Ġhistorical": 7807,
      "ĠVPSNOC": 7808,
      "ĠAuthority": 7809,
      "Temp": 7810,
      "CY": 7811,
      "aut": 7812,
      "Ġtreat": 7813,
      "edit": 7814,
      "lot": 7815,
      "leaver": 7816,
      "ĠSTR": 7817,
      "ĠCOR": 7818,
      "Ġnone": 7819,
      "ĠISP": 7820,
      "terfly": 7821,
      "ĠPutin": 7822,
      "ĠBrit": 7823,
      "ĠBlock": 7824,
      "ĠBITTERBUG": 7825,
      "Ġemphas": 7826,
      "Ġleader": 7827,
      "Ġrelied": 7828,
      "Ġparse": 7829,
      "ĠXSS": 7830,
      "Ġscore": 7831,
      "Ġworker": 7832,
      "Ġjo": 7833,
      "ĠZxShell": 7834,
      "EST": 7835,
      "Ġfocuses": 7836,
      "Ġspecifies": 7837,
      "ustral": 7838,
      "Ġsaying": 7839,
      "Ġnecessarily": 7840,
      "ĠOverflow": 7841,
      "Ġexamine": 7842,
      "Ġachieved": 7843,
      "Ġmitigate": 7844,
      "Ġblocking": 7845,
      "Ġfirewalls": 7846,
      "ĠAmerica": 7847,
      "Ġeducation": 7848,
      "protected": 7849,
      "ĠLinkedIn": 7850,
      "Ġconvincing": 7851,
      "414": 7852,
      "HN": 7853,
      "gth": 7854,
      "sv": 7855,
      "wC": 7856,
      "Ð´": 7857,
      "Ġir": 7858,
      "Ġtrojans": 7859,
      "Ġovers": 7860,
      "Ġsabotage": 7861,
      "imize": 7862,
      "sters": 7863,
      "Ġ128": 7864,
      "Ġprol": 7865,
      "ĠPRC": 7866,
      "Ġadvice": 7867,
      "ĠNode": 7868,
      "Ġsufficient": 7869,
      "licated": 7870,
      "ultane": 7871,
      "Ġthanks": 7872,
      "Internet": 7873,
      "Ġrobot": 7874,
      "Ġjoint": 7875,
      "Ġready": 7876,
      "Ġassign": 7877,
      "ï¬Ģ": 7878,
      "ĠÂ»": 7879,
      "Ġ*)": 7880,
      "Ġpresident": 7881,
      "Ġdiscussion": 7882,
      "orrent": 7883,
      "rength": 7884,
      "Ġsummar": 7885,
      "HTML": 7886,
      "ĠArabia": 7887,
      "Ġlearned": 7888,
      "ĠYouTube": 7889,
      "ĠSVG": 7890,
      "Ġassistance": 7891,
      "Ġclosed": 7892,
      "ĠArticle": 7893,
      "omeland": 7894,
      "Crypt": 7895,
      "CMD": 7896,
      "UID": 7897,
      "aro": 7898,
      "ias": 7899,
      "type": 7900,
      "Ġboard": 7901,
      "Ġphish": 7902,
      "Ġtouch": 7903,
      "Ġhint": 7904,
      "ĠTra": 7905,
      "Ġbeg": 7906,
      "Ġlanguages": 7907,
      "Ġgeop": 7908,
      "ĠPlease": 7909,
      "ĠWrite": 7910,
      "ĠWashington": 7911,
      "ĠDi": 7912,
      "Ġnoting": 7913,
      "Ġrat": 7914,
      "Ġrise": 7915,
      "Ġchunk": 7916,
      "Ġ58": 7917,
      "Ġbots": 7918,
      "Ġlock": 7919,
      "Ġunders": 7920,
      "ateral": 7921,
      "Ġbroader": 7922,
      "State": 7923,
      "Ġlaterally": 7924,
      "Ġimportance": 7925,
      "Ġsurround": 7926,
      "Ġretrieves": 7927,
      "Ġspoofing": 7928,
      "Ġfacilities": 7929,
      "Ġhappen": 7930,
      "Ġsituations": 7931,
      "Ġevolved": 7932,
      "Ġpeer": 7933,
      "ĠOrganization": 7934,
      "Berkut": 7935,
      "Ġanswer": 7936,
      "including": 7937,
      "ĠJBoss": 7938,
      "ĠLaboratory": 7939,
      "ĠTrident": 7940,
      "DNS": 7941,
      "Gu": 7942,
      "Size": 7943,
      "Wiki": 7944,
      "flix": 7945,
      "sn": 7946,
      "uer": 7947,
      "wp": 7948,
      "write": 7949,
      "Ġrough": 7950,
      "orun": 7951,
      "Ġhunt": 7952,
      "ulating": 7953,
      "ĠCase": 7954,
      "ĠIX": 7955,
      "ĠImp": 7956,
      "ĠMimic": 7957,
      "Ġextra": 7958,
      "char": 7959,
      "sock": 7960,
      "Ġstub": 7961,
      "ĠInit": 7962,
      "ĠNSA": 7963,
      "Ġunless": 7964,
      "Ġcooperation": 7965,
      "ĠLyn": 7966,
      "Ġsubmit": 7967,
      "esperson": 7968,
      "160": 7969,
      "INT": 7970,
      "Ġseeking": 7971,
      "pyy": 7972,
      "Ġposting": 7973,
      "Ġpurported": 7974,
      "Ġprice": 7975,
      "Ġfactor": 7976,
      "IPS": 7977,
      "Ġ*.": 7978,
      "Ġpair": 7979,
      "Ġdelivering": 7980,
      "ĠDeep": 7981,
      "Ġdepart": 7982,
      "Ġmatching": 7983,
      "Ġtracks": 7984,
      "Ġleaks": 7985,
      "Ġequiv": 7986,
      "Ġoverlaps": 7987,
      "Ġcovered": 7988,
      "Ġmodels": 7989,
      "ĠDetection": 7990,
      "default": 7991,
      "ĠCampaigns": 7992,
      "ĠMalays": 7993,
      "Ġmanipulate": 7994,
      "Ġchallenges": 7995,
      "Ġmedical": 7996,
      "Ġdigitally": 7997,
      "expected": 7998,
      "Ġdozens": 7999,
      "ĠUnicode": 8000,
      "plosive": 8001,
      "ATINUM": 8002,
      "024": 8003,
      ">.": 8004,
      "ED": 8005,
      "LI": 8006,
      "Per": 8007,
      "iver": 8008,
      "iated": 8009,
      "ÙĬ": 8010,
      "Ġ^": 8011,
      "Ġtech": 8012,
      "Ġterror": 8013,
      "atibility": 8014,
      "Ġwall": 8015,
      "ĠTIN": 8016,
      "ĠSpy": 8017,
      "ĠSFX": 8018,
      "Ġns": 8019,
      "ctr": 8020,
      "Ġlic": 8021,
      "ĠPerson": 8022,
      "ĠFour": 8023,
      "Ġstrength": 8024,
      "Ġunlock": 8025,
      "ĠGUI": 8026,
      "ibly": 8027,
      "ĠJPEG": 8028,
      "ĠKy": 8029,
      "Ġ77": 8030,
      "Ġyield": 8031,
      "Ġcyberattacks": 8032,
      "ĠSPE": 8033,
      "113": 8034,
      "Ġsimultane": 8035,
      "ĠAppliances": 8036,
      "167": 8037,
      "Ġoriginating": 8038,
      "API": 8039,
      "ĠController": 8040,
      "Ġlooked": 8041,
      "apped": 8042,
      "ucky": 8043,
      "infinite": 8044,
      "ĠBeh": 8045,
      "ĠDevelop": 8046,
      "Ġdepartment": 8047,
      "Ġutilizing": 8048,
      "Ġarticles": 8049,
      "ĠEngland": 8050,
      "Ġverification": 8051,
      "DAV": 8052,
      "Ġoverwrit": 8053,
      "factor": 8054,
      "Ġconcerning": 8055,
      "Ġcomplexity": 8056,
      "Ð½Ñ": 8057,
      "Ġwrong": 8058,
      "ĠParty": 8059,
      "Ġrecovery": 8060,
      "Ġspokesperson": 8061,
      "Ġaffiliated": 8062,
      "Ġrepository": 8063,
      "ĠAtlanta": 8064,
      "Ġsuffered": 8065,
      "Ġmasquer": 8066,
      "Ġsomewhat": 8067,
      "Ġobservations": 8068,
      "Ġaccompl": 8069,
      "ypothes": 8070,
      "((": 8071,
      "CSS": 8072,
      "Symantec": 8073,
      "dir": 8074,
      "ea": 8075,
      "uing": 8076,
      "Ð¼": 8077,
      "æľ": 8078,
      "Ġcru": 8079,
      "Ġbait": 8080,
      "Ġdating": 8081,
      "Ġdynam": 8082,
      "ĠSur": 8083,
      "ĠCritical": 8084,
      "Ġnavig": 8085,
      "ĠAustral": 8086,
      "Ġserving": 8087,
      "ĠEmb": 8088,
      "ĠBr": 8089,
      "Ġunrelated": 8090,
      "ĠGR": 8091,
      "Ġemploys": 8092,
      "ĠValid": 8093,
      "Ġcyberattack": 8094,
      "Ġpassive": 8095,
      "Ġhacktiv": 8096,
      "ixel": 8097,
      "Ġpathname": 8098,
      "Online": 8099,
      "ĠControls": 8100,
      "Ġutilizes": 8101,
      "Ġresponding": 8102,
      "Ġsummer": 8103,
      "Address": 8104,
      "ĠWorkstations": 8105,
      "metry": 8106,
      "Ġletters": 8107,
      "Ġnegot": 8108,
      "Ġbenefit": 8109,
      "Ġmapped": 8110,
      "Ġprecise": 8111,
      "Ġevalu": 8112,
      "ĠIXESHE": 8113,
      "Base": 8114,
      "Hack": 8115,
      "Hand": 8116,
      "Next": 8117,
      "PG": 8118,
      "PATH": 8119,
      "WAS": 8120,
      "ael": 8121,
      "cil": 8122,
      "fers": 8123,
      "iang": 8124,
      "po": 8125,
      "tum": 8126,
      "zh": 8127,
      "resh": 8128,
      "Ġbatt": 8129,
      "Ġmultip": 8130,
      "Ġhav": 8131,
      "lymp": 8132,
      "ĠAjax": 8133,
      "ĠMat": 8134,
      "ĠMIT": 8135,
      "Ġgrid": 8136,
      "ĠPhot": 8137,
      "ĠPART": 8138,
      "ĠPNG": 8139,
      "ĠRout": 8140,
      "ellow": 8141,
      "ĠHand": 8142,
      "Ġunexpected": 8143,
      "Ġsuite": 8144,
      "ĠLaw": 8145,
      "email": 8146,
      "Ġappendix": 8147,
      "ĠJournal": 8148,
      "Ġcaught": 8149,
      "iance": 8150,
      "Ġprocessed": 8151,
      "Ins": 8152,
      "Ġroll": 8153,
      "Ġsecrets": 8154,
      "Ġdropping": 8155,
      "Ġoffices": 8156,
      "ĠAdditional": 8157,
      "Ġmaintaining": 8158,
      "ĠCarac": 8159,
      "Ġhappens": 8160,
      "ĠPalest": 8161,
      "Ġcoverage": 8162,
      "~~~~": 8163,
      "Ġpredict": 8164,
      "Ġinspection": 8165,
      "Ġcouple": 8166,
      "Ġilleg": 8167,
      "ĠAssociation": 8168,
      "akhstan": 8169,
      "Ġwhitelist": 8170,
      "tumbot": 8171,
      "210": 8172,
      "Copy": 8173,
      "LD": 8174,
      "Lock": 8175,
      "PM": 8176,
      "SYSTEM": 8177,
      "oT": 8178,
      "oft": 8179,
      "Ġfight": 8180,
      "ĠCond": 8181,
      "ĠCIA": 8182,
      "ĠCleaver": 8183,
      "Ġproprietary": 8184,
      "ĠPhishing": 8185,
      "ĠFollowing": 8186,
      "Ġunpack": 8187,
      "Ġchoose": 8188,
      "akers": 8189,
      "ĠVol": 8190,
      "Ġsound": 8191,
      "Ġindict": 8192,
      "logger": 8193,
      "Ġrecru": 8194,
      "Ġpublish": 8195,
      "Ġphases": 8196,
      "Ġseek": 8197,
      "Ġtranslation": 8198,
      "ONTI": 8199,
      "Ġfocusing": 8200,
      "REF": 8201,
      "ĠIslam": 8202,
      "ĠTurk": 8203,
      "Ġassessment": 8204,
      "ĠButterfly": 8205,
      "ĠVBS": 8206,
      "Ġhighlights": 8207,
      "Ġinformed": 8208,
      "Ġillustrates": 8209,
      "ĠREG": 8210,
      "ĠScanBox": 8211,
      "ĠKitten": 8212,
      "Ġexperienced": 8213,
      "Ġdynamically": 8214,
      "AML": 8215,
      "Lnk": 8216,
      "OSS": 8217,
      "body": 8218,
      "ih": 8219,
      "jpeg": 8220,
      "rs": 8221,
      "tics": 8222,
      "inv": 8223,
      "inal": 8224,
      "Ġcult": 8225,
      "Ġbid": 8226,
      "anmar": 8227,
      "ĠTelecom": 8228,
      "ĠSak": 8229,
      "ĠCV": 8230,
      "ĠCAB": 8231,
      "Ġnic": 8232,
      "uri": 8233,
      "Ġconï¬ģ": 8234,
      "ĠIM": 8235,
      "iment": 8236,
      "stream": 8237,
      "Ġanom": 8238,
      "olute": 8239,
      "Ġground": 8240,
      "Ġproduc": 8241,
      "ĠPress": 8242,
      "Ġcompare": 8243,
      "ested": 8244,
      "ĠOpt": 8245,
      "ĠHuman": 8246,
      "ĠBang": 8247,
      "Ġunivers": 8248,
      "Ġunpatched": 8249,
      "ĠGOT": 8250,
      "Ġspons": 8251,
      "Ġaccomp": 8252,
      "Ġchance": 8253,
      "ĠVari": 8254,
      "ĠKhan": 8255,
      "ĠChopper": 8256,
      "ĠUnlike": 8257,
      "Ġpatient": 8258,
      "Ġsupplied": 8259,
      "ĠConnection": 8260,
      "Ġredict": 8261,
      "Ġdemonstrate": 8262,
      "Ġterrit": 8263,
      "Ġpriority": 8264,
      "Ġopin": 8265,
      "Ġequal": 8266,
      "ĠNotes": 8267,
      "ĠClass": 8268,
      "URL": 8269,
      "metric": 8270,
      "Ġproximate": 8271,
      "Ġcrack": 8272,
      "Ġinserted": 8273,
      "Ġweaponized": 8274,
      "uploader": 8275,
      "Ġacquired": 8276,
      "specific": 8277,
      "ĠMansoor": 8278,
      "ONTIUM": 8279,
      "Direct": 8280,
      "Office": 8281,
      "SD": 8282,
      "You": 8283,
      "dom": 8284,
      "fog": 8285,
      "ga": 8286,
      "uel": 8287,
      "Ġafore": 8288,
      "erver": 8289,
      "Ġcle": 8290,
      "aran": 8291,
      "ley": 8292,
      "ĠSN": 8293,
      "ĠSw": 8294,
      "uty": 8295,
      "ifer": 8296,
      "ĠMechan": 8297,
      "ĠDerusbi": 8298,
      "ĠET": 8299,
      "ĠOff": 8300,
      "ĠInternal": 8301,
      "izon": 8302,
      "Ġobsc": 8303,
      "plug": 8304,
      "Ġexecutive": 8305,
      "Ġperf": 8306,
      "Ġactivated": 8307,
      "Ġkeyword": 8308,
      "Ġundetected": 8309,
      "otherboard": 8310,
      "Ġauto": 8311,
      "Ġmaintained": 8312,
      "Ġhijacked": 8313,
      "Also": 8314,
      "ĠOutside": 8315,
      "Ġspying": 8316,
      "Ġinstitution": 8317,
      "ĠCrew": 8318,
      "XXXX": 8319,
      "Ġplanning": 8320,
      "Ġallocated": 8321,
      "Ġconstruction": 8322,
      "ĠPrint": 8323,
      "Ġprepare": 8324,
      "ĠFlame": 8325,
      "Ġoutlined": 8326,
      "BTZ": 8327,
      "adesh": 8328,
      "ĠKnow": 8329,
      "Ġwiping": 8330,
      "ĠDocs": 8331,
      "ĠHavex": 8332,
      "Ġanalysed": 8333,
      "ĠPhilippines": 8334,
      "Ġdollars": 8335,
      "Crew": 8336,
      "Download": 8337,
      "FD": 8338,
      "Pack": 8339,
      "__": 8340,
      "det": 8341,
      "dri": 8342,
      "gest": 8343,
      "ios": 8344,
      "lad": 8345,
      "mpeg": 8346,
      "âĤ¬": 8347,
      "Ġå": 8348,
      "inux": 8349,
      "Ġmor": 8350,
      "Ġmiddle": 8351,
      "asus": 8352,
      "ĠTG": 8353,
      "ĠToday": 8354,
      "2005": 8355,
      "ctions": 8356,
      "ĠMich": 8357,
      "Ġlandscape": 8358,
      "ĠDell": 8359,
      "ĠOlymp": 8360,
      "ĠGO": 8361,
      "extracting": 8362,
      "Ġ76": 8363,
      "ansalt": 8364,
      "ludes": 8365,
      "Ġrelative": 8366,
      "ĠUnre": 8367,
      "ĠExplosive": 8368,
      "ĠStyle": 8369,
      "ĠStreet": 8370,
      "Ġrecurs": 8371,
      "uthenticated": 8372,
      "Ġworkstation": 8373,
      "Ġobtaining": 8374,
      "Ġhands": 8375,
      "Ġneither": 8376,
      "ĠForum": 8377,
      "Ġexpose": 8378,
      "Ġanalyst": 8379,
      "proxy": 8380,
      "Ġminimal": 8381,
      "Ġlaunches": 8382,
      "Ġconvent": 8383,
      "Ġobfuscate": 8384,
      "Ġguess": 8385,
      "Ġutilities": 8386,
      "Ġprotecting": 8387,
      "Ġstudents": 8388,
      "Ġelectric": 8389,
      "Ġemerged": 8390,
      "Ġconclusion": 8391,
      "ï¿½ï¿½ï¿½ï¿½ï¿½ï¿½ï¿½ï¿½ï¿½ï¿½ï¿½ï¿½ï¿½ï¿½ï¿½ï¿½ï¿½ï¿½ï¿½ï¿½ï¿½ï¿½ï¿½ï¿½ï¿½ï¿½ï¿½ï¿½ï¿½ï¿½ï¿½ï¿½": 8392,
      "Ġinvestment": 8393,
      "Ġalerts": 8394,
      "ĠBelg": 8395,
      "Ġsegment": 8396,
      "Ġcoordinated": 8397,
      "Ġmaximum": 8398,
      "Ġsatellite": 8399,
      "Ġqueue": 8400,
      "ĠDemocratic": 8401,
      "ĠKazakhstan": 8402,
      "Ġbegun": 8403,
      "Despite": 8404,
      "FTP": 8405,
      "Min": 8406,
      "Network": 8407,
      "Sign": 8408,
      "TLS": 8409,
      "disk": 8410,
      "ya": 8411,
      "Ġcpyy": 8412,
      "enue": 8413,
      "Ġmimic": 8414,
      "acc": 8415,
      "Ġhotels": 8416,
      "ĠCreat": 8417,
      "ĠDll": 8418,
      "ĠDIS": 8419,
      "ĠEmer": 8420,
      "ĠNorm": 8421,
      "Ġwasn": 8422,
      "ebp": 8423,
      "ebel": 8424,
      "ondon": 8425,
      "Ġpasses": 8426,
      "Ġmeet": 8427,
      "Ġstatements": 8428,
      "Ġlapt": 8429,
      "ĠThreatConnect": 8430,
      "Ġcopying": 8431,
      "PST": 8432,
      "Ġshortened": 8433,
      "ĠConfigure": 8434,
      "Ġverified": 8435,
      "Ġalgorithms": 8436,
      "ĠArabic": 8437,
      "ĠEstonian": 8438,
      "Ġevolve": 8439,
      "UTTER": 8440,
      "ĠCylance": 8441,
      "ĠRelated": 8442,
      "Ġpurchase": 8443,
      "Ġcamera": 8444,
      "owershell": 8445,
      "Library": 8446,
      "Ġflexible": 8447,
      "Ġgeopolitical": 8448,
      "(\"": 8449,
      "019": 8450,
      "BIN": 8451,
      "No": 8452,
      "Several": 8453,
      "bf": 8454,
      "eff": 8455,
      "ghan": 8456,
      "ki": 8457,
      "Ġdir": 8458,
      "Ġmenu": 8459,
      "Ġeax": 8460,
      "ĠCare": 8461,
      "ĠCasc": 8462,
      "ĠAL": 8463,
      "ĠIce": 8464,
      "Ġanonym": 8465,
      "ĠMor": 8466,
      "ĠMBR": 8467,
      "Ġexchang": 8468,
      "ĠHam": 8469,
      "ĠHomeland": 8470,
      "ĠInt": 8471,
      "ĠBro": 8472,
      "Ġunits": 8473,
      "ĠGN": 8474,
      "âĢĿ:": 8475,
      "ĠLength": 8476,
      "arters": 8477,
      "ĠâĢľ%": 8478,
      "Ġchapter": 8479,
      "ĠKer": 8480,
      "ĠKre": 8481,
      "coming": 8482,
      "Ġxx": 8483,
      "Ġkept": 8484,
      "Ġbackend": 8485,
      "open": 8486,
      "onents": 8487,
      "322": 8488,
      "Ġinstallers": 8489,
      "Ġworkaround": 8490,
      "ĠIntelligent": 8491,
      "Stuxnet": 8492,
      "ajax": 8493,
      "Prot": 8494,
      "ĠTrust": 8495,
      "dev": 8496,
      "ĠOneDrive": 8497,
      "Ġmarker": 8498,
      "government": 8499,
      "ĠInterface": 8500,
      "ĠStrategic": 8501,
      "Ġadvertising": 8502,
      "Ġkeeping": 8503,
      "ĠKeyBoy": 8504,
      "Ġremoving": 8505,
      "ĠDisc": 8506,
      "ĠSiebel": 8507,
      "ĠOceansalt": 8508,
      "Ġinterfaces": 8509,
      "\">": 8510,
      "/,": 8511,
      "Domain": 8512,
      "Ed": 8513,
      "HC": 8514,
      "Link": 8515,
      "LAN": 8516,
      "Open": 8517,
      "Part": 8518,
      "TF": 8519,
      "hh": 8520,
      "random": 8521,
      "tw": 8522,
      "tech": 8523,
      "windows": 8524,
      "Â®": 8525,
      "Â»": 8526,
      "Ġsust": 8527,
      "acons": 8528,
      "ĠText": 8529,
      "ĠSend": 8530,
      "ĠCat": 8531,
      "ĠCity": 8532,
      "ĠAR": 8533,
      "urg": 8534,
      "urance": 8535,
      "aded": 8536,
      "ĠRich": 8537,
      "ĠRSS": 8538,
      "upd": 8539,
      "ĠGIF": 8540,
      "orship": 8541,
      "iving": 8542,
      "assies": 8543,
      "plugin": 8544,
      "Ġplayer": 8545,
      "ĠComf": 8546,
      "entials": 8547,
      "Ġsigns": 8548,
      "Ġtoolsets": 8549,
      "Ġquarter": 8550,
      "Threat": 8551,
      "Ġtransl": 8552,
      "Ġreply": 8553,
      "Ġharder": 8554,
      "ĠResource": 8555,
      "Ġtests": 8556,
      "Ġdeleting": 8557,
      "Ġdepict": 8558,
      "ĠString": 8559,
      "Ġconcern": 8560,
      "Ġexplains": 8561,
      "viously": 8562,
      "ĠDropped": 8563,
      "Ġdestruction": 8564,
      "ĠPassword": 8565,
      "Ġoutlets": 8566,
      "Buffer": 8567,
      "Interestingly": 8568,
      "Ġparses": 8569,
      "Remote": 8570,
      "ĠSupply": 8571,
      "ĠConverter": 8572,
      "Ġaforementioned": 8573,
      "Adobe": 8574,
      "COM": 8575,
      "EF": 8576,
      "Gener": 8577,
      "IME": 8578,
      "OK": 8579,
      "Red": 8580,
      "aq": 8581,
      "ladesh": 8582,
      "Ġaf": 8583,
      "alone": 8584,
      "Ġdivers": 8585,
      "Ġdaily": 8586,
      "Ġreser": 8587,
      "Ġeb": 8588,
      "ĠSqu": 8589,
      "ĠSchool": 8590,
      "ĠIO": 8591,
      "ado": 8592,
      "ifier": 8593,
      "Ġproduce": 8594,
      "chron": 8595,
      "irth": 8596,
      "ĠRoot": 8597,
      "ĠâĢ¦": 8598,
      "esting": 8599,
      "ĠOF": 8600,
      "ĠOLE": 8601,
      "ĠNav": 8602,
      "berg": 8603,
      "exus": 8604,
      "ĠVine": 8605,
      "Ġsought": 8606,
      "Ġ81": 8607,
      "ganography": 8608,
      "Ġmanual": 8609,
      "ccessful": 8610,
      "Ġclr": 8611,
      "ĠCyberBerkut": 8612,
      "Ġfacts": 8613,
      "Ġofficer": 8614,
      "Ġguaran": 8615,
      "Ġpreventing": 8616,
      "ENT": 8617,
      "ĠSunshop": 8618,
      "ĠSimple": 8619,
      "Ġmitigates": 8620,
      "Ġaspect": 8621,
      "ĠSWF": 8622,
      "ĠFederal": 8623,
      "Ġannounce": 8624,
      "Ġreflect": 8625,
      "Ġexpression": 8626,
      "Ġpenetration": 8627,
      "Ġtrends": 8628,
      "Ġprotests": 8629,
      "ĠScarlet": 8630,
      "Researchers": 8631,
      "razil": 8632,
      "ĠGitHub": 8633,
      "Ġdoubt": 8634,
      "Ġequivalent": 8635,
      "ĠTINYP": 8636,
      "Center": 8637,
      "Element": 8638,
      "GP": 8639,
      "ISA": 8640,
      "VC": 8641,
      "cons": 8642,
      "found": 8643,
      "gl": 8644,
      "got": 8645,
      "rites": 8646,
      "writ": 8647,
      "Ġaid": 8648,
      "Ġreput": 8649,
      "Ġep": 8650,
      "2000": 8651,
      "ĠIIS": 8652,
      "ĠMed": 8653,
      "ĠDal": 8654,
      "ĠDig": 8655,
      "ĠFamily": 8656,
      "elph": 8657,
      "ĠEU": 8658,
      "ĠHunt": 8659,
      "Ġrated": 8660,
      "ĠLondon": 8661,
      "Ġspawn": 8662,
      "cout": 8663,
      "Ġoverla": 8664,
      "ĠUnfortunately": 8665,
      "Ġdesired": 8666,
      "evertheless": 8667,
      "Ġadminister": 8668,
      "Ġindications": 8669,
      "Ġexplicit": 8670,
      "Ġbrought": 8671,
      "Ġzip": 8672,
      "Ġtransmit": 8673,
      "Ġtransaction": 8674,
      "Ġdecrypting": 8675,
      "ĠIndicators": 8676,
      "Ġreleases": 8677,
      "ĠÂ«": 8678,
      "Ġhelped": 8679,
      "Exec": 8680,
      "ĠConflict": 8681,
      "HOPST": 8682,
      "ĠSafe": 8683,
      "Ġmissile": 8684,
      "Ġcrypto": 8685,
      "Ġoffering": 8686,
      "OWS": 8687,
      "Ġmeasure": 8688,
      "Ġcorrectly": 8689,
      "Header": 8690,
      "Information": 8691,
      "Ġmanufacturing": 8692,
      "Ġcarrying": 8693,
      "Ġsubsection": 8694,
      "Ġswitches": 8695,
      "Ġimproperly": 8696,
      "ĠInvestigations": 8697,
      "ĠFFmpeg": 8698,
      "called": 8699,
      "Ġmistakes": 8700,
      "Ġrapidly": 8701,
      "ĠSMTP": 8702,
      "Ġwaits": 8703,
      "ĠBangladesh": 8704,
      "HOPSTICK": 8705,
      "Access": 8706,
      "EE": 8707,
      "Sub": 8708,
      "Text": 8709,
      "den": 8710,
      "ding": 8711,
      "hol": 8712,
      "ping": 8713,
      "sky": 8714,
      "vm": 8715,
      "Ġic": 8716,
      "Ġtheory": 8717,
      "ester": 8718,
      "Ġmag": 8719,
      "ĠTE": 8720,
      "ĠSch": 8721,
      "ĠSand": 8722,
      "oted": 8723,
      "ĠDH": 8724,
      "ĠDav": 8725,
      "chain": 8726,
      "Ġ........": 8727,
      "ĠEvent": 8728,
      "Ġstole": 8729,
      "ĠNow": 8730,
      "ĠLight": 8731,
      "ĠLiber": 8732,
      "Ġspan": 8733,
      "umes": 8734,
      "izer": 8735,
      "Ġleave": 8736,
      "ĠVolexity": 8737,
      "Ġpretty": 8738,
      "Ġxor": 8739,
      "Ġparalle": 8740,
      "Ġpartner": 8741,
      "Ġdecre": 8742,
      "Ġagents": 8743,
      "Ġlogical": 8744,
      "Ġrecording": 8745,
      "Ġconsidering": 8746,
      "ARY": 8747,
      "Ġredirection": 8748,
      "ĠPLATINUM": 8749,
      "Ġwanted": 8750,
      "PUTED": 8751,
      "linked": 8752,
      "hemical": 8753,
      "Ġallocation": 8754,
      "Running": 8755,
      "Ġlayers": 8756,
      "ĠChrW": 8757,
      "Ġassumed": 8758,
      "Ġspotted": 8759,
      "ĠWhois": 8760,
      "Ġsurrounding": 8761,
      "ĠLynx": 8762,
      "Client": 8763,
      "Fusion": 8764,
      "Group": 8765,
      "Oct": 8766,
      "Pres": 8767,
      "RAN": 8768,
      "Two": 8769,
      "auss": 8770,
      "ipped": 8771,
      "vlet": 8772,
      "oned": 8773,
      "Ġcbc": 8774,
      "Ġwider": 8775,
      "Ġfault": 8776,
      "rouch": 8777,
      "Ġmere": 8778,
      "ĠSection": 8779,
      "ĠSym": 8780,
      "ĠSYSTEM": 8781,
      "rip": 8782,
      "ĠPath": 8783,
      "ĠRat": 8784,
      "ĠFull": 8785,
      "ĠBBC": 8786,
      "Ġdepth": 8787,
      "Ġuninstall": 8788,
      "ĠLat": 8789,
      "ĠLua": 8790,
      "phones": 8791,
      "Ġabused": 8792,
      "Ġindirect": 8793,
      "Ġstra": 8794,
      "Ġregisters": 8795,
      "103": 8796,
      "ĠWebDAV": 8797,
      "ĠOnly": 8798,
      "Ġprivileged": 8799,
      "Ġsimilarly": 8800,
      "ĠCommunity": 8801,
      "ANCY": 8802,
      "ĠContain": 8803,
      "ĠYARA": 8804,
      "ĠIndustry": 8805,
      "Ġconclude": 8806,
      "ĠAlliance": 8807,
      "Ġscanned": 8808,
      "Ġfraudsters": 8809,
      "Ġmotivation": 8810,
      "Ġunsigned": 8811,
      "Ġspeed": 8812,
      "ĠSubject": 8813,
      "Ġtelemetry": 8814,
      "Ġfunds": 8815,
      "Ġnegative": 8816,
      "help": 8817,
      "Ġraise": 8818,
      "ĠCRM": 8819,
      "Ġpushed": 8820,
      "Seoul": 8821,
      "Ġisolated": 8822,
      "Ġspreadsheet": 8823,
      "Ġopportunistic": 8824,
      "ĠYeti": 8825,
      "ĠWaterbug": 8826,
      "Ġestimated": 8827,
      "Ġexplanation": 8828,
      "Ġsniffing": 8829,
      "Ġprominent": 8830,
      "ĠSTRONTIUM": 8831,
      "Ġroughly": 8832,
      "rouching": 8833,
      "Even": 8834,
      "Using": 8835,
      "codec": 8836,
      "gmail": 8837,
      "high": 8838,
      "png": 8839,
      "title": 8840,
      "Ñı": 8841,
      "Ġtables": 8842,
      "orial": 8843,
      "Ġfoot": 8844,
      "Ġdoc": 8845,
      "Ġee": 8846,
      "ĠSite": 8847,
      "ĠSolution": 8848,
      "ury": 8849,
      "rian": 8850,
      "ĠIC": 8851,
      "Ġgave": 8852,
      "ups": 8853,
      "ĠNations": 8854,
      "ĠNether": 8855,
      "ĠâĢľ.": 8856,
      "ĠJul": 8857,
      "iph": 8858,
      "Ġ78": 8859,
      "Ġdirection": 8860,
      "Ġidentities": 8861,
      "116": 8862,
      "duction": 8863,
      "ĠAnonymous": 8864,
      "ĠAppliance": 8865,
      "Install": 8866,
      "Ġround": 8867,
      "Then": 8868,
      "ĠIntegr": 8869,
      "Ġengagement": 8870,
      "Ġ&&": 8871,
      "Ġreality": 8872,
      "Ġconcentr": 8873,
      "Ġdisclosures": 8874,
      "ERTOSS": 8875,
      "ĠNetflix": 8876,
      "ĠVisio": 8877,
      "ederal": 8878,
      "Ġpressure": 8879,
      "Ġdragon": 8880,
      "Ready": 8881,
      "Ġalternative": 8882,
      "Ġcompleted": 8883,
      "Ġinnov": 8884,
      "ĠSheets": 8885,
      "Module": 8886,
      "Ġacknowled": 8887,
      "ĠCascading": 8888,
      "164": 8889,
      "264": 8890,
      "DL": 8891,
      "GB": 8892,
      "LNK": 8893,
      "Ne": 8894,
      "OPS": 8895,
      "Par": 8896,
      "Sa": 8897,
      "WARE": 8898,
      "case": 8899,
      "ipping": 8900,
      "jo": 8901,
      "son": 8902,
      "Ġcut": 8903,
      "Ġcash": 8904,
      "atus": 8905,
      "Ġbulletin": 8906,
      "users": 8907,
      "Ġmask": 8908,
      "Ġreuse": 8909,
      "ĠCapt": 8910,
      "ĠCGI": 8911,
      "2007": 8912,
      "Ġusual": 8913,
      "Ġ(\"": 8914,
      "ĠMimikatz": 8915,
      "Ġgiant": 8916,
      "Ġprogress": 8917,
      "ĠPR": 8918,
      "ĠDue": 8919,
      "ĠFive": 8920,
      "ĠEtumbot": 8921,
      "ĠOffic": 8922,
      "ĠBrazil": 8923,
      "ĠNor": 8924,
      "ĠGlass": 8925,
      "rap": 8926,
      "Ġ87": 8927,
      "apers": 8928,
      "ĠExecute": 8929,
      "ĠComment": 8930,
      "Ġlistening": 8931,
      "cedented": 8932,
      "Ġprevents": 8933,
      "Ġreader": 8934,
      "ilege": 8935,
      "Ġquality": 8936,
      "Ġpacker": 8937,
      "obfusc": 8938,
      "Ġmeeting": 8939,
      "ĠPlugin": 8940,
      "NSOON": 8941,
      "Ġdeliber": 8942,
      "azon": 8943,
      "Ġoccas": 8944,
      "ĠASE": 8945,
      "ĠNeuron": 8946,
      "visor": 8947,
      "Ġfacing": 8948,
      "Ġunauthenticated": 8949,
      "ĠDrive": 8950,
      "aidoor": 8951,
      "Ġcrisis": 8952,
      "Ġdisguise": 8953,
      "ĠEncryption": 8954,
      "skys": 8955,
      "Ġwhitepaper": 8956,
      "ĠPrivate": 8957,
      "Ġmonitors": 8958,
      "ĠCouncil": 8959,
      "ĠProfessional": 8960,
      "ĠCharacter": 8961,
      "Ġapplies": 8962,
      "Ġconsequences": 8963,
      "QUATION": 8964,
      "ĠEquation": 8965,
      "ĠBanking": 8966,
      "ĠMONSOON": 8967,
      "\")": 8968,
      "##": 8969,
      "307": 8970,
      "Black": 8971,
      "PP": 8972,
      "SN": 8973,
      "XY": 8974,
      "ble": 8975,
      "cre": 8976,
      "lt": 8977,
      "switch": 8978,
      "wd": 8979,
      "Â©": 8980,
      "rep": 8981,
      "Ġcro": 8982,
      "Ġsolid": 8983,
      "itation": 8984,
      "Ġwitness": 8985,
      "ilt": 8986,
      "Ġmer": 8987,
      "anish": 8988,
      "ĠTROJ": 8989,
      "ĠSpr": 8990,
      "ĠSAN": 8991,
      "ĠSIM": 8992,
      "amous": 8993,
      "Ġbeacons": 8994,
      "ĠRational": 8995,
      "ĠEQUATION": 8996,
      "Ġinfinite": 8997,
      "Ġadj": 8998,
      "ĠHome": 8999,
      "ĠNSO": 9000,
      "Ġcommun": 9001,
      "htm": 9002,
      "ĠKor": 9003,
      "Ġtrace": 9004,
      "Ġ85": 9005,
      "ĠThread": 9006,
      "Ġrelating": 9007,
      "Ġage": 9008,
      "ĠWebsite": 9009,
      "Ġbroken": 9010,
      "Ġinsecure": 9011,
      "Ġiex": 9012,
      "Ġloaders": 9013,
      "Ġeffects": 9014,
      "Ġdistingu": 9015,
      "missions": 9016,
      "Ġ185": 9017,
      "Ġauthority": 9018,
      "Ġpresidential": 9019,
      "ĠRegister": 9020,
      "Ġcaptures": 9021,
      "ircraft": 9022,
      "precedented": 9023,
      "ĠLeg": 9024,
      "IGN": 9025,
      "AMM": 9026,
      "ĠHacker": 9027,
      "ĠDelete": 9028,
      "ĠIRS": 9029,
      "ÑģÑĤ": 9030,
      "Ġchallenge": 9031,
      "Ġranging": 9032,
      "Ġcontinuing": 9033,
      "Ġconclus": 9034,
      "sterisk": 9035,
      "Ġbehaviors": 9036,
      "Ġstealthy": 9037,
      "ĠLDAP": 9038,
      "ĠOPER": 9039,
      "Ġessentially": 9040,
      "Ġmalvertising": 9041,
      "Ġsubdomains": 9042,
      "Ġcloser": 9043,
      "Ġdepartments": 9044,
      "Ġanomal": 9045,
      "ĠDISPUTED": 9046,
      "ĠEmergency": 9047,
      "skysec": 9048,
      "213": 9049,
      "Class": 9050,
      "DAC": 9051,
      "DOC": 9052,
      "Enc": 9053,
      "Su": 9054,
      "dated": 9055,
      "diss": 9056,
      "jection": 9057,
      "tz": 9058,
      "tps": 9059,
      "year": 9060,
      "âĪĴ": 9061,
      "Ġrol": 9062,
      "Ġtal": 9063,
      "Ġaa": 9064,
      "Ġclipboard": 9065,
      "aten": 9066,
      "isition": 9067,
      "Ġbirth": 9068,
      "Ġfast": 9069,
      "Ġhear": 9070,
      "ĠSel": 9071,
      "ĠCoo": 9072,
      "âĢ¯": 9073,
      "rif": 9074,
      "adec": 9075,
      "ĠMagic": 9076,
      "Ġasym": 9077,
      "Ġ...": 9078,
      "iously": 9079,
      "Ġchart": 9080,
      "Ġpreced": 9081,
      "ĠAng": 9082,
      "Ġjanuary": 9083,
      "185": 9084,
      "2545": 9085,
      "Ġgovernmental": 9086,
      "Ġcapital": 9087,
      "Ġio": 9088,
      "ookie": 9089,
      "prof": 9090,
      "appro": 9091,
      "Ġviewed": 9092,
      "Ġpresentation": 9093,
      "ectively": 9094,
      "ĠUses": 9095,
      "Ġselection": 9096,
      "ographical": 9097,
      "Ġtopic": 9098,
      "Ġnoteworthy": 9099,
      "Ġï¬ģles": 9100,
      "Ġimmediate": 9101,
      "Ġtrojanized": 9102,
      "Ġblue": 9103,
      "Ġspeaking": 9104,
      "Ġeconomy": 9105,
      "Ġforwarded": 9106,
      "ĠFront": 9107,
      "ĠKnown": 9108,
      "Similar": 9109,
      "Ġmanufacturers": 9110,
      "ĠEmbassy": 9111,
      "Ġconï¬ģg": 9112,
      "ĠDalai": 9113,
      "FP": 9114,
      "Solution": 9115,
      "URF": 9116,
      "biz": 9117,
      "june": 9118,
      "men": 9119,
      "pic": 9120,
      "via": 9121,
      "init": 9122,
      "esides": 9123,
      "orough": 9124,
      "Ġbund": 9125,
      "Ġwp": 9126,
      "Ġwipe": 9127,
      "Ġdum": 9128,
      "Ġdark": 9129,
      "rout": 9130,
      "Ġmouse": 9131,
      "asar": 9132,
      "Ġht": 9133,
      "Ġconce": 9134,
      "stone": 9135,
      "aint": 9136,
      "ĠMSS": 9137,
      "ags": 9138,
      "007": 9139,
      "âĢĿ).": 9140,
      "Ġ300": 9141,
      "lihood": 9142,
      "ĠJR": 9143,
      "ĠKar": 9144,
      "ĠThree": 9145,
      "Ġrelation": 9146,
      "ĠXagent": 9147,
      "grade": 9148,
      "ĠSPL": 9149,
      "1271": 9150,
      "Ġconfigure": 9151,
      "Ġvariations": 9152,
      "ĠApplications": 9153,
      "289": 9154,
      "Ġclues": 9155,
      "ĠShort": 9156,
      "eek": 9157,
      "Ġinvestigators": 9158,
      "ĠAlpha": 9159,
      "Ġeastern": 9160,
      "filter": 9161,
      "ĠCompil": 9162,
      "stricted": 9163,
      "AST": 9164,
      "epending": 9165,
      "ĠScot": 9166,
      "ĠConfidential": 9167,
      "Ġopposed": 9168,
      "Ġconsumer": 9169,
      "963": 9170,
      "Ġï¬ģrst": 9171,
      "ĠMyanmar": 9172,
      "ĠRece": 9173,
      "alton": 9174,
      "Ġprofit": 9175,
      "Ġconcerned": 9176,
      "Ġmotivations": 9177,
      "Ġfacility": 9178,
      "Ġcorporations": 9179,
      "ĠSeduploader": 9180,
      "Eng": 9181,
      "ospit": 9182,
      "Ġholds": 9183,
      "Ġbiggest": 9184,
      "Ġ5500": 9185,
      "Ġdescribing": 9186,
      "Ġskilled": 9187,
      "Ġlosses": 9188,
      "Ġgeographic": 9189,
      "Ø§ÙĦ": 9190,
      "ĠKillDisk": 9191,
      "ĠMachine": 9192,
      "ĠDATA": 9193,
      "Ġarrested": 9194,
      "Ġsuspicion": 9195,
      "ĠNetherlands": 9196,
      "ĠOPERATION": 9197,
      "064": 9198,
      "224": 9199,
      "Att": 9200,
      "IB": 9201,
      "Tech": 9202,
      "Trend": 9203,
      "java": 9204,
      "language": 9205,
      "mstar": 9206,
      "pub": 9207,
      "was": 9208,
      "well": 9209,
      "xc": 9210,
      "Ġtree": 9211,
      "inch": 9212,
      "rell": 9213,
      "ico": 9214,
      "Ġrequ": 9215,
      "tel": 9216,
      "ulates": 9217,
      "Ġnt": 9218,
      "Ġnatur": 9219,
      "ĠDom": 9220,
      "ĠFax": 9221,
      "ĠEle": 9222,
      "ĠBer": 9223,
      "ĠBulletin": 9224,
      "Ġenem": 9225,
      "span": 9226,
      "ĠLama": 9227,
      "allin": 9228,
[...]
